<pad>	0
<s>	0
</s>	0
<unk>	0
<mask>	0
.	-3.12653
▁	-3.8835
,	-3.89319
▁के	-5.43412
▁છે	-5.47856
।	-5.49066
്	-5.78924
▁आहे	-5.90903
▁है	-5.92505
▁की	-5.9611
▁ಮತ್ತು	-5.96416
-	-5.97592
▁અને	-6.02525
ം	-6.06396
▁में	-6.06775
ની	-6.17738
ದ	-6.18442
▁को	-6.21982
ના	-6.22619
1	-6.24542
:	-6.25786
▁पर	-6.26734
▁और	-6.26744
0	-6.28806
▁का	-6.33842
માં	-6.36297
▁एक	-6.36504
▁से	-6.36563
▁ഒരു	-6.37226
▁ಈ	-6.41194
ಗಳು	-6.42148
▁आणि	-6.43799
2	-6.46715
ു	-6.47976
ને	-6.50389
▁આ	-6.56248
▁ने	-6.59274
ी	-6.59842
ಯ	-6.63782
▁या	-6.64488
)	-6.64915
ും	-6.654
▁(	-6.65503
▁માટે	-6.67673
ಗಳನ್ನು	-6.71964
ಗಳ	-6.78001
▁ಎಂದು	-6.78922
ത്	-6.79544
ा	-6.80451
▁એક	-6.82118
त	-6.82263
▁ഈ	-6.88124
च	-6.88998
▁કે	-6.91282
▁પર	-6.93597
ला	-6.95071
च्या	-6.96082
▁-	-6.96523
ವನ್ನು	-6.98573
യും	-7.01011
ಗೆ	-7.01049
?	-7.01307
े	-7.01605
▁कर	-7.02242
ನ	-7.03237
യുടെ	-7.04326
નો	-7.04419
▁પણ	-7.04479
ો	-7.05248
5	-7.06568
ಿ	-7.07467
▁कि	-7.07831
▁हैं	-7.07868
;	-7.0822
▁इस	-7.11897
▁व	-7.12929
▁ಅವರು	-7.14765
▁ಒಂದು	-7.15293
▁"	-7.15813
ರ	-7.16048
3	-7.1733
▁लिए	-7.17769
ने	-7.17794
ി	-7.18516
ಕ್ಕೆ	-7.205
’	-7.21035
ી	-7.22421
▁‘	-7.22667
ದಲ್ಲಿ	-7.22967
വും	-7.2446
ന്	-7.25318
ക്ക്	-7.26332
ರು	-7.27009
▁आहेत	-7.27391
ે	-7.28654
ು	-7.29015
ों	-7.29201
ില്	-7.2963
न	-7.29975
▁भी	-7.3078
▁ಇದು	-7.31896
ിൽ	-7.32415
▁કરી	-7.32565
▁ही	-7.34313
4	-7.35638
▁જ	-7.35688
चे	-7.36116
"	-7.36397
થી	-7.37386
चा	-7.37588
र	-7.37617
ಯನ್ನು	-7.37997
ಲು	-7.38115
▁तो	-7.38221
▁તે	-7.38282
क	-7.3841
▁સાથે	-7.38658
▁എന്ന	-7.38907
ാണ്	-7.39902
▁ಆದರೆ	-7.40463
ही	-7.41122
▁नाही	-7.41324
ುವ	-7.42043
യ	-7.4305
स	-7.43464
ल	-7.43919
ची	-7.44653
ात	-7.45507
ൻ	-7.46698
9	-7.47111
▁हे	-7.4724
ാ	-7.47877
സ്	-7.49063
▁ನೀವು	-7.5054
▁करने	-7.52176
ാന്	-7.52403
ാൻ	-7.53602
യില്	-7.54291
▁હતી	-7.56645
▁यह	-7.56758
▁ಹಾಗೂ	-7.5679
▁ആ	-7.56841
એ	-7.56952
യാണ്	-7.57379
ിന്റെ	-7.57469
8	-7.57857
യിൽ	-7.58237
ವು	-7.58346
മ	-7.59392
▁ಅವರ	-7.59884
മാണ്	-7.59934
ता	-7.60053
6	-7.60171
▁तर	-7.60639
▁ಅಥವಾ	-7.61104
ുന്ന	-7.61122
ಯಲ್ಲಿ	-7.61294
ത	-7.61303
वर	-7.61997
ത്തിന്റെ	-7.6309
म	-7.63509
▁किया	-7.63621
ಸ್	-7.63657
7	-7.65027
નું	-7.65345
ं	-7.6593
ന	-7.65985
ങ്ങൾ	-7.68361
യെ	-7.68777
▁हो	-7.69163
മായ	-7.69819
ಗಳಲ್ಲಿ	-7.70855
▁નથી	-7.70904
▁नहीं	-7.71027
ർ	-7.71387
ത്തില്	-7.71686
െ	-7.72714
ൽ	-7.73115
▁ಆ	-7.74355
ક	-7.74361
ക്ക	-7.7438
ര്	-7.76609
मध्ये	-7.76832
ना	-7.7713
ली	-7.78363
ത്തിൽ	-7.78449
മായി	-7.80089
ವಾಗಿ	-7.80166
ले	-7.80207
▁सरकार	-7.80385
▁ಬಗ್ಗೆ	-7.80389
ങ്ങള്	-7.80795
ಕ	-7.80807
▁പറഞ്ഞു	-7.8107
ર	-7.81199
ുകൾ	-7.81244
▁തന്നെ	-7.82061
▁'	-7.82102
ുക	-7.82254
▁होते	-7.82715
▁गया	-7.82725
▁ನಿಮ್ಮ	-7.8308
ಗಳಿಗೆ	-7.83317
▁કરવા	-7.83903
▁ಮೇಲೆ	-7.84055
▁એ	-7.84061
कर	-7.84067
▁न	-7.84106
ത്തിന്	-7.84378
▁यांनी	-7.84533
വ	-7.85096
▁ते	-7.8555
!	-7.85825
'	-7.85954
▁જે	-7.87195
കൾ	-7.8864
ನ್	-7.88829
ുന്നത്	-7.89383
▁हा	-7.89463
ಾ	-7.89473
ून	-7.89573
ത്തെ	-7.89935
▁साथ	-7.90888
▁करण्यात	-7.91173
▁അത്	-7.91915
ન	-7.92311
▁ನಂತರ	-7.92625
▁ತಮ್ಮ	-7.92704
ല്	-7.93219
ുന്നു	-7.93253
▁:	-7.93396
▁അ	-7.9345
್	-7.93467
તા	-7.94883
ಿದೆ	-7.95797
ിന്	-7.96472
ದಿಂದ	-7.96821
ಿದ್ದಾರೆ	-7.97192
મ	-7.97251
ाच्या	-7.98034
ക	-7.98102
ിലെ	-7.98494
▁કરવામાં	-7.98526
्स	-7.98538
▁ಮೂಲಕ	-7.98695
▁काम	-7.98904
▁अपने	-7.992
▁તમે	-8.00073
▁હતો	-8.01
ುತ್ತದೆ	-8.0175
व	-8.02812
ല	-8.03039
ೆ	-8.03307
▁कहा	-8.04137
▁पण	-8.0439
▁आज	-8.04447
▁था	-8.04542
ില്ല	-8.06096
▁અથવા	-8.06288
▁હતા	-8.06328
▁बाद	-8.06365
ज	-8.07145
റ	-8.07884
▁તો	-8.08124
ോ	-8.08947
▁ഇത്	-8.08968
સ	-8.09051
കള്	-8.09077
प	-8.09692
ઓ	-8.10023
▁શકે	-8.10165
▁केली	-8.10182
લ	-8.10311
ड	-8.11622
ા	-8.12344
ുകയും	-8.12637
▁रहे	-8.13004
▁દ્વારા	-8.13024
▁ಅ	-8.1316
ವಾದ	-8.13606
▁നിന്ന്	-8.13753
ाचा	-8.13938
യിലെ	-8.14034
▁പി	-8.15005
ವ	-8.15081
▁काही	-8.15164
ಿರುವ	-8.1521
▁आ	-8.15232
▁ન	-8.15271
ುವುದು	-8.15499
ाची	-8.15897
▁असे	-8.16082
ट	-8.16357
ಲ್	-8.1664
ങ്ങളും	-8.16787
▁सर्व	-8.16853
▁केले	-8.1711
્સ	-8.1717
ണം	-8.17285
ರ್	-8.17652
ര	-8.1796
▁എ	-8.18189
▁ತನ್ನ	-8.1843
ിരുന്നു	-8.18602
य	-8.18756
▁आपण	-8.18949
▁હોય	-8.1922
ನಲ್ಲಿ	-8.1935
▁വി	-8.20017
ಲ್ಲಿ	-8.20505
▁तक	-8.20672
ू	-8.20893
സ	-8.21489
▁हुए	-8.21695
ब	-8.21704
▁કરે	-8.22395
▁ಎಂಬ	-8.22551
▁करते	-8.23351
ത്ത	-8.23536
▁ಯಾವುದೇ	-8.23553
▁आप	-8.23559
േ	-8.23573
ाला	-8.24109
ಬೇಕು	-8.24296
▁આવી	-8.24783
▁होता	-8.24937
▁എന്നാൽ	-8.24946
ಕ್	-8.25181
▁આવે	-8.25348
ിയ	-8.25596
ो	-8.26134
ಬಹುದು	-8.26508
▁जा	-8.27294
▁ನಮ್ಮ	-8.2802
▁भारत	-8.28093
ाचे	-8.28136
▁अ	-8.28229
▁दिया	-8.28415
▁आले	-8.28745
ನ್ನು	-8.28874
▁കഴിഞ്ഞ	-8.29033
ते	-8.29053
▁म्हणून	-8.29326
ವಾಗಿದೆ	-8.2933
ുള്ള	-8.29473
▁ಹೆಚ್ಚು	-8.29738
▁സി	-8.29939
▁ಎಲ್ಲಾ	-8.30131
▁પરંતુ	-8.30571
ിനെ	-8.31046
ाने	-8.32412
▁എല്ലാ	-8.32584
▁अनेक	-8.32929
▁વધુ	-8.32943
▁गई	-8.32982
ായ	-8.33344
ावर	-8.33575
▁रहा	-8.33657
ં	-8.3368
▁പുതിയ	-8.34078
ಸ	-8.34239
પ	-8.3436
▁വലിയ	-8.35557
▁ಕೆಲವು	-8.36034
ಲಿ	-8.36107
ण	-8.3631
▁होती	-8.364
▁ഏറ്റവും	-8.36733
ರೆ	-8.36755
▁അദ്ദേഹം	-8.37008
▁എന്ന്	-8.37366
▁केला	-8.37661
പ്പ	-8.37663
▁ઉપયોગ	-8.37925
▁રીતે	-8.38254
ാം	-8.388
ಯು	-8.3884
ಟ್	-8.39027
▁आपल्या	-8.39291
▁वह	-8.39489
▁इसके	-8.39958
യ്ക്ക്	-8.40375
▁અ	-8.40965
ಲ	-8.41076
ಯಿಂದ	-8.41234
ित	-8.41365
▁നിങ്ങൾ	-8.41371
▁ഇ	-8.41693
▁मात्र	-8.42469
द	-8.42565
▁थे	-8.42844
ണ	-8.42913
▁ಕೆಲಸ	-8.42947
▁જો	-8.42996
▁आता	-8.43068
▁सिंह	-8.43083
▁करून	-8.43473
िंग	-8.43673
▁कारण	-8.43797
▁त्या	-8.43904
ക്കു	-8.44063
▁त्यामुळे	-8.4423
▁കെ	-8.44634
ന്റെ	-8.44715
ായി	-8.44716
▁गए	-8.45154
▁असून	-8.45333
▁समय	-8.46126
रा	-8.46141
▁પછી	-8.46801
ಿದ	-8.46898
नी	-8.46975
ांना	-8.47003
▁पहले	-8.47111
ಿಗೆ	-8.4785
▁रही	-8.48241
साठी	-8.48361
ിട്ടുണ്ട്	-8.48396
▁ചെയ്ത	-8.48451
▁अब	-8.48731
ದೆ	-8.49029
▁ಹೊಸ	-8.49111
▁भारतीय	-8.49261
या	-8.4928
...	-8.4936
▁आली	-8.49728
▁വളരെ	-8.4993
▁अधिक	-8.49985
▁હતું	-8.49994
ग	-8.50139
ുകള്	-8.50141
ೇ	-8.50537
യുള്ള	-8.50607
▁ക	-8.5147
▁എന്നാല്	-8.5157
▁जो	-8.51839
ಡ್	-8.52102
▁તમારા	-8.52106
▁ಉತ್ತಮ	-8.52303
ಸಿ	-8.52538
▁अध्यक्ष	-8.5257
▁ആണ്	-8.52647
ച്ച	-8.52722
ई	-8.5278
▁થઈ	-8.52877
વ	-8.52925
▁છો	-8.52999
ാനുള്ള	-8.53003
▁മ	-8.53249
▁તરીકે	-8.53573
ಂ	-8.53627
▁થાય	-8.53807
കളും	-8.5384
▁કોઈ	-8.54136
▁प्रदेश	-8.54166
▁നടത്തിയ	-8.54741
ಾಗ	-8.5488
ಮ	-8.55062
▁राज्य	-8.55449
▁ചില	-8.55562
ಿದ್ದ	-8.55585
▁നിന്നും	-8.55602
▁ಎರಡು	-8.55642
ि	-8.55739
▁എസ്	-8.55888
િંગ	-8.56095
री	-8.5611
▁अपनी	-8.56348
ತ	-8.56406
▁ಇಲ್ಲ	-8.56461
ಯೇ	-8.56986
▁ನಾವು	-8.57116
▁आवश्यक	-8.57369
ಗ	-8.57491
▁કરો	-8.57497
▁ಮೊದಲ	-8.57664
▁ಕಾರಣ	-8.57882
▁ಮಾಡಲು	-8.58013
▁ശേഷം	-8.58017
▁બે	-8.58096
ക്	-8.58117
▁സംസ്ഥാന	-8.58341
സി	-8.58439
▁ചെയ്തു	-8.58744
▁–	-8.58757
श	-8.58839
ഡ്	-8.5884
▁तरह	-8.59038
ವೇ	-8.59493
ಡಿ	-8.59614
▁ಸಹ	-8.59833
▁અન્ય	-8.59865
▁तसेच	-8.60102
વા	-8.60116
▁തന്റെ	-8.60445
വി	-8.61026
▁करण्यासाठी	-8.61095
ांच्या	-8.6155
ങ്ങളുടെ	-8.6159
▁ಅದರ	-8.6164
वा	-8.62235
▁घर	-8.62412
▁તેઓ	-8.62953
ುತ್ತಾರೆ	-8.6304
▁ક	-8.63082
ുകയായിരുന്നു	-8.63109
ಲಾಗಿದೆ	-8.63203
▁स	-8.63453
▁ಅದು	-8.63518
താണ്	-8.6389
ती	-8.6391
ह	-8.63948
ડ	-8.64019
णे	-8.64315
ರಿ	-8.64555
ವಿ	-8.64654
▁करत	-8.64661
▁एका	-8.64706
ಿಂದ	-8.64813
▁दोन	-8.64828
ಿದ್ದು	-8.65349
का	-8.65549
s	-8.65591
▁किंवा	-8.65657
▁लेकर	-8.65786
▁पुलिस	-8.65863
ായിരുന്നു	-8.6602
▁लेकिन	-8.66105
ટ	-8.66111
റ്റ	-8.66111
▁പല	-8.66258
ણ	-8.66447
ക്കും	-8.66487
റി	-8.66506
ಯೂ	-8.66527
▁मुंबई	-8.66794
▁તેમના	-8.67165
▁आला	-8.67609
ಳ	-8.67696
▁તેના	-8.67847
▁സ	-8.67994
ಗಳಿಂದ	-8.68285
▁यांच्या	-8.68414
ळ	-8.6872
ಪ್ಪ	-8.68743
▁ಮಾತ್ರ	-8.68834
മുള്ള	-8.69512
▁ಹೆಚ್ಚಿನ	-8.69595
ांनी	-8.69808
▁എം	-8.69853
ിരിക്കുന്നത്	-8.70172
ുമായി	-8.70233
▁അവർ	-8.70251
▁सुरू	-8.70252
▁ಈಗ	-8.70373
ട്ട	-8.70403
▁झाले	-8.70566
▁अशा	-8.70604
▁तीन	-8.70615
ാനും	-8.70689
▁ನನ್ನ	-8.71006
▁കേന്ദ്ര	-8.71031
▁देश	-8.71109
▁ब	-8.71372
നെ	-8.71731
▁मध्ये	-8.7187
ನಿ	-8.71949
▁ಅನೇಕ	-8.72059
▁നിങ്ങളുടെ	-8.72109
ള	-8.72126
തും	-8.72215
▁सकते	-8.72218
ನು	-8.72453
▁ಇದೆ	-8.72628
▁करता	-8.73095
ತೆ	-8.73103
▁അവരുടെ	-8.73244
▁दी	-8.73418
/	-8.73491
▁थी	-8.73525
▁विचार	-8.73582
ಿದ್ದರು	-8.73599
મા	-8.73781
ત	-8.74018
ಮ್	-8.74113
▁ವಿವಿಧ	-8.74147
▁कुछ	-8.74157
▁करना	-8.7419
▁ಕೂಡ	-8.74213
ಿದರು	-8.74336
▁നടന്ന	-8.74564
જ	-8.74661
▁ಕಡಿಮೆ	-8.74915
▁ആദ്യ	-8.75255
▁જોઈએ	-8.7551
യായ	-8.7552
യോ	-8.7552
ातील	-8.75768
▁വഴി	-8.76063
പ	-8.76301
▁ಕೇವಲ	-8.76439
ांची	-8.76641
▁सु	-8.7711
ത്ത്	-8.7713
നി	-8.77216
ൂ	-8.77241
തു	-8.77269
રી	-8.77318
▁ಕನ್ನಡ	-8.77323
അ	-8.77366
▁ಕ	-8.77387
▁ಆದ್ದರಿಂದ	-8.77408
▁“	-8.77451
ದು	-8.77741
▁उनके	-8.78033
ിച്ച	-8.78107
ल्या	-8.78138
▁ಮಾಡಿ	-8.78376
ುತ್ತವೆ	-8.78539
▁അല്ലെങ്കിൽ	-8.78655
▁ಇ	-8.78748
▁ಅನ್ನು	-8.78832
▁ದೊಡ್ಡ	-8.78999
▁होत	-8.79042
ുകയാണ്	-8.79081
കളുടെ	-8.79114
तील	-8.79123
▁ನ	-8.79148
▁निर्णय	-8.79165
▁एवं	-8.79349
▁સમય	-8.79458
▁बार	-8.79517
▁ഐ	-8.79545
▁ವಿ	-8.80104
▁മുഖ്യമന്ത്രി	-8.80288
▁उत्तर	-8.80306
▁ಇತರ	-8.80386
▁രണ്ട്	-8.8088
▁जब	-8.80884
ಣ	-8.81064
▁ಕೆ	-8.81145
▁म	-8.81181
ु	-8.81233
शी	-8.81375
▁ರಾಜ್ಯ	-8.81388
ാല്	-8.81485
▁अशी	-8.81495
ನೆ	-8.8161
▁हर	-8.81699
्या	-8.81717
ಲ್ಲ	-8.82083
▁द्वारा	-8.82194
▁ಪ್ರತಿ	-8.82275
▁ಎಲ್ಲ	-8.82401
ഡ	-8.82407
ೋ	-8.82476
▁കൂടുതൽ	-8.82479
▁ನಾನು	-8.82554
્યા	-8.82673
▁કામ	-8.82716
ല്ല	-8.83045
▁ಆಗ	-8.83222
्य	-8.83253
દ	-8.83254
▁പ്രധാന	-8.83256
▁हम	-8.83267
▁ಕೇಂದ್ರ	-8.83362
▁कमी	-8.83383
റ്റ്	-8.83465
യായി	-8.83676
▁कई	-8.83677
▁मुख्यमंत्री	-8.8376
▁കാരണം	-8.83786
બ	-8.83827
ಿತು	-8.83858
▁બાદ	-8.8386
▁कोई	-8.84023
▁झाली	-8.8404
▁ಮಾಡ	-8.84066
ગ	-8.84093
▁പറയുന്നു	-8.8424
▁महिला	-8.8435
▁जे	-8.84553
ासाठी	-8.84571
ാതെ	-8.84705
▁ಸಂದರ್ಭದಲ್ಲಿ	-8.84847
▁સ	-8.852
▁काय	-8.85207
▁ಬಿ	-8.85228
डी	-8.85282
▁മന്ത്രി	-8.85412
▁സര്ക്കാര്	-8.8545
▁असा	-8.85542
ರಿಗೆ	-8.85634
▁माहिती	-8.85752
▁उन्होंने	-8.85761
ാൽ	-8.85844
▁ಮುಖ್ಯ	-8.85861
▁രാഷ്ട്രീയ	-8.85914
▁ಅದನ್ನು	-8.86125
▁त्यांच्या	-8.86401
ನಾ	-8.86534
▁विकास	-8.86553
ാത്ത	-8.8656
▁कार्यक्रम	-8.86604
▁ಮಾಡುವ	-8.86704
मा	-8.86723
ಹ	-8.86883
ವರು	-8.86905
▁મ	-8.87034
▁मी	-8.87078
फ	-8.87083
▁ವಿರುದ್ಧ	-8.87136
के	-8.87386
പ്പെട്ട	-8.87444
ഗ	-8.87484
जी	-8.8771
ಟಿ	-8.87739
▁રહી	-8.87827
▁ये	-8.87975
▁ಬಿಜೆಪಿ	-8.88032
िक	-8.88169
ിലേക്ക്	-8.88276
ട	-8.8852
▁તમામ	-8.88542
▁ബി	-8.8873
ಡ	-8.89135
▁अन्य	-8.89233
ುವುದಿಲ್ಲ	-8.89406
▁പൊലീസ്	-8.89546
▁कम	-8.89565
▁आपको	-8.89853
▁വരെ	-8.90096
ശ	-8.9022
ೂ	-8.90233
▁मुख्य	-8.90255
ತ್ತ	-8.90371
▁നടപടി	-8.90427
▁बस	-8.90497
▁દરમિયાન	-8.90703
▁दिवस	-8.90778
▁करणे	-8.90927
ിലും	-8.90972
▁શકો	-8.91027
▁वाले	-8.91197
▁होने	-8.91247
▁ಪ್ರಮುಖ	-8.91351
ത്തിനു	-8.91489
▁पूर्व	-8.91512
▁ಸರ್ಕಾರ	-8.91613
▁കോടതി	-8.91621
▁ಎ	-8.91672
▁इन	-8.91687
▁भर	-8.91786
▁നല്ല	-8.91808
ಿಲ್ಲ	-8.92011
▁नि	-8.9217
▁दिन	-8.92224
ാന	-8.92232
ीत	-8.92233
▁मोदी	-8.92301
શ	-8.92332
▁ಅತ್ಯಂತ	-8.92409
▁बात	-8.92497
▁झाला	-8.92754
ವರ	-8.92988
തായി	-8.93019
▁लोक	-8.93053
▁दिल्ली	-8.93097
▁કારણ	-8.9311
▁ഇന്ത്യ	-8.93213
▁કરવાની	-8.93547
▁वापर	-8.93809
▁प्रयत्न	-8.93915
ए	-8.93971
▁आरोप	-8.93977
▁आई	-8.9401
▁വേണ്ടി	-8.94119
▁ती	-8.94126
▁विभाग	-8.94139
ത്തിലെ	-8.94386
▁പ	-8.94455
▁हुआ	-8.9447
▁सकता	-8.94489
▁ത	-8.94711
▁ಅವರಿಗೆ	-8.94752
▁કારણે	-8.94785
▁त्यांनी	-8.94822
▁മികച്ച	-8.94847
▁ખૂબ	-8.94921
ങ്ങളെ	-8.95014
▁മാത്രം	-8.95029
▁જરૂર	-8.95044
ലി	-8.95274
▁നിരവധി	-8.95282
લા	-8.95373
ख	-8.954
▁કર્યો	-8.95624
▁रूप	-8.95654
ടി	-8.95746
ಪ್	-8.9578
ങ്ങളില്	-8.95799
▁പോലീസ്	-8.95833
▁ए	-8.95838
▁करू	-8.96016
▁अधिकारी	-8.96068
▁ना	-8.96198
▁होगा	-8.96307
▁ವಿಶೇಷ	-8.96315
▁सभी	-8.96341
▁કરીને	-8.96764
▁രൂപ	-8.96823
▁ಕಾಲ	-8.96903
▁വിവിധ	-8.97378
ങ്ങളിൽ	-8.97459
ജ	-8.97484
ുടെ	-8.97572
▁म्हणजे	-8.97738
ઝ	-8.97768
▁ഞാൻ	-8.98183
▁असलेल्या	-8.98228
▁കഴിയും	-8.98302
लं	-8.98504
ബ	-8.98536
વી	-8.98546
▁രണ്ടു	-8.98594
▁માત્ર	-8.98761
▁જ્યારે	-8.98771
ಿತ್ತು	-8.98808
വര്	-8.98818
▁फिर	-8.98931
ನೇ	-8.98936
▁ಕಾಂಗ್ರೆಸ್	-8.98988
ഡി	-8.99093
▁ಅಧ್ಯಕ್ಷ	-8.99223
▁इतर	-8.99303
▁સુધી	-8.99309
▁ಸಿ	-8.99423
▁ഇവിടെ	-8.99435
▁ನಡೆದ	-8.99461
▁ಬ	-8.99575
▁जात	-8.99743
▁പ്രത്യേക	-8.99767
▁प्र	-8.99823
കളെ	-8.99827
▁येथे	-8.9985
ദ	-8.99854
▁ವೇಳೆ	-8.99915
▁तयार	-8.99957
▁सबसे	-8.99966
▁शहर	-9.00036
्	-9.00078
▁ಅವರನ್ನು	-9.00087
പി	-9.00122
ತ್	-9.00267
▁ഇന്ന്	-9.00472
▁ഡി	-9.00502
▁ಎಂದರು	-9.00575
सा	-9.00672
▁ಎಸ್	-9.00712
▁क्षेत्र	-9.0074
ವೆ	-9.00906
▁ದಿನ	-9.00994
▁ಹೇಗೆ	-9.0106
▁|	-9.01379
ର	-9.01503
▁कंपनी	-9.01674
▁ദിവസം	-9.01686
ജി	-9.01748
ಮಾ	-9.01761
▁કરતા	-9.01893
▁कार्य	-9.01944
▁પ્રથમ	-9.0205
ುವಂತೆ	-9.02087
ುತ್ತಿರುವ	-9.02278
▁ചെയ്യുന്ന	-9.02314
▁प्रत्येक	-9.0242
હ	-9.02499
ിച്ചു	-9.02676
ിരുന്ന	-9.02685
▁അടുത്ത	-9.02696
▁ಸ	-9.02774
▁बंद	-9.02778
▁कुमार	-9.02929
▁प्रश्न	-9.03049
તી	-9.03072
▁നല്കിയ	-9.03134
വര	-9.03504
▁असेल	-9.03534
ಟ	-9.03535
യ്	-9.03554
चं	-9.03572
▁बदल	-9.03616
▁ജോലി	-9.03653
▁त्याच्या	-9.03659
▁ಉತ್ತರ	-9.03728
ുകളും	-9.03788
▁उपलब्ध	-9.03864
▁ಮಾಹಿತಿ	-9.03904
ांचा	-9.04037
▁പോലെ	-9.04132
▁ಆಯ್ಕೆ	-9.04167
ુ	-9.0425
▁त्यांना	-9.0428
િત	-9.04451
पुर	-9.04482
െന്ന്	-9.04668
തോടെ	-9.04681
ಜ	-9.04819
▁बहुत	-9.0488
ಗಾಗಿ	-9.04883
ഷ	-9.05074
टी	-9.0519
ദ്	-9.05271
▁मंत्री	-9.0537
▁विशेष	-9.05463
▁રહ્યા	-9.05584
▁ಅಗತ್ಯ	-9.05651
▁केंद्र	-9.05675
▁ત્યારે	-9.0569
માંથી	-9.05755
▁टीम	-9.05781
▁निर्माण	-9.05805
▁हुई	-9.0582
▁तरी	-9.05837
▁असल्याचे	-9.05898
ंड	-9.05906
कडे	-9.05966
▁എന്റെ	-9.06357
▁ಕಳೆದ	-9.06386
ുന്നതിന്	-9.06406
▁വന്ന	-9.06406
▁चार	-9.06592
▁ബിജെപി	-9.06618
▁नाम	-9.06794
▁ના	-9.06853
ಂತೆ	-9.06959
▁वि	-9.07134
▁ಹೇಳಿದರು	-9.07232
ಕೆ	-9.07297
▁येत	-9.07316
▁प	-9.07466
ുമ്പോൾ	-9.07557
▁സിനിമ	-9.07658
▁અલગ	-9.07853
ತಿ	-9.07893
▁ಅವಕಾಶ	-9.07971
ಲೆ	-9.08022
▁अपना	-9.08116
ಯಾಗಿ	-9.08176
തി	-9.08221
▁സെക്രട്ടറി	-9.08393
▁ಇಲ್ಲಿ	-9.08411
▁શકાય	-9.08454
(	-9.08478
രി	-9.08498
▁ಡಿ	-9.08753
▁घटना	-9.08857
ियों	-9.0893
▁उपस्थित	-9.09008
ડી	-9.09195
ുമെന്ന്	-9.0923
▁ಜನರು	-9.09233
▁കേരള	-9.0924
▁तथा	-9.09257
▁दो	-9.09272
▁കൊണ്ട്	-9.09307
▁નહીં	-9.09358
▁അതിന്റെ	-9.09386
▁പദ്ധതി	-9.09755
ಪ	-9.09805
▁പോലും	-9.10064
▁കൈ	-9.10125
▁നി	-9.10239
િક	-9.10385
േണ്ട	-9.1049
▁ಬಂದ	-9.10502
रे	-9.10569
▁भाग	-9.10575
▁પોલીસ	-9.10581
▁લોકો	-9.10733
▁പരാതി	-9.11061
ഹ	-9.11135
▁തുടങ്ങിയ	-9.11141
▁फक्त	-9.11189
▁તમને	-9.11371
▁હવે	-9.11388
मधील	-9.11488
જી	-9.11572
▁येथील	-9.11717
▁प्रकार	-9.11721
▁പറഞ്ഞ	-9.11756
▁/	-9.11853
ക്കെതിരെ	-9.11856
▁કરશે	-9.11953
▁ಇಂತಹ	-9.11963
▁ग	-9.12189
ന്ന	-9.12212
▁કેટલાક	-9.12215
णी	-9.12351
ത്തി	-9.12467
▁ഉണ്ട്	-9.12481
▁ಸಮಯದಲ್ಲಿ	-9.12548
▁ಚಿತ್ರ	-9.12565
▁ಜೊತೆಗೆ	-9.12663
ಬ	-9.12774
▁बताया	-9.12879
മോ	-9.12885
▁ಸಹಾಯ	-9.12919
▁अगर	-9.12951
▁വില	-9.13098
▁ಅಲ್ಲ	-9.13124
▁പ്ര	-9.13235
ફ	-9.13261
▁साल	-9.13368
ಅ	-9.13461
ില	-9.13519
▁ઉપર	-9.13549
▁ಸಣ್ಣ	-9.13684
ಜಿ	-9.13685
િ	-9.13765
▁ഓരോ	-9.13903
▁उसके	-9.14164
മി	-9.14274
▁നിയമ	-9.1429
▁पक्ष	-9.14311
▁ಸಾಕಷ್ಟು	-9.14361
▁इ	-9.14428
▁उस	-9.14438
▁દરેક	-9.14441
▁ಸಚಿವ	-9.14492
”	-9.14687
▁किसी	-9.14748
ವೂ	-9.1487
▁તેની	-9.14904
ರಾ	-9.14974
▁दौरान	-9.15031
▁ರೀತಿಯ	-9.15073
ിനു	-9.15201
▁ಮಾಡಬಹುದು	-9.1524
▁പ്രധാനമന്ത്രി	-9.15404
सी	-9.15466
▁ವರ್ಷ	-9.15494
▁તેને	-9.15527
▁മറ്റ്	-9.15809
▁ಹೇಳ	-9.15968
ांचे	-9.16079
▁जीवन	-9.16164
െങ്കിലും	-9.16168
▁उच्च	-9.16253
▁भाजपा	-9.16261
▁नगर	-9.16303
▁તેમજ	-9.16414
▁അങ്ങനെ	-9.16431
വുമായി	-9.16477
▁दाखल	-9.16536
નાં	-9.16571
▁മാത്രമല്ല	-9.16621
▁ಕಾರ್ಯ	-9.16801
▁प्रमुख	-9.16832
▁आम्ही	-9.16914
▁સૌથી	-9.16968
പ്പോൾ	-9.17021
▁पूर्ण	-9.17067
दार	-9.17092
▁जाते	-9.17103
ರನ್ನು	-9.17309
ിക	-9.17352
▁ಯಾವ	-9.17515
നായ	-9.17524
ುತ್ತಿದೆ	-9.17771
▁ಇದನ್ನು	-9.17839
▁સામે	-9.17887
തിന്	-9.1789
▁ടി	-9.18074
ണമെന്ന്	-9.18083
▁ಜನ	-9.18098
▁આપી	-9.18101
▁चाहिए	-9.18118
▁તેમને	-9.18127
▁എന്നിവ	-9.182
ಕಾ	-9.18273
ರೂ	-9.18353
ುತ್ತಿದ್ದಾರೆ	-9.18403
ിക്ക	-9.18437
▁करें	-9.18526
തെന്ന്	-9.18533
▁विविध	-9.1859
വർ	-9.18643
▁ಹ	-9.18729
▁ಶ್ರೀ	-9.18851
▁दरम्यान	-9.18856
▁തിരുവനന്തപുരം	-9.18871
പ്പോള്	-9.18891
ച	-9.19053
▁વિ	-9.19061
▁असते	-9.19116
वि	-9.19148
ുണ്ട്	-9.19257
▁થઇ	-9.19379
ിംഗ്	-9.1944
▁ഒ	-9.19546
▁ಬಳಿಕ	-9.19742
▁આજે	-9.1979
રા	-9.19845
▁राज	-9.19856
▁ಇಂದು	-9.1986
▁ಹಣ	-9.1997
थ	-9.20048
▁ನೀಡ	-9.20106
വ്	-9.20186
से	-9.20208
ങ്ങള	-9.20229
▁પ્ર	-9.20244
▁ಸಾಮಾನ್ಯವಾಗಿ	-9.20279
▁करा	-9.20289
▁ಪಿ	-9.20294
▁ಮೂರು	-9.20296
▁राष्ट्रीय	-9.20323
▁दिली	-9.2035
▁കൂടി	-9.20419
▁സമയം	-9.20772
ಕ್ಕಾಗಿ	-9.20816
શે	-9.20831
▁વચ્ચે	-9.20976
▁वर्ष	-9.21099
લી	-9.211
▁योजना	-9.21149
▁क	-9.21207
▁ಇನ್ನೂ	-9.2121
▁ಹಲವು	-9.21268
▁राम	-9.21361
▁होणार	-9.21659
▁കണ്ട	-9.21876
▁जी	-9.22081
▁दर	-9.22094
▁તેમણે	-9.22178
▁उनकी	-9.22191
▁ಮಾಡಿದ	-9.22217
▁ಬರ	-9.22239
ीय	-9.22373
▁द	-9.22386
▁શરૂ	-9.22474
दा	-9.22559
▁ചെയ്യ	-9.22569
▁સરકાર	-9.22805
ിട്ടില്ല	-9.22855
വരെ	-9.22962
वी	-9.22992
ಮಿ	-9.23036
ಿನ	-9.23081
ें	-9.23228
▁ले	-9.23279
▁बैठक	-9.23325
ળ	-9.23376
▁प्रदर्शन	-9.23391
ുമ്പോള്	-9.23394
പ്ര	-9.23407
▁ಮ	-9.23427
ങ്ങ	-9.23445
ಿವೆ	-9.23825
ાઈ	-9.23883
▁ಬಹಳ	-9.23946
ಲಾ	-9.23947
▁श्री	-9.23964
▁मु	-9.24051
अ	-9.24053
നും	-9.24166
ಪಿ	-9.24215
▁તમારી	-9.24254
▁અમે	-9.24345
ंग	-9.24355
▁ಕುರಿತು	-9.24406
▁चर्चा	-9.24451
▁യാത്ര	-9.24601
▁തല	-9.24657
▁ಸಾಮಾನ್ಯ	-9.24872
▁ಆಹಾರ	-9.25057
▁ഇത്തരം	-9.25058
▁ಡಾ	-9.25111
▁എങ്ങനെ	-9.25148
▁ಕರ್ನಾಟಕ	-9.25171
ನ್ನ	-9.25182
ണ്ട	-9.25186
▁ಸು	-9.25215
▁પ	-9.25215
▁फिल्म	-9.25259
▁वे	-9.25475
िया	-9.25485
▁അവര്	-9.25577
▁समाज	-9.25617
▁ಆರೋಗ್ಯ	-9.25639
▁સામાન્ય	-9.25668
▁शकते	-9.25704
ದೇ	-9.25794
യിലേക്ക്	-9.25831
રો	-9.25843
▁मे	-9.25911
ય	-9.25963
▁આવશે	-9.26187
▁पाकिस्तान	-9.26229
▁ಭಾರತ	-9.26362
▁ಕ್ರಮ	-9.26404
▁તેમની	-9.26505
▁हजार	-9.2658
▁ച	-9.26789
▁ಮೂಲ	-9.2696
▁बन	-9.27001
ରେ	-9.27165
▁ಮಕ್ಕಳ	-9.27242
ું	-9.27253
▁ખાસ	-9.27308
▁ಆರ್	-9.27599
▁കൂടുതല്	-9.27782
जा	-9.27843
▁ഇപ്പോൾ	-9.27858
▁वर	-9.27981
▁ദേശീയ	-9.27998
▁बीच	-9.28046
▁ഇനി	-9.2807
▁അമ്മ	-9.28162
▁ಮೊದಲು	-9.28174
യുമായി	-9.28224
▁അറിയിച്ചു	-9.28285
▁ಇರುವ	-9.28307
ുകളുടെ	-9.28335
ಲಾಗುತ್ತದೆ	-9.28423
▁ಸೇರಿದಂತೆ	-9.28476
ातून	-9.28479
▁ഇട	-9.28545
▁ಅದೇ	-9.28556
▁ಜ	-9.28579
▁पद	-9.286
▁इससे	-9.28761
▁ಜಿಲ್ಲಾ	-9.28778
▁ನಲ್ಲಿ	-9.28802
ബി	-9.28905
▁બની	-9.28947
▁ख	-9.28949
▁ಉ	-9.28966
▁यांना	-9.29
യിലും	-9.29013
▁എന്നു	-9.29227
▁ઇ	-9.29346
▁येणार	-9.29516
▁സു	-9.29635
▁ಮುಖ್ಯಮಂತ್ರಿ	-9.2976
ास	-9.29833
▁ರಾಜಕೀಯ	-9.29867
▁होईल	-9.29924
▁ಭೇಟಿ	-9.29959
പ്	-9.29966
ચ	-9.29968
▁शकता	-9.29985
ભાઈ	-9.30052
▁खिलाफ	-9.30123
मुळे	-9.30152
ೀ	-9.30192
▁पास	-9.30261
▁देखील	-9.30385
ಸು	-9.30446
ील	-9.30451
▁महाराष्ट्र	-9.30464
▁ત્રણ	-9.30506
ದಂತೆ	-9.30516
ിങ്	-9.30526
ವಾ	-9.30533
ાય	-9.30596
बी	-9.30602
ൺ	-9.30621
▁બહાર	-9.30667
▁મદદ	-9.30688
ಣ್ಣ	-9.30891
▁ബ	-9.30946
കളിൽ	-9.30955
▁पाणी	-9.3097
कार	-9.31138
ಿತ	-9.31144
ाई	-9.31177
્યો	-9.31326
ിരിക്കുന്നു	-9.31402
▁വീണ്ടും	-9.31463
▁मदत	-9.31502
ઈ	-9.31526
▁હાથ	-9.31572
્ય	-9.31678
▁पार्टी	-9.31941
ಂತ	-9.32125
▁डॉ	-9.3217
▁ಕೈ	-9.32183
▁उ	-9.322
▁रंग	-9.32211
▁ಹಿಂದೆ	-9.3224
▁व्यक्त	-9.32264
▁घेऊन	-9.32286
യില	-9.32297
ದ್ದು	-9.32338
णार	-9.32549
▁ಪ್ರಕಾರ	-9.32554
▁മറ്റൊരു	-9.32592
▁ഏറെ	-9.32606
▁ന	-9.32639
▁ಅಲ್ಲಿ	-9.32829
▁આપે	-9.32851
▁ಹಲವಾರು	-9.32861
▁ಸಮಯ	-9.32893
ിക്കുന്ന	-9.33017
▁ಇದರ	-9.33037
▁लिया	-9.3308
▁ನೀರು	-9.33125
▁उप	-9.33145
▁दे	-9.33156
▁બધા	-9.33188
▁ಶಿಕ್ಷಣ	-9.33198
▁सदस्य	-9.33201
▁സർക്കാർ	-9.33212
▁परिणाम	-9.33244
प्र	-9.33339
ಲೇ	-9.3339
പ്പ്	-9.33393
▁ಮನೆ	-9.3364
▁പ്രസിഡന്റ്	-9.33675
ീ	-9.33706
▁ಹೊಂದಿದೆ	-9.3373
की	-9.33777
▁ചെറിയ	-9.33789
െന്ന	-9.33795
▁વાત	-9.33843
കളില്	-9.33857
ിരിക്കുന്ന	-9.33862
▁पोलीस	-9.33871
▁ಬಾರಿ	-9.33883
ठ	-9.34085
▁ओर	-9.34119
▁ಕು	-9.34392
▁मला	-9.34395
▁ತ	-9.34411
▁ഹ	-9.3452
▁મળી	-9.34561
ंना	-9.34608
▁സ്വന്തം	-9.3467
वे	-9.34715
गा	-9.34769
▁ಜೊತೆ	-9.34815
മ്പ	-9.34959
▁ನಡುವೆ	-9.34995
▁s	-9.35037
▁ಎಂ	-9.35063
▁બ	-9.35077
▁അവിടെ	-9.35148
▁नजर	-9.35184
ओं	-9.35234
ण्यासाठी	-9.35274
▁ಮು	-9.35488
ത്തിലും	-9.35511
▁કર્યા	-9.35567
સ્ટ	-9.35603
▁विजय	-9.3577
▁आर्थिक	-9.36104
ದ್ದ	-9.36213
ಯಾಗಿದೆ	-9.36215
▁लोग	-9.36335
ಳು	-9.36348
▁ગયા	-9.36443
▁જેમ	-9.36451
യായിരുന്നു	-9.36678
▁ಪ	-9.36711
▁પોતાના	-9.3678
▁ಜನರ	-9.36969
ൈ	-9.36976
▁വിജയ	-9.36988
▁ದೇಶದ	-9.37084
ेल	-9.37231
▁ನಗರದ	-9.37328
▁ಘಟನೆ	-9.37373
ಶ	-9.37495
▁संघ	-9.37588
മായിരുന്നു	-9.37704
▁ಇದೇ	-9.37724
▁असं	-9.37756
कडून	-9.37765
ിലാണ്	-9.37783
▁ഇപ്പോള്	-9.37785
▁ഇന്ത്യന്	-9.37892
ಬ್	-9.37928
▁विधानसभा	-9.38138
▁ഇല്ല	-9.38145
સી	-9.38156
▁शर्मा	-9.38203
▁വര	-9.3839
▁ઘણા	-9.38423
▁ಮತ್ತೆ	-9.3848
▁જાય	-9.38483
▁ಸ್ವಲ್ಪ	-9.38709
▁നടത്തി	-9.38772
▁आमदार	-9.38795
▁ಅಭಿವೃದ್ಧಿ	-9.38796
▁વિવિધ	-9.38826
▁पोलिस	-9.38827
▁ജില്ലാ	-9.38844
▁कांग्रेस	-9.38854
▁നടക്കുന്ന	-9.39007
▁ഉള്ള	-9.39038
▁मन	-9.39047
തെന്നും	-9.39061
ക്കായി	-9.39138
ड़	-9.39141
ોને	-9.39182
पासून	-9.39227
ಿಸುವ	-9.39255
കള	-9.39296
▁आपके	-9.39304
▁દિવસ	-9.39308
▁മറ്റു	-9.39323
▁पाटील	-9.39336
ൾ	-9.39337
ಗಿ	-9.39354
▁അതു	-9.39496
▁बे	-9.39499
▁ಆಗಿದೆ	-9.39631
▁सेवा	-9.39658
▁പറയുന്നത്	-9.39699
▁असल्याने	-9.39729
▁जाने	-9.39838
▁ചിത്രം	-9.39888
▁സാമ്പത്തിക	-9.39948
▁കാണ	-9.39966
ത്തു	-9.40113
▁प्राप्त	-9.40116
▁दिले	-9.40224
पर	-9.40318
▁ಏನು	-9.40397
▁ಪಾ	-9.40429
ಮ್ಮ	-9.40543
▁നമ്മുടെ	-9.40779
▁किए	-9.40786
▁દૂર	-9.40792
▁खान	-9.40814
▁ജന	-9.40853
▁सह	-9.40942
ડા	-9.41033
▁जाएगा	-9.41076
▁चुनाव	-9.41191
▁आधार	-9.4121
▁വ	-9.41274
ಯಾದ	-9.41356
ഫ്	-9.414
▁വ്യക്തമാക്കി	-9.41406
▁ജി	-9.41506
▁જરૂરી	-9.41547
▁ಪಕ್ಷದ	-9.41577
ಯಾ	-9.41617
ಚ	-9.41622
▁അവ	-9.41655
▁आदेश	-9.41663
▁കോണ്ഗ്രസ്	-9.41722
▁समस्या	-9.41753
▁റ	-9.41818
▁ल	-9.41827
ವಾಗ	-9.41866
થ	-9.41873
ാനാണ്	-9.41918
ટી	-9.41922
ಲಿದೆ	-9.41936
▁ಈಗಾಗಲೇ	-9.4202
▁അതേസമയം	-9.42058
▁കമ്പനി	-9.42242
ರಾದ	-9.42279
▁सी	-9.42304
▁ನಗರ	-9.42333
▁ज	-9.42395
▁पा	-9.42417
▁नवीन	-9.42435
ഇ	-9.42536
▁त्याला	-9.42537
▁सा	-9.42552
▁ह	-9.42563
▁ജെ	-9.42607
▁जानकारी	-9.42628
▁પસંદ	-9.42643
▁എന്നാണ്	-9.4266
ಲಾಯಿತು	-9.42666
▁ബന്ധപ്പെട്ട	-9.42674
सह	-9.42721
▁ലോക	-9.42753
ಕ್ಕೂ	-9.42856
ನಿಂದ	-9.42878
▁മാറ്റ	-9.42886
▁अलग	-9.42893
▁ನಿಮಗೆ	-9.42952
ांवर	-9.43046
),	-9.43054
▁വരുന്ന	-9.43163
▁આવ્યા	-9.43173
▁സ്	-9.43234
ಬಿ	-9.43234
કો	-9.43248
ಕರ	-9.43258
▁सांगितले	-9.43284
▁चित्रपट	-9.43536
▁ऑफ	-9.43549
ണ്	-9.43557
स्ट	-9.43639
▁उन्हें	-9.43708
ಾಗಿ	-9.4372
▁തുടര്ന്ന്	-9.43817
ഴ	-9.4383
▁പക്ഷേ	-9.43889
▁दिला	-9.43895
▁सर्वात	-9.43999
▁ಸಮಸ್ಯೆ	-9.441
ക്കി	-9.44153
റെ	-9.44382
▁ವರ್ಷಗಳ	-9.44427
▁त्यानंतर	-9.44479
▁जारी	-9.44489
▁നിങ്ങൾക്ക്	-9.44539
▁સરળ	-9.44547
▁ರಸ್ತೆ	-9.44616
▁പിന്നീട്	-9.44626
્	-9.44639
▁તથા	-9.44753
▁उसे	-9.44822
ૂ	-9.44867
ಜ್	-9.44946
▁आयोजित	-9.45014
▁पवार	-9.45018
ുമെന്നും	-9.45161
टा	-9.45161
▁सध्या	-9.45303
▁നൽകിയ	-9.45326
ರಲ್ಲಿ	-9.45356
▁देण्यात	-9.45363
ത്തിനും	-9.45552
लेल्या	-9.45634
▁ಸಾಮಾಜಿಕ	-9.45643
▁ನೋಡ	-9.45656
ಕ್ಕ	-9.45667
▁स्पष्ट	-9.45668
તો	-9.45733
રે	-9.45762
▁ಬೆಂಗಳೂರು	-9.45789
▁ലഭിച്ച	-9.458
▁पुन्हा	-9.45801
▁कार	-9.4582
▁കു	-9.45911
▁മൂന്ന്	-9.46077
▁गेल्या	-9.46118
▁અસર	-9.46187
ण्याची	-9.46245
ാവ	-9.46411
▁उत्पादन	-9.46421
▁പ്രതി	-9.46422
ೈ	-9.46423
▁नाहीत	-9.46463
▁તપાસ	-9.46672
▁આવ્યો	-9.46697
▁असताना	-9.46768
ത്തിലാണ്	-9.46813
▁खर्च	-9.46927
▁મે	-9.46931
▁യു	-9.46942
़	-9.47004
ണമെന്നും	-9.47162
डे	-9.47184
▁मार्ग	-9.47238
▁वेळ	-9.47265
▁सुरक्षा	-9.47375
ിച്ച്	-9.47437
▁ಸಂಬಂಧ	-9.47442
▁मा	-9.47522
▁കട	-9.47555
▁പാര്ട്ടി	-9.47692
ഫ	-9.47739
▁झालेल्या	-9.47838
र्स	-9.47878
ओ	-9.47975
മല്ല	-9.48095
▁તરફ	-9.48127
ോട്	-9.48207
▁गो	-9.48218
▁തുടങ്ങി	-9.4832
तो	-9.48323
▁ಮಾಡಬೇಕು	-9.48381
▁ಐ	-9.48468
▁योग्य	-9.4849
▁જોવા	-9.48626
पी	-9.48697
▁जिला	-9.48872
▁ವಿಷಯ	-9.48887
नं	-9.48925
▁ആര്	-9.49003
▁കൂടാതെ	-9.49111
▁വാ	-9.49204
▁ಪರಿಣಾಮ	-9.4925
▁भाजप	-9.49296
▁करण्याची	-9.49331
▁ओ	-9.49382
ರೇ	-9.49406
▁કહ્યું	-9.49423
ण्यात	-9.49493
▁മുമ്പ്	-9.49522
▁दर्ज	-9.49602
▁परंतु	-9.4977
▁લે	-9.49805
▁વિશે	-9.4985
ಫ್	-9.50034
▁लोगों	-9.5008
▁ಮುಂದಿನ	-9.50097
െന്നും	-9.5013
▁आंदोलन	-9.50172
▁यादव	-9.50329
▁ಇಲಾಖೆ	-9.50363
▁ചര്ച്ച	-9.50381
▁मागणी	-9.50495
▁जाता	-9.50666
▁કરતાં	-9.50685
ങ്ക	-9.50693
▁लाख	-9.50701
नि	-9.50779
ിരിക്കുകയാണ്	-9.5078
ുന്നുണ്ട്	-9.5081
▁मामले	-9.5081
▁ഉപയോഗിച്ച്	-9.50832
ാണു	-9.50882
റിയ	-9.50954
ഗ്	-9.50964
▁प्रक्रिया	-9.50975
ಿದರೆ	-9.50992
▁खेळ	-9.51041
▁ಪರಿಹಾರ	-9.51044
ંગ	-9.5106
ಾದ	-9.5106
ર્સ	-9.51097
▁ભાગ	-9.51304
തിനെ	-9.51324
ತಾ	-9.51421
▁പണം	-9.51426
▁ഓ	-9.51471
▁यावेळी	-9.51639
▁ઓફ	-9.51792
▁धर्म	-9.5181
▁મુખ્ય	-9.5193
എ	-9.52118
▁കാല	-9.52138
▁ಪೊಲೀಸರು	-9.5219
▁ಮುಂದೆ	-9.52317
▁ಮೋದಿ	-9.5257
વું	-9.52633
ട്ട്	-9.52683
▁नाव	-9.52745
▁ಬಳಸ	-9.52779
▁ചികിത്സ	-9.52789
ंच्या	-9.5279
▁સમયે	-9.52837
▁ಬಳಿ	-9.52838
ದಿ	-9.52936
▁खा	-9.52944
ച്ചു	-9.52951
▁प्रशासन	-9.52972
▁ಮಾಡುತ್ತದೆ	-9.5301
ിട	-9.53013
▁പൊതു	-9.53118
ಿಸ	-9.53138
▁असतात	-9.53243
▁ಪಾತ್ರ	-9.53284
▁વખત	-9.53292
▁ಭಾರತದ	-9.5338
രെ	-9.5338
▁മത	-9.53382
ಯ್ಯ	-9.53383
▁સારવાર	-9.5348
▁केवळ	-9.53502
യിലാണ്	-9.53526
ાઇ	-9.53533
णा	-9.53549
ുകളിൽ	-9.53563
▁കുടുംബ	-9.53605
ಷ	-9.53725
▁പോക	-9.5376
ುತ್ತಿದ್ದ	-9.53763
▁മുതൽ	-9.53766
▁प्रति	-9.53803
▁नंतर	-9.53807
▁થશે	-9.53829
▁കഥ	-9.53934
▁નવા	-9.54059
▁अवसर	-9.54064
▁നടത്ത	-9.54067
ങ്ങളാണ്	-9.54074
▁પાસે	-9.54099
पणे	-9.5414
തിന്റെ	-9.54166
▁जास्त	-9.54173
▁ರಾಜ್ಯದ	-9.54195
ಗಳೊಂದಿಗೆ	-9.54252
▁सं	-9.54255
કા	-9.54262
▁ફિલ્મ	-9.54281
▁ನೀಡುವ	-9.54296
ધ	-9.54343
▁ઉપરાંત	-9.54358
ವರಿಗೆ	-9.54384
▁ಗಮನ	-9.54479
ନ	-9.54486
▁शुरू	-9.54573
ખ	-9.5463
ಳಿ	-9.5468
▁सब	-9.54727
▁रि	-9.54771
▁സാധാരണ	-9.54831
▁ವರ್ಷದ	-9.54838
ൊരു	-9.54844
▁कारवाई	-9.54897
ലാ	-9.54917
▁ಬೇರೆ	-9.54925
ಟರ್	-9.55009
▁ವ್ಯವಸ್ಥೆ	-9.55025
▁സ്ത്രീ	-9.55053
▁ಸಾ	-9.55058
▁पी	-9.55086
▁वाली	-9.5513
്യ	-9.55139
▁એમ	-9.55146
ിലൂടെ	-9.55201
▁നില	-9.55283
▁शिक्षण	-9.55363
▁प्रवेश	-9.55439
ांमध्ये	-9.55444
▁ശക്തമായ	-9.55447
▁ರ	-9.55482
▁ഞങ്ങൾ	-9.55528
પી	-9.55549
▁કર્યું	-9.55566
▁ઉ	-9.55679
▁ಅರ್ಥ	-9.55731
▁ಪ್ರದರ್ಶನ	-9.55784
▁पत्र	-9.55819
▁നടത്തുന്ന	-9.55869
ઇ	-9.55893
▁ನಿ	-9.55927
ಕಾರ	-9.55957
स्त	-9.55974
▁म्हणाले	-9.55993
▁നേരത്തെ	-9.56055
▁ಪ್ರ	-9.56059
▁मोठ्या	-9.56224
▁ಜಿ	-9.56262
▁મા	-9.56289
▁રહે	-9.56326
ೊ	-9.5642
ಇ	-9.56517
ायला	-9.56618
▁പേര്	-9.56636
▁वाढ	-9.56665
▁क्या	-9.56678
ंट	-9.56732
▁ಮಾಜಿ	-9.56839
▁ಕೊಡ	-9.56844
▁ಚಿಕಿತ್ಸೆ	-9.56895
▁ನೀಡಿ	-9.56983
झ	-9.57027
മാ	-9.57066
વામાં	-9.57091
तून	-9.57114
▁विषय	-9.57154
▁എത്തിയ	-9.57195
इ	-9.5725
▁ಎಂಬುದನ್ನು	-9.57285
▁മെ	-9.57338
▁ഗ	-9.57347
ન્ટ	-9.57446
▁ಭಾರತೀಯ	-9.57498
▁बी	-9.57704
▁ನೀರಿನ	-9.57803
▁ಹೊರ	-9.57809
મી	-9.57883
ंची	-9.57934
▁आनंद	-9.57948
▁बाहेर	-9.57963
▁ಮಾ	-9.57963
▁നല്കി	-9.5799
▁സാ	-9.58009
ಂಡ	-9.58039
્યુ	-9.58046
▁മോദി	-9.58073
ಗೂ	-9.58094
▁ಹಾಕ	-9.58105
▁सोशल	-9.5823
▁હ	-9.58254
▁दूर	-9.58258
ത്തോടെ	-9.58274
▁આગળ	-9.58285
▁देव	-9.58291
▁ಹಿರಿಯ	-9.5839
▁മറുപടി	-9.58424
▁ಪೊಲೀಸ್	-9.58469
ंद	-9.58472
ಕಿ	-9.58495
हा	-9.58557
▁ಏಕೆಂದರೆ	-9.58573
▁उपचार	-9.58636
▁इसलिए	-9.58688
▁ಅಧಿಕಾರಿಗಳು	-9.587
▁पाच	-9.58732
▁कार्यालय	-9.58831
ಿಸಿ	-9.58924
▁അല്ല	-9.58934
ത്തിലേക്ക്	-9.58947
▁આપવામાં	-9.58954
▁സ്വകാര്യ	-9.58977
▁इसका	-9.58981
एं	-9.59056
മ്മ	-9.591
▁विरोध	-9.591
▁വെ	-9.59111
ಲಿಲ್ಲ	-9.59118
▁ನನಗೆ	-9.59168
▁ആദ്യം	-9.59213
▁घेतला	-9.59231
▁पत्रकार	-9.59253
▁ಇದಕ್ಕೆ	-9.59328
पर्यंत	-9.59346
മുണ്ട്	-9.59377
ભાઇ	-9.59404
शा	-9.5942
ै	-9.5962
ರೋ	-9.59857
▁काँग्रेस	-9.59919
▁પહેલા	-9.59923
▁इसे	-9.59939
ങ്ങളിലും	-9.59949
▁જણાવ્યું	-9.60009
▁ಇರ	-9.60038
▁બનાવવા	-9.60072
▁लगा	-9.60102
▁ಅವುಗಳನ್ನು	-9.60109
▁વર્ષ	-9.60227
▁ಕಾ	-9.60229
नगर	-9.60278
കര	-9.60319
▁ಹೋಗ	-9.60341
नंतर	-9.60346
▁ಮೆ	-9.60351
▁જેમાં	-9.60386
പ്പെട	-9.604
▁ആരോഗ്യ	-9.60409
मान	-9.60579
▁માં	-9.60622
टे	-9.60691
▁മു	-9.60731
▁व्यक्ती	-9.60733
▁ತಿಳಿಸಿದರು	-9.608
को	-9.60828
▁सकती	-9.60997
▁അവരെ	-9.61069
▁ज्या	-9.6112
▁भ	-9.61143
▁जनता	-9.6117
▁ખાતે	-9.61202
▁ಅಗತ್ಯವಿದೆ	-9.61204
್ಯ	-9.61281
ത്തില	-9.61409
િયા	-9.6146
▁ಹೊಂದಿರುವ	-9.61485
y	-9.61498
▁गंभीर	-9.61503
▁മാ	-9.61541
▁कर्मचारी	-9.61655
▁ವರದಿ	-9.61734
ഭ	-9.61797
ಶ್	-9.61817
ंनी	-9.61834
യ്ക്ക	-9.61919
सं	-9.61946
▁ರಾಷ್ಟ್ರೀಯ	-9.61968
▁ಮಹಾ	-9.62135
▁राजकीय	-9.62162
▁सचिव	-9.62166
▁બંધ	-9.62178
▁आम	-9.62219
▁करणार	-9.6231
d	-9.62316
▁ആർ	-9.62374
▁മൂന്നു	-9.62383
▁तहत	-9.62405
▁વ	-9.62405
▁ಯೋಜನೆ	-9.6243
▁ಜಿಲ್ಲೆಯ	-9.62439
▁ಜೀವನ	-9.62461
ೊಂದಿಗೆ	-9.62502
ವ್	-9.62517
ಗ್	-9.62525
▁ಇವೆ	-9.62579
▁തന്നെയാണ്	-9.62593
▁તેથી	-9.62623
ള്	-9.62634
▁उनका	-9.62649
▁चल	-9.6277
ः	-9.62818
ക്ഷ	-9.62929
ೀಯ	-9.63067
▁होऊ	-9.63084
▁સમગ્ર	-9.63095
ಯಾಗ	-9.63151
▁ಮಾತನಾಡಿ	-9.63182
▁ಸ್ಥಳೀಯ	-9.63194
▁ഇന്ത്യൻ	-9.63224
▁മഴ	-9.63242
ौ	-9.63264
▁છીએ	-9.6347
▁ആൻഡ്	-9.63483
▁मान	-9.63502
▁કાર	-9.63607
▁വിധി	-9.63617
▁വേണം	-9.63633
▁जिल्हा	-9.6365
▁अनुसार	-9.63729
▁खूप	-9.63739
▁मग	-9.63874
▁അന്വേഷണം	-9.63952
▁लोकसभा	-9.63959
▁मंदिर	-9.63986
ೌ	-9.64018
ळी	-9.64046
▁ಒಬ್ಬ	-9.64068
▁અનેક	-9.64071
ન્સ	-9.64075
ಿಕ	-9.64081
▁ಸ್ಥಾನ	-9.64083
▁മുതല്	-9.64086
ನ್ಸ್	-9.64113
ട്ടി	-9.64174
▁ઈ	-9.64208
▁പോയ	-9.64218
▁तेव्हा	-9.64274
▁മാത്രമാണ്	-9.64277
▁मीडिया	-9.64376
▁ഓഫ്	-9.64416
▁ठाकरे	-9.64429
ിയത്	-9.64494
▁पार	-9.6455
आ	-9.64618
▁ഡോ	-9.64621
▁शरीर	-9.64628
ഷ്	-9.64658
▁કો	-9.64673
लो	-9.64747
▁उपयोग	-9.64776
ത്തിനായി	-9.648
▁ವಿಚಾರ	-9.64901
▁निवडणूक	-9.64902
▁ಎಂಬುದು	-9.64964
▁ಸರಕಾರ	-9.65014
വേ	-9.65028
▁ಕಾರ್ಯಕ್ರಮ	-9.65044
▁संबंधित	-9.65073
▁ભારત	-9.65124
▁മാത്രമേ	-9.65259
▁लक्ष	-9.65323
▁മുന്	-9.65335
ಸೆ	-9.65377
▁હશે	-9.65424
ंचा	-9.6549
▁ಪ್ರಧಾನಿ	-9.65501
▁यहां	-9.65552
▁सरकारी	-9.65575
▁स्वत	-9.65631
▁ಸುಮಾರು	-9.65634
▁सामने	-9.65663
▁प्रकाश	-9.65673
▁પી	-9.65678
▁યોગ્ય	-9.65711
▁ला	-9.65818
▁गरज	-9.65898
ामध्ये	-9.65909
▁പരിശോധന	-9.65916
▁ಸಂ	-9.66188
▁मिल	-9.66207
ಿರುವುದು	-9.66237
▁जन	-9.6626
▁വീഡിയോ	-9.66296
▁ജീവിത	-9.66344
ોમાં	-9.6635
▁ಆಡಳಿತ	-9.66389
▁വ്യക്തി	-9.66391
▁കാ	-9.66436
മില്ല	-9.66458
▁ಪಕ್ಷ	-9.66577
▁ಮಾತನಾಡಿದ	-9.66629
▁ધ	-9.66773
क्ष	-9.66803
ಿಯ	-9.66803
▁नई	-9.66856
▁त्यात	-9.6689
▁ಉಪ	-9.66891
▁ಬಾ	-9.669
▁આવા	-9.66903
▁ജ	-9.66905
ಸ್ಟ್	-9.6704
▁फ	-9.67056
▁ತುಂಬಾ	-9.67067
▁सूचना	-9.67098
▁ನಿರ್ಮಾಣ	-9.67109
▁ನಡೆಸ	-9.67133
▁प्रधानमंत्री	-9.67168
िन	-9.67196
▁जल	-9.67208
▁ರೀತಿಯಲ್ಲಿ	-9.67252
बा	-9.67282
େ	-9.67315
▁ದೇಶ	-9.6735
▁തുടർന്ന്	-9.67367
▁गाव	-9.67376
▁फोन	-9.67383
▁കേസ്	-9.6749
ിനും	-9.67528
▁एस	-9.67552
▁ನಟ	-9.67664
▁ಇದರಿಂದ	-9.67697
▁ಸಂಪರ್ಕ	-9.67707
▁करण्याचा	-9.67786
ाव	-9.67865
▁વિકાસ	-9.67974
▁സമയത്ത്	-9.68004
▁કોઈપણ	-9.68011
ार	-9.68056
▁ನೀಡಿದರು	-9.68062
▁परिवार	-9.68065
ിട്ടും	-9.68094
ണമെന്ന	-9.68161
▁ಸರ್ಕಾರದ	-9.68189
▁मार	-9.68296
▁दल	-9.68321
सर	-9.68337
▁ഇന്നലെ	-9.68353
▁ત્યાં	-9.68442
▁ಎನ್ನುವ	-9.68492
▁നിന്ന	-9.68499
▁तब	-9.68505
▁ભારતીય	-9.68516
मी	-9.6853
યા	-9.68568
▁ಇನ್ನು	-9.68574
▁સુ	-9.68814
▁महा	-9.6883
ಸಾ	-9.68903
▁होगी	-9.68961
▁ಕಷ್ಟ	-9.69007
▁बना	-9.69026
ವಿದೆ	-9.69034
भ	-9.69072
▁एम	-9.69101
ച്ച്	-9.69189
ುತ್ತಾನೆ	-9.69205
▁અંગે	-9.69253
ामुळे	-9.6931
▁शक्यता	-9.69452
▁ગ	-9.69578
in	-9.6972
▁ನಾಯಕ	-9.69723
▁ठिकाणी	-9.69752
▁आय	-9.69808
▁મુજબ	-9.69888
b	-9.6991
ઃ	-9.69945
▁शिव	-9.6995
▁ಮನವಿ	-9.69961
▁ત	-9.69966
ബ്	-9.69984
▁ഇങ്ങനെ	-9.70057
g	-9.70062
▁എന്	-9.7012
▁રહ્યો	-9.70203
रो	-9.70213
ങ്ങള്ക്ക്	-9.70244
▁ಮಕ್ಕಳು	-9.70255
▁થયો	-9.70281
▁प्रेम	-9.70306
▁മലയാളി	-9.70354
യി	-9.70371
▁വർഷം	-9.70413
രായ	-9.70477
▁ವಿಧಾನ	-9.70479
ിനെതിരെ	-9.705
ിരുന്നത്	-9.70548
▁જીવન	-9.70662
ലെ	-9.70685
▁ಬಿಡುಗಡೆ	-9.70714
▁ചെയ്യുന്നു	-9.7074
▁इसी	-9.70758
▁ದೂರ	-9.70865
▁भूमिका	-9.70907
▁जाऊ	-9.70958
ರಿಂದ	-9.71006
▁स्थित	-9.71089
स्	-9.71114
ಣಿ	-9.71131
▁ವ್ಯಕ್ತಿ	-9.71142
્યું	-9.71169
▁बनाने	-9.71222
▁ಹೀಗಾಗಿ	-9.71342
ತು	-9.71372
▁ર	-9.71378
▁परिषद	-9.71435
▁ಶಕ್ತಿ	-9.71469
▁अनुभव	-9.71495
ುತ್ತಾ	-9.71518
▁ಹೆಸರು	-9.71559
▁आयोजन	-9.71585
▁ಶಾಸಕ	-9.71617
▁സമര	-9.71685
▁രണ്ടാം	-9.71719
▁आग	-9.71787
▁जग	-9.71831
▁നടി	-9.71834
ોની	-9.71912
▁सर	-9.71933
▁ಎನ್	-9.7194
▁ಧರ್ಮ	-9.71965
n	-9.71972
ನನ್ನು	-9.71995
▁ಪ್ರಯತ್ನ	-9.72034
▁സാധ്യത	-9.72045
▁ശ	-9.72087
ुन	-9.72112
▁ಹೀಗೆ	-9.72258
ಗಳಿವೆ	-9.7226
▁बाजार	-9.72266
▁स्थान	-9.72269
ില്ലെന്ന്	-9.72281
▁इंडिया	-9.72285
▁पि	-9.72319
ಯೋ	-9.72326
▁कल	-9.7237
▁થયા	-9.72384
▁નિ	-9.72429
▁പലപ്പോഴും	-9.7247
मधून	-9.72622
ിത	-9.72642
നം	-9.72769
▁निवड	-9.7279
▁ಅವನ	-9.72805
पा	-9.72868
▁പറയ	-9.72873
राव	-9.72876
▁ઉત્પાદન	-9.7291
▁પાણી	-9.72929
▁കാര്യം	-9.72976
▁कोणत्याही	-9.72996
▁ಕೊ	-9.73041
▁ટ	-9.73218
▁कदम	-9.73234
ರಾಗಿ	-9.73304
સા	-9.73357
ഖ	-9.7336
ಪ್ರ	-9.73373
▁സ്വയം	-9.73431
▁अलावा	-9.73432
ുവ	-9.7344
▁गेले	-9.73472
എസ്	-9.73483
കളാണ്	-9.73531
ುತ್ತೇವೆ	-9.73538
▁તૈયાર	-9.73563
ക്കുള്ള	-9.73581
▁അന്വേഷണ	-9.73607
▁ರಲ್ಲಿ	-9.73633
▁वरिष्ठ	-9.73637
ವರ್	-9.73656
▁स्तर	-9.7369
▁ചോദ്യം	-9.73705
▁देने	-9.73744
▁ഞാന്	-9.73769
▁സെ	-9.73795
ंब	-9.73814
▁ಕೃಷಿ	-9.73898
▁ಒ	-9.73941
▁बाहर	-9.7401
▁નામ	-9.74035
▁परत	-9.74085
▁ಸಮಿತಿ	-9.741
▁फोटो	-9.74115
t	-9.74133
▁അത	-9.7414
▁ઘણી	-9.74152
▁प्रथम	-9.74175
▁करताना	-9.74203
▁वा	-9.74303
ભ	-9.74342
▁b	-9.74635
ക്കുന്ന	-9.74815
▁प्रकल्प	-9.74839
र्	-9.74857
▁ગુજરાત	-9.74869
ಕರ್	-9.74916
▁ഇവ	-9.74929
ജ്	-9.75
િન	-9.75004
ത്ര	-9.75119
▁ಬರುವ	-9.75174
▁जगह	-9.753
▁ರಾಜ	-9.75308
സ്റ്റ	-9.75324
▁માહિતી	-9.75338
▁പാർട്ടി	-9.75351
▁કાર્ય	-9.75414
▁ಉಳಿದ	-9.75429
▁ઘટના	-9.7544
▁હેઠળ	-9.75492
▁ಸಂಪೂರ್ಣವಾಗಿ	-9.75497
▁ಕಾನೂನು	-9.7552
વો	-9.75548
▁ಮಾರಾಟ	-9.75554
▁സംഭവം	-9.75596
▁ಪಡೆದ	-9.75659
▁റി	-9.75688
▁यांची	-9.75697
▁അവസാന	-9.75796
▁ಕೇಳ	-9.75809
▁करके	-9.75823
▁ಗೆ	-9.75835
▁પોતાની	-9.75849
▁माजी	-9.7587
▁മാധ്യമ	-9.75899
▁അവസ്ഥ	-9.75904
▁ಮನೆಯಲ್ಲಿ	-9.75905
▁ದಾಳಿ	-9.75906
બી	-9.75907
▁મોટા	-9.75912
▁પડશે	-9.7595
▁ऐसे	-9.75964
▁शामिल	-9.7599
▁व्यवस्था	-9.76003
िका	-9.76004
तात	-9.76033
▁वाहन	-9.76056
ുകളില്	-9.76067
▁ಹೇಳಿದ್ದಾರೆ	-9.76091
કાર	-9.76138
▁ಬಣ್ಣ	-9.76161
ൗ	-9.76167
▁ಮೇ	-9.76176
▁അവൻ	-9.76277
▁കോടി	-9.76312
▁मध्य	-9.76315
▁લગભગ	-9.76371
▁ചെയ്തത്	-9.76406
िल	-9.76412
ેશન	-9.76447
▁संपूर्ण	-9.76449
യർ	-9.76462
▁കൂട്ട	-9.76472
▁ನೀಡಿದ	-9.76524
▁ಸಾಧ್ಯವಿಲ್ಲ	-9.76525
▁असतो	-9.7658
▁कु	-9.76609
ીઓ	-9.7661
ाय	-9.76617
▁કોઇ	-9.76664
▁കൊച്ചി	-9.76681
▁രാത്രി	-9.76702
▁सुरु	-9.76721
▁വാഹന	-9.76749
▁ಚುನಾವಣೆ	-9.76797
ാവുന്ന	-9.76813
▁പിണറായി	-9.76863
▁റിപ്പോര്ട്ട്	-9.76877
्र	-9.76893
ીને	-9.76974
▁नरेंद्र	-9.76979
▁मदद	-9.77041
▁बि	-9.77089
ಬಾ	-9.77097
ां	-9.77151
▁വിദേശ	-9.77225
ന്ത	-9.77258
▁മത്സര	-9.77311
താ	-9.77332
▁घेतली	-9.77358
▁ಅತ್ಯುತ್ತಮ	-9.77394
വെ	-9.77394
▁പ്രതിഷേധ	-9.77437
▁लहान	-9.77483
▁ಅಲ್ಲದೆ	-9.77511
▁લઈ	-9.77543
▁ಸಂಪೂರ್ಣ	-9.77544
▁જાહેર	-9.77545
ಗೊಂಡ	-9.77771
▁समर्थन	-9.77804
▁नये	-9.77837
▁a	-9.77855
രുത്	-9.77857
▁എന്നും	-9.77862
▁मतदान	-9.77915
ांत	-9.77928
▁નિર્ણય	-9.78008
▁क्रिकेट	-9.78047
▁आर	-9.78077
▁सरकारने	-9.78081
▁नेता	-9.781
ೆಯ	-9.78119
ಗು	-9.78134
ൂര്	-9.78149
മെ	-9.78178
▁ನಮಗೆ	-9.7818
ಂದು	-9.78185
നു	-9.78208
▁बा	-9.78229
▁सामान्य	-9.78397
આ	-9.78468
▁उसकी	-9.78504
▁સમાવેશ	-9.78531
ન્ડ	-9.78571
▁નવી	-9.78659
▁भेट	-9.78669
▁ಪರ	-9.78671
▁સિસ્ટમ	-9.78671
▁अर्थ	-9.78684
▁ಸಾಹಿತ್ಯ	-9.78714
▁ऐसा	-9.78736
▁आए	-9.78779
▁ഇരു	-9.78798
▁जर	-9.78816
▁സ്വ	-9.78905
m	-9.78909
▁હોઈ	-9.78937
ಕು	-9.78943
▁वजह	-9.78956
▁ഉയർന്ന	-9.78992
ीकरण	-9.79025
राज	-9.79084
▁ಗ	-9.79154
▁ತಂಡ	-9.79185
▁ആയിരുന്നു	-9.7919
▁കല	-9.79199
▁करीत	-9.79385
▁उमेदवार	-9.79459
▁समोर	-9.79464
गी	-9.79563
▁केलेल्या	-9.7966
ಭ	-9.79679
▁श	-9.79722
▁കഴിയുന്ന	-9.79792
▁ബാ	-9.79802
▁विश्वास	-9.7985
▁മരണ	-9.79874
▁ಸಿಬ್ಬಂದಿ	-9.79918
▁ആവശ്യ	-9.79926
▁ബന്ധ	-9.80009
▁બંને	-9.80079
▁ई	-9.80083
ण्याचा	-9.80117
▁सामाजिक	-9.80122
▁येईल	-9.80155
▁ಪಡೆಯ	-9.80157
▁തങ്ങളുടെ	-9.80168
ಡು	-9.80283
▁ചർച്ച	-9.8029
▁करेंगे	-9.80373
▁ತರ	-9.80411
ುತ್ತ	-9.80437
▁ಪ್ರಕರಣ	-9.80494
▁ഭൂമി	-9.80524
▁लाभ	-9.80537
▁സൂചന	-9.80579
▁એટલે	-9.80599
▁എണ്ണ	-9.80618
തിനാല്	-9.80664
▁કેવી	-9.80681
▁ಸಿದ್ದರಾಮಯ್ಯ	-9.80734
ാലും	-9.80742
▁ചിത്ര	-9.8077
▁ಸಿನಿಮಾ	-9.80777
യ്ക്കു	-9.8082
ാണെന്ന്	-9.80829
▁home	-9.80829
▁दिए	-9.8091
▁शोध	-9.80938
കാല	-9.81017
ತನ	-9.81029
▁सवाल	-9.81067
▁മുൻ	-9.81067
▁ಗೋ	-9.81092
▁मत	-9.81128
ഞ്ഞ	-9.81132
▁ಗು	-9.81139
ીંગ	-9.81157
ಆ	-9.81175
▁കുറിച്ച്	-9.81225
▁ಪಡೆಯಲು	-9.81251
▁આવ્યું	-9.81271
▁अगदी	-9.81283
▁ശ്രീ	-9.81342
ीच्या	-9.81366
▁डॉक्टर	-9.81389
ളി	-9.81396
▁ಸೇವೆ	-9.81414
ച്	-9.81495
▁उद्योग	-9.81519
▁ಅಂತಹ	-9.81583
▁સા	-9.81597
r	-9.81601
ൊ	-9.81604
▁ഭരണ	-9.81609
▁प्रदान	-9.81676
തന്നെ	-9.81811
▁મહિલા	-9.8183
▁इस्तेमाल	-9.8186
ದೊಂದಿಗೆ	-9.81892
▁शिवसेना	-9.81943
▁വെള്ളം	-9.81958
▁ದಕ್ಷಿಣ	-9.81958
▁ದಿನಗಳ	-9.81983
▁लाल	-9.81991
जे	-9.82033
▁ഏത്	-9.82042
▁തീരുമാനം	-9.82047
▁നല്ക	-9.82182
▁ತೀವ್ರ	-9.82205
▁തീ	-9.82213
▁ಪರಿಸ್ಥಿತಿ	-9.82267
▁કરવાનો	-9.8234
▁ശ്രദ്ധ	-9.82352
▁नागरिक	-9.82363
▁ഫ	-9.82372
ൂർ	-9.82507
▁संस्था	-9.82514
▁पूरी	-9.82559
ି	-9.82589
ಗೊಳಿಸ	-9.8264
ഞ്ച	-9.82652
▁c	-9.82658
▁ತಾ	-9.82697
▁नए	-9.8271
രുടെ	-9.82712
▁ವಾಹನ	-9.8276
▁છ	-9.82813
▁ರೋಗ	-9.82829
ಗಾ	-9.82879
▁સિ	-9.8292
લે	-9.82943
▁നൽക	-9.82975
ನೋ	-9.83019
▁നിന്നുള്ള	-9.83023
▁सहित	-9.83032
▁ಆಫ್	-9.83053
बाबत	-9.83064
▁ಅಧ್ಯಯನ	-9.83078
▁પ્રયાસ	-9.83089
▁?	-9.83163
▁ഇതുവരെ	-9.83175
▁न्यायालय	-9.83184
▁परीक्षा	-9.83201
▁संजय	-9.83254
▁വിവരം	-9.83311
▁संबंध	-9.83316
લો	-9.834
▁चित्र	-9.834
ेश	-9.83462
▁അറസ്റ്റ്	-9.83502
▁ಚ	-9.83536
▁उतर	-9.83563
▁करतात	-9.83597
▁ಬಲ	-9.83622
ಬಾರದು	-9.83635
▁നിന്നു	-9.83693
▁എനിക്ക്	-9.83742
ಂಬ	-9.8382
▁ಹಿನ್ನೆಲೆಯಲ್ಲಿ	-9.83946
▁જેથી	-9.83947
▁આપવા	-9.84033
▁रेल्वे	-9.84082
▁ശക്തി	-9.84086
▁ಸೂಕ್ತ	-9.84197
પ્ર	-9.84252
राम	-9.8431
k	-9.84366
▁ಪ್ರತಿಭಟನೆ	-9.84393
▁രാവിലെ	-9.84442
ાવ	-9.8447
ിട്ടുള്ള	-9.84529
▁ಎರಡೂ	-9.8453
▁अधिकार	-9.84553
▁आपल्याला	-9.84581
▁मराठी	-9.84608
्यू	-9.84666
▁ಒಂದೇ	-9.84668
▁കുറഞ്ഞ	-9.84746
▁રહેશે	-9.84748
▁ಆದ	-9.84826
▁એસ	-9.84829
▁ಟಿ	-9.84875
▁ઓ	-9.84896
ಿರಿ	-9.84919
▁ചെയ്യാൻ	-9.84985
ା	-9.84987
▁नियम	-9.85041
मो	-9.85042
ಃ	-9.85046
▁पाहिजे	-9.85059
▁तरुण	-9.85064
▁મો	-9.8508
▁പ്രശ്ന	-9.85112
▁ഭാര്യ	-9.85176
▁કંપની	-9.85251
▁વખતે	-9.85258
▁આપણે	-9.8528
▁त्याचा	-9.85283
खा	-9.85311
ताना	-9.85328
▁आरोपी	-9.85403
નુ	-9.85525
▁പറയുന്ന	-9.85613
ಲಾಗುವುದು	-9.8562
നാണ്	-9.85629
उ	-9.85667
▁ಆದಾಗ್ಯೂ	-9.85674
▁लक्षात	-9.85773
न्स	-9.858
▁ചാ	-9.85802
▁बाल	-9.85806
▁ಕ್ಯಾ	-9.85871
▁रह	-9.86003
▁रुपये	-9.86007
ക്കോ	-9.86034
▁લેવા	-9.86063
▁loading	-9.86069
ತೆಯ	-9.86069
ಕ್ಷ	-9.86079
▁താരം	-9.86086
▁લગ્ન	-9.86097
▁ವಿಶ್ವ	-9.86102
ುವುದನ್ನು	-9.86113
▁ಮಾಡಿದ್ದಾರೆ	-9.86135
▁ગઈ	-9.86143
▁ಜೀವ	-9.86202
▁എന്നത്	-9.86222
▁काफी	-9.86256
▁നൽകി	-9.86349
मन	-9.86352
ed	-9.86382
▁घोषणा	-9.86464
ೂರು	-9.86476
▁ગયો	-9.86497
બા	-9.865
▁പൂ	-9.86515
▁चीन	-9.86534
▁പറഞ്ഞത്	-9.8654
▁പഴയ	-9.86603
▁શ	-9.86639
ಲಾಗಿತ್ತು	-9.86715
▁ചെയ്യും	-9.86737
▁ચોક્કસ	-9.86782
▁ಸಾಲ	-9.86791
▁ಅಂತ	-9.86803
▁સહિત	-9.86836
▁ಬದಲಾವಣೆ	-9.86836
▁ಸಂಗೀತ	-9.86837
▁കേരളത്തിലെ	-9.86869
▁നീക്കം	-9.86875
▁राष्ट्रवादी	-9.86881
▁ಸಾಧ್ಯ	-9.86913
യു	-9.86939
▁વગર	-9.86988
▁ಬೆಲೆ	-9.87031
▁पंतप्रधान	-9.87036
al	-9.87043
તિ	-9.87059
ಿಸಲು	-9.87078
▁સતત	-9.87097
▁प्रमाणात	-9.87101
ಮಾನ	-9.87164
ंचे	-9.8718
▁ತಿಳಿಸಿದ್ದಾರೆ	-9.87259
▁ൽ	-9.87262
▁വിദ്യാഭ്യാസ	-9.8727
▁ધ્યાન	-9.87273
ಳೆ	-9.87294
ിട്ട	-9.87295
▁ನಿರ್ದಿಷ್ಟ	-9.87306
▁वाट	-9.87322
റ്റി	-9.87345
▁व्यवसाय	-9.87355
▁ಯುವ	-9.87399
▁कधी	-9.87403
▁തുക	-9.87409
ഒ	-9.87433
▁കോ	-9.87486
ಬೇಕೆಂದು	-9.87554
▁ಆರ್ಥಿಕ	-9.87562
സ്ത	-9.87618
▁આધાર	-9.8762
യെന്ന്	-9.8766
▁આમ	-9.87749
વિ	-9.87768
▁ಎರಡನೇ	-9.87809
▁देते	-9.87817
▁कसे	-9.8782
▁अर्ज	-9.87836
▁પહેલાં	-9.87844
▁വിവാഹ	-9.87875
വുമായ	-9.87877
▁साहित्य	-9.87902
▁ಮಳೆ	-9.87924
ುತ್ತಿದ್ದರು	-9.8796
▁ಗುರು	-9.87979
▁ആശുപത്രി	-9.88035
पूर	-9.88041
▁जाहीर	-9.88044
▁ऑनलाइन	-9.88053
▁बल	-9.88056
▁മേഖല	-9.88062
▁പരി	-9.8817
વે	-9.88213
ୁ	-9.88297
ലോ	-9.88298
രു	-9.88327
▁ಆರೋಪ	-9.8836
▁इसमें	-9.88374
▁!	-9.8843
▁സ്വീകരിക്ക	-9.88446
ಸಂ	-9.88468
▁പകരം	-9.88487
▁स्कूल	-9.88558
▁ध	-9.88605
▁पुढे	-9.88678
▁ಇದೀಗ	-9.88736
▁मंत्रालय	-9.88736
മാണെന്ന്	-9.88779
▁जन्म	-9.88809
▁ಪ್ರಶಸ್ತಿ	-9.88824
▁सात	-9.8884
▁કરવો	-9.88889
▁जैसे	-9.88917
▁ഇവര്	-9.88932
▁ದಿನಗಳಲ್ಲಿ	-9.88939
മാർ	-9.88965
▁തവണ	-9.88974
▁ಕಾಣ	-9.88997
ആ	-9.89028
▁मांग	-9.89029
▁മാറ്റി	-9.89067
▁മലയാള	-9.8912
▁પ્રક્રિયા	-9.89136
ಯ್	-9.89155
ದ್	-9.89156
▁ನಾಲ್ಕು	-9.89168
▁ഉ	-9.8925
–	-9.89263
▁ತರಬೇತಿ	-9.8933
▁ഷാ	-9.89361
▁आरोग्य	-9.89414
▁તેમ	-9.89424
▁શું	-9.89426
▁അവൾ	-9.89444
▁ഒന്ന	-9.89454
ಚ್	-9.89496
ેલા	-9.89522
▁സംഘം	-9.89577
▁ಸುದ್ದಿ	-9.89585
▁दक्षिण	-9.89598
ळे	-9.89608
▁കളി	-9.89702
▁દર	-9.89792
▁ആയ	-9.89792
▁അദ്ദേഹത്തിന്റെ	-9.89793
▁शिक्षक	-9.89798
▁ચાર	-9.89798
▁സംവിധാനം	-9.89819
पाल	-9.89867
▁અનુસાર	-9.89881
▁ല	-9.89925
▁दोन्ही	-9.89927
▁नुकसान	-9.89927
▁ಇಡೀ	-9.89938
മാക്ക	-9.89946
▁f	-9.89963
▁ज्यादा	-9.90017
डा	-9.90028
ತ್ತು	-9.90106
▁સો	-9.90109
▁तरफ	-9.90117
▁प्रस्ताव	-9.9013
w	-9.90156
▁गांधी	-9.90162
▁ಗ್ರಾಮ	-9.90272
▁ರೂಪ	-9.90304
▁हात	-9.90337
▁p	-9.90386
▁ಉದಾಹರಣೆಗೆ	-9.90491
▁અહીં	-9.9054
േണ്ടത്	-9.90575
▁शब्द	-9.90579
▁વ્યક્તિ	-9.90624
▁ಕರೆ	-9.90626
ध	-9.90683
▁अस्पताल	-9.90717
ીય	-9.9086
യോട്	-9.90892
▁കൂടെ	-9.91008
▁അടിസ്ഥാന	-9.91009
▁എത്ര	-9.91019
ರುವ	-9.91052
ॉ	-9.91059
▁രാജ്യത്തെ	-9.91066
▁पंचायत	-9.91068
▁ವಾಸ್ತವವಾಗಿ	-9.91079
ത്വ	-9.91086
▁പിന്നെ	-9.91121
▁ಸಲಹೆ	-9.91132
▁यासाठी	-9.91195
നായി	-9.91197
▁आयोग	-9.9123
ಂಗ	-9.91269
▁तौर	-9.91272
▁नंबर	-9.91288
ૉ	-9.91513
▁എൻ	-9.91598
▁ವ್ಯಕ್ತಪಡಿಸ	-9.91602
ેડ	-9.91624
▁അഞ്ച്	-9.91634
▁ओळख	-9.91691
▁પૂર્વ	-9.91721
▁ಪ್ರದೇಶ	-9.91722
▁રાજ્ય	-9.91781
▁ડી	-9.91803
ಟ್ಟ	-9.91835
▁ഇതു	-9.91858
▁ಕಾರ್	-9.91926
▁ಬಸ್	-9.9197
ನಿಗೆ	-9.91987
▁समावेश	-9.92058
നാ	-9.92091
ന്റ്	-9.92115
▁घटक	-9.92141
സിന്റെ	-9.9215
▁आपले	-9.92156
▁ಎಷ್ಟು	-9.92167
▁पत्नी	-9.92169
▁विधायक	-9.92181
▁आणखी	-9.92192
ಟಾ	-9.92199
▁എന്നതാണ്	-9.92224
▁शकत	-9.92243
p	-9.92376
ವಲ್ಲ	-9.92388
▁છતાં	-9.92438
ിനോട്	-9.92446
▁വര്ഷം	-9.92535
▁വ്യത്യസ്ത	-9.92546
▁അപകട	-9.92606
ંક	-9.92622
ಕೋ	-9.92628
റോ	-9.92639
▁પડે	-9.92642
പ്പി	-9.92682
▁രീതി	-9.92729
▁एन	-9.9275
ણી	-9.9276
▁वर्ग	-9.92809
ാനായി	-9.92856
കള്ക്ക്	-9.92872
વર	-9.92877
ँ	-9.92902
लेले	-9.92914
▁वेळी	-9.92919
▁डी	-9.92974
್ಯಾ	-9.93056
वार	-9.93078
▁കോൺഗ്രസ്	-9.93168
શો	-9.93171
▁എന്നീ	-9.93192
ವಿನ	-9.93258
▁ಮಾನವ	-9.93261
▁झ	-9.93276
▁പഠന	-9.9328
യോടെ	-9.93285
▁इसकी	-9.93302
પુર	-9.93314
▁ಹೆಚ್ಚಾಗಿ	-9.934
▁વધારે	-9.93474
▁അപേക്ഷ	-9.935
▁आलेल्या	-9.93526
വിന്റെ	-9.93569
▁എല്ലാം	-9.93582
er	-9.93599
▁ಪಟ್ಟಿ	-9.93648
▁ദ	-9.93678
▁ಮತ	-9.93734
ेशन	-9.93754
ಮೆ	-9.93801
ಿಕೆ	-9.9383
▁खेल	-9.93863
▁ಸ್ಥಳ	-9.93873
▁ഏ	-9.93877
▁ಸಾರ್ವಜನಿಕ	-9.93897
▁मौके	-9.93923
▁ವಿಮಾನ	-9.93938
೦	-9.93948
ംഗ	-9.93956
▁याबाबत	-9.9397
▁രാജ്യ	-9.93985
▁ಜನರಿಗೆ	-9.9403
▁મળે	-9.94031
▁അത്തരം	-9.94039
▁शकतो	-9.94116
▁ಕಾರ್ಯದರ್ಶಿ	-9.94177
▁लागू	-9.94185
▁ನೀಡಲು	-9.94197
വരുടെ	-9.94205
▁नेते	-9.94215
▁विश्व	-9.94218
▁ഭാഗമായി	-9.94267
▁താര	-9.94298
▁कोर्ट	-9.94321
▁ಮತ್ತೊಂದು	-9.94342
▁સી	-9.94345
▁നേതാവ്	-9.94364
▁ದೇಹದ	-9.9437
ದಲ್ಲಿರುವ	-9.94412
ीन	-9.94437
▁ಕೆಲ	-9.94445
▁यांचा	-9.94447
▁हि	-9.9446
▁ബാല	-9.9448
शे	-9.94497
▁ಭಾಗ	-9.94509
▁ರಚನೆ	-9.94518
▁ખ	-9.94551
घ	-9.946
ിന	-9.94604
▁મુ	-9.94612
▁माध्यम	-9.9472
▁ಬೆಂಬಲ	-9.94745
▁કેન્દ્ર	-9.94751
▁जय	-9.94796
ക്കാർ	-9.94813
કર	-9.94832
કે	-9.94849
▁വികസന	-9.94873
▁മാറി	-9.94909
▁ಜೆಡಿಎಸ್	-9.94959
▁ಚಿತ್ರದ	-9.95006
▁സത്യ	-9.95045
▁ರಾ	-9.95056
▁वेबसाइट	-9.95058
▁जाणार	-9.95072
▁വന്നു	-9.95096
▁അനു	-9.95132
▁ಖಾಸಗಿ	-9.95167
▁ಎಂದ	-9.95169
▁होतो	-9.95214
|	-9.95241
▁ಚಿಕ್ಕ	-9.9529
▁शिक्षा	-9.95332
▁पुरस्कार	-9.95355
▁करती	-9.95358
▁પટેલ	-9.95378
▁ಪ್ರದೇಶದಲ್ಲಿ	-9.95386
േറ്റ	-9.95408
वून	-9.95453
▁നാല്	-9.95507
▁പ്രമുഖ	-9.95521
▁ನಾ	-9.95548
▁അതേ	-9.95564
ണി	-9.95589
▁व्यक्ति	-9.95611
ാറ	-9.95623
ത്തിലൂടെ	-9.95637
▁ನಿರ್ದೇಶಕ	-9.95646
જા	-9.95654
▁युवक	-9.95662
ટા	-9.95682
ദി	-9.95729
ುತ್ತೇನೆ	-9.95773
▁ರೂ	-9.95778
▁ಸಭೆ	-9.9602
▁നേടിയ	-9.9608
▁प्रचार	-9.96085
▁ಜಯ	-9.9613
▁તા	-9.96137
▁ശബരിമല	-9.96166
ಯೆ	-9.96189
ട്	-9.96212
മേ	-9.96227
ിട്ട്	-9.96229
▁മല	-9.96302
▁મોદી	-9.96328
▁अटक	-9.9636
जन	-9.96372
▁बढ़	-9.96381
▁मो	-9.96395
સર	-9.96397
▁फार	-9.96529
ുമെന്ന	-9.96582
▁राहुल	-9.96601
▁यामुळे	-9.96616
▁ಸಂಖ್ಯೆ	-9.96667
ുകള	-9.96731
▁ಲಕ್ಷ	-9.96731
▁आदि	-9.96761
▁ಇರುತ್ತದೆ	-9.96761
सोबत	-9.96764
ಲಾದ	-9.96766
▁त्याची	-9.96835
▁സമയ	-9.96868
▁ಕಡೆ	-9.96871
▁तुम्ही	-9.96889
▁നേരെ	-9.96906
▁മരിച്ച	-9.96922
▁मोबाइल	-9.9697
▁रोग	-9.97003
▁वो	-9.97014
▁ആവശ്യം	-9.97023
▁कार्ड	-9.97056
▁മുസ്ലിം	-9.97099
▁लागले	-9.97117
▁રંગ	-9.97119
▁त्याचे	-9.97124
▁പെ	-9.9716
▁അനുമതി	-9.97201
▁ಪ್ರಸ್ತುತ	-9.97208
ಿದಾಗ	-9.97209
ಣೆ	-9.97228
▁ಸಾಧ್ಯತೆ	-9.97228
▁ലെ	-9.97241
വരും	-9.97248
▁മാസ	-9.9727
▁വിവാദ	-9.97282
वरील	-9.97327
▁ರಾಮ	-9.97365
▁സ്വദേശി	-9.97396
▁ટીમ	-9.9741
▁ബന്ധപ്പെട്ട്	-9.97531
▁വകുപ്പ്	-9.97606
▁तैयार	-9.97616
▁ಕುಟುಂಬ	-9.97632
गाव	-9.97633
ന്റ	-9.97636
▁ആവശ്യപ്പെട്ടു	-9.97647
▁आरक्षण	-9.9767
▁ನೋಡಿ	-9.97683
ില്ലെന്നും	-9.97707
▁देख	-9.9772
▁വൈ	-9.97737
પર	-9.97759
ಬೇಕಾದ	-9.97826
കോ	-9.97874
ांसाठी	-9.97884
▁बोल	-9.97888
▁दिसत	-9.97905
କ	-9.97939
▁ಕೊಟ್ಟ	-9.97956
▁പരിപാടി	-9.97959
ेस	-9.97982
സാ	-9.97999
▁ചെയ്ത്	-9.98042
▁ವಿದ್ಯುತ್	-9.98076
▁केंद्रीय	-9.98096
▁ಬಹುತೇಕ	-9.98102
▁કર	-9.98109
▁ಪೂರ್ವ	-9.9813
▁ಅನುಭವ	-9.98151
▁മുഹമ്മദ്	-9.98191
મો	-9.982
▁મળશે	-9.98226
▁ಮಾತನಾಡ	-9.9823
▁ಭರವಸೆ	-9.98244
▁ചെയ്യുന്നത്	-9.98247
▁സംഭവ	-9.9827
▁സംഘടന	-9.98291
▁आवश्यकता	-9.98311
▁ಸಮಾಜ	-9.9832
കെ	-9.98336
▁રિ	-9.98355
ಧ	-9.9836
▁ತಿಂಗಳ	-9.98366
शन	-9.98367
ಷ್ಟ	-9.9839
▁खरेदी	-9.98398
ಡೆ	-9.98399
▁माझ्या	-9.98424
▁പള്ളി	-9.98447
तर	-9.98472
▁પે	-9.98512
▁ಕಿ	-9.98515
ण्याचे	-9.98526
▁സമിതി	-9.98532
▁ಬಳಸಲಾಗುತ್ತದೆ	-9.98585
▁म्हटले	-9.98601
▁घेत	-9.98651
▁ಮನೆಯ	-9.98655
▁महत्वपूर्ण	-9.98684
▁എഫ്	-9.98696
▁याचा	-9.98711
▁अभ्यास	-9.98712
യിലൂടെ	-9.98715
ಾಟ	-9.98715
▁सुरुवात	-9.98782
▁ಐದು	-9.988
റു	-9.98832
c	-9.98834
▁पुणे	-9.98873
ധ	-9.98927
ುತ್ತಿಲ್ಲ	-9.98929
▁प्रधान	-9.98967
▁ಉದ್ದೇಶ	-9.9899
▁തീരുമാന	-9.99
രാ	-9.99023
▁ഫാ	-9.99023
वाद	-9.9913
ಿದ್ದರೆ	-9.99133
▁डे	-9.99147
▁करीब	-9.99263
▁ശതമാനം	-9.99278
▁ജീവിതം	-9.99305
▁તમારે	-9.99308
ുണ്ടായ	-9.9933
▁ಶಾ	-9.99385
▁यांचे	-9.99402
▁बैंक	-9.99403
▁પડી	-9.99443
▁ಯಾವಾಗಲೂ	-9.99476
▁സംബന്ധിച്ച	-9.99487
▁કરવું	-9.99511
▁യുവതി	-9.99534
વાર	-9.99535
▁ಬಳಕೆ	-9.99555
▁ഉദ്ഘാടനം	-9.99557
ವರೆಗೆ	-9.9961
▁ચૂંટણી	-9.99652
▁जबकि	-9.99667
▁ರೀತಿ	-9.99719
▁डा	-9.99733
▁അറിയ	-9.99739
▁देत	-9.99741
▁ഇതിന്	-9.99742
▁रिपोर्ट	-9.99763
ಯೊಂದಿಗೆ	-9.99775
▁ಮಿ	-9.99813
त्र	-9.99829
▁ഉപയോഗിക്ക	-9.99852
ಲ್ಲೇ	-9.99856
▁पोस्ट	-9.99917
ഞ്ഞു	-9.9992
▁ಮಾಡಿದರು	-9.99922
റിന്റെ	-9.99954
▁ವಿನ್ಯಾಸ	-9.99975
ുന്നതും	-9.99992
▁इतिहास	-9.99995
▁સમસ્યા	-9.99998
▁നീക്ക	-10.0005
▁കടുത്ത	-10.0014
▁બા	-10.0015
वरून	-10.0017
ୀ	-10.0024
▁आमच्या	-10.0026
▁അര	-10.0027
▁ઉદાહરણ	-10.0027
▁औषध	-10.0029
▁ನಡೆಯ	-10.003
▁कायम	-10.0032
▁എന്നെ	-10.0034
▁പ്രതീക്ഷ	-10.0036
ಪಾ	-10.0044
▁ઉચ્ચ	-10.0044
▁समिती	-10.0045
દાર	-10.0046
▁ಕುಮಾರ್	-10.005
▁അവളുടെ	-10.0051
ಿಸಿದ	-10.0059
▁അല	-10.0064
▁हत्या	-10.0068
ಚಿ	-10.0072
▁કરવી	-10.0074
▁ಬಳಸಿ	-10.0078
▁बोर्ड	-10.0081
ുമാണ്	-10.0081
▁നല്കുന്ന	-10.0082
തില്	-10.0082
▁ನಡೆದಿದೆ	-10.0083
▁നഗര	-10.0087
▁आवेदन	-10.0088
▁പൊ	-10.0088
▁લઈને	-10.009
पणा	-10.009
પા	-10.0092
▁मौजूद	-10.0092
▁वन	-10.0096
▁ഭക്ഷണം	-10.0097
▁പാ	-10.0102
▁ವಿಶೇಷವಾಗಿ	-10.0104
▁घेतले	-10.0108
▁തര	-10.0109
▁जोरदार	-10.0109
व्ह	-10.0114
ുന്നതിനുള്ള	-10.0118
ावे	-10.012
▁भाव	-10.0124
▁कोण	-10.0125
▁അഞ്ചു	-10.0131
▁മാറ	-10.014
ಗಾರ	-10.0143
▁संख्या	-10.0152
▁पहिल्या	-10.0152
▁निर्देश	-10.0158
ವಿಲ್ಲ	-10.016
ವೆಂದು	-10.0161
દી	-10.0162
▁ಅರ್ಜಿ	-10.0163
ेट	-10.0166
▁करुन	-10.0168
▁एकदा	-10.0168
▁വെള്ള	-10.0176
▁ध्यान	-10.0183
▁ತೊಂದರೆ	-10.0189
ಮು	-10.0189
▁ખર્ચ	-10.019
ಂಗ್	-10.0193
▁आगे	-10.0199
ति	-10.0203
▁वाला	-10.0203
मे	-10.0204
▁વિચાર	-10.0207
▁ಇದ್ದ	-10.0217
ತೆಯನ್ನು	-10.0218
▁കുട്ടി	-10.0223
▁उघड	-10.0225
▁കഴിയ	-10.0227
യാ	-10.0227
▁പിന്തുണ	-10.0228
▁શક્ય	-10.0228
▁ಹೇಳಿಕೆ	-10.023
▁നിലപാട്	-10.023
▁जागा	-10.0234
▁ಪ್ರಚಾರ	-10.0241
▁പുറത്തു	-10.0242
▁जमीन	-10.0249
▁उसने	-10.025
▁ನಡೆಸಿ	-10.0257
▁ಎಚ್	-10.0262
▁शक्य	-10.0263
▁ಇವರ	-10.0264
दी	-10.0265
തിനാൽ	-10.0267
▁ഇപ്പോഴും	-10.0267
ंक	-10.0277
▁ರಾತ್ರಿ	-10.0281
▁ಬಂದು	-10.0285
▁૧	-10.0285
▁ડિ	-10.0285
▁ನೀಡಿದ್ದಾರೆ	-10.0292
ಎ	-10.0296
▁ಹಿಂದಿನ	-10.0297
▁रा	-10.0304
▁संरक्षण	-10.0305
▁മി	-10.0306
▁ಸರ್ಕಾರಿ	-10.0307
▁दु	-10.0307
▁ಆಗಿ	-10.0307
▁પ્રમુખ	-10.031
ाकडे	-10.031
▁सार्वजनिक	-10.031
▁અનુભવ	-10.0313
▁ಸರಳ	-10.0315
ानंतर	-10.0318
▁बेहतर	-10.0323
ಲ್ಪಟ್ಟ	-10.0324
ുന്നില്ല	-10.0326
ಲಿದ್ದಾರೆ	-10.0329
യര്	-10.0337
▁पैसे	-10.0343
▁કામગીરી	-10.0346
▁ലക്ഷം	-10.0346
▁संयुक्त	-10.0348
▁सादर	-10.0353
ಲೋ	-10.0353
ષ	-10.0355
▁બનાવ	-10.0358
▁ಪತ್ರ	-10.036
▁हमारे	-10.0361
േണ്ടി	-10.0363
ವಾಗುತ್ತದೆ	-10.0366
▁രാജ	-10.0366
▁ತೆಗೆದುಕೊಳ್ಳ	-10.0367
▁ಸತ್ಯ	-10.0367
▁ભ	-10.0368
▁തടയ	-10.0368
▁കോഴിക്കോട്	-10.0373
▁मजबूत	-10.0375
▁तपास	-10.0378
▁पर्यावरण	-10.0379
▁സ്ഥല	-10.0385
▁അതിനാൽ	-10.0385
▁अतिरिक्त	-10.0386
▁સં	-10.039
▁ಸಂಸ್ಥೆ	-10.039
▁രോഗ	-10.0392
▁കര	-10.0393
▁લો	-10.0396
▁ഗാന്ധി	-10.0398
▁જમીન	-10.0399
▁ಗೌರವ	-10.0403
▁വീട്ടിൽ	-10.0406
▁દેશ	-10.0407
▁पहली	-10.0408
▁ഏതെങ്കിലും	-10.0409
▁ಓ	-10.0412
▁ସ	-10.0413
യുടെയും	-10.0417
▁സംസാരിക്ക	-10.0419
▁ഉണ്ടായ	-10.0422
▁ವೈ	-10.0422
▁ഇതിന്റെ	-10.0424
▁जमा	-10.0429
▁વે	-10.0433
त्या	-10.0437
मेंट	-10.0437
▁സിപിഎം	-10.0438
ಸ್ಥ	-10.0444
▁ಅಧಿಕಾರ	-10.0445
ക്കാര	-10.0449
▁सुबह	-10.045
▁ಪರೀಕ್ಷೆ	-10.0451
▁ಮಾದರಿ	-10.0451
▁ಬಹು	-10.0453
▁शरद	-10.0454
▁ಪ್ರಶ್ನೆ	-10.0459
▁വിമാന	-10.0466
▁വേണ്ട	-10.0466
ವಾಗಿದ್ದು	-10.0467
ସ	-10.0468
▁आने	-10.0475
ഫി	-10.0475
▁र	-10.0476
▁ചരിത്ര	-10.0477
യെന്ന	-10.0479
പ്പെടുന്ന	-10.0485
▁ಸಂಘದ	-10.049
▁आठ	-10.0491
▁नियंत्रण	-10.0496
भर	-10.05
▁निश्चित	-10.05
▁ಸದಸ್ಯ	-10.0503
▁કા	-10.0504
▁ಪ್ರಮಾಣ	-10.051
▁ಅದಕ್ಕೆ	-10.051
▁ಯಾರು	-10.051
▁कार्रवाई	-10.0512
▁കാഴ്ച	-10.0513
ान	-10.0513
▁ಸಂಘ	-10.0514
▁પા	-10.0515
યુ	-10.0517
▁കണ്ടെത്ത	-10.0522
ಜಾ	-10.0523
ത്തിലുള്ള	-10.0523
▁ഒന്നും	-10.0527
▁ಪರಿಸರ	-10.0529
्यात	-10.0532
▁ഷ	-10.0532
▁ભાજપ	-10.0534
▁कर्ज	-10.0539
ങ്ങൾക്ക്	-10.0542
▁പ്രകാരം	-10.0545
▁પોલીસે	-10.0547
▁भागात	-10.0548
▁अभियान	-10.0552
ाल	-10.0552
▁अतिशय	-10.0553
▁മുഴുവൻ	-10.0555
▁ಒತ್ತಡ	-10.0556
▁ಅತಿ	-10.0558
▁રચના	-10.056
▁બીજા	-10.0561
▁કોંગ્રેસ	-10.0561
▁ലാ	-10.0561
▁സുരക്ഷ	-10.0562
▁जरूरत	-10.0563
▁ഹൈക്കോടതി	-10.0565
સિંહ	-10.0566
▁બાળકો	-10.0567
▁સેવા	-10.0573
▁ड	-10.0573
▁ആശങ്ക	-10.0574
▁ಅಭಿಪ್ರಾಯ	-10.0574
▁ଅ	-10.0575
ಿದ್ದರೂ	-10.0575
ണ്ട്	-10.0576
▁ता	-10.0576
ರಂದು	-10.0578
▁वहीं	-10.058
▁જોકે	-10.058
▁ફરિયાદ	-10.0582
▁आयुक्त	-10.0593
▁കമ്മിറ്റി	-10.0603
▁एकत्र	-10.0615
▁എടുക്ക	-10.0616
ing	-10.0616
▁आकार	-10.0617
▁ಆದೇಶ	-10.0617
▁जिस	-10.062
▁टी	-10.0624
▁सहा	-10.0627
▁બાળક	-10.0633
ોના	-10.0633
▁പു	-10.0634
▁പുറത്ത്	-10.0635
▁મન	-10.0637
ક્ષ	-10.0639
▁പ്രതിപക്ഷ	-10.0641
▁ಮೇಲಿನ	-10.0642
▁अभी	-10.0643
▁મજબૂત	-10.0643
▁नव	-10.0643
▁ഒപ്പം	-10.0643
ಿದ್ದಾನೆ	-10.0645
▁उन	-10.0647
ટર	-10.0648
▁സംഘ	-10.065
▁उसका	-10.0652
▁ನೀಡುತ್ತದೆ	-10.0653
▁ಕೋ	-10.0654
▁പേരില്	-10.0654
▁याची	-10.0655
▁നാലു	-10.0656
▁શ્રેષ્ઠ	-10.0656
▁बयान	-10.0659
ડે	-10.067
▁ಕಂಡ	-10.0674
▁केवल	-10.0674
ുമോ	-10.0675
▁पदार्थ	-10.0675
▁ઘર	-10.0678
▁അധികാര	-10.0679
▁ತುಂಬ	-10.0681
▁ವ್ಯಾಪಾರ	-10.0682
▁મોટી	-10.0683
മാക	-10.0686
▁यात	-10.0688
ंज	-10.0695
▁ಮಹಿಳಾ	-10.0698
▁സമരം	-10.0699
▁ಸುಲಭ	-10.0699
▁प्रभाव	-10.0699
▁होतं	-10.0701
▁જેવા	-10.0701
▁മാസം	-10.0703
ത്തേക്ക്	-10.0703
▁सुविधा	-10.0705
▁ഇന്ത്യയുടെ	-10.0706
आर	-10.0708
ವನ	-10.0711
▁खास	-10.0713
ವಾಗಿತ್ತು	-10.0713
▁पाय	-10.0714
पद	-10.0715
▁ડે	-10.0716
▁କ	-10.0719
▁यश	-10.0723
▁തെരഞ്ഞെടുപ്പ്	-10.0726
കൊണ്ട്	-10.0727
▁പാല	-10.0728
ॅ	-10.073
▁સારી	-10.0734
▁લ	-10.0736
ಜೆ	-10.0737
શા	-10.0738
▁आया	-10.074
▁ರಾಷ್ಟ್ರ	-10.074
ക്കര	-10.0741
ുന്നതിനായി	-10.0741
▁ಸಾಧನೆ	-10.0741
▁च्या	-10.0742
▁ಆಸಕ್ತಿ	-10.0746
▁ജയ	-10.0749
▁त्यांचे	-10.075
▁ಮಂದಿ	-10.0751
▁प्रवास	-10.0752
▁കൃഷി	-10.0754
ವಾಗಿರುವ	-10.0757
▁ट	-10.0757
▁ಉದ್ಯೋಗ	-10.0758
▁ഒരേ	-10.0758
▁ಆಧುನಿಕ	-10.0761
▁नवी	-10.0761
ാക്ക	-10.0763
▁शेतकरी	-10.0765
ುವಾಗ	-10.0766
▁ಶೇ	-10.0767
▁परिस्थिती	-10.0768
ૃ	-10.0769
▁ಹಿ	-10.0772
മെന്ന്	-10.0775
▁दोनों	-10.0778
▁പോ	-10.0778
▁അന	-10.0779
▁धन	-10.0783
▁ಬೆ	-10.0787
▁जाती	-10.079
▁मोठा	-10.0791
▁ವಿದ್ಯಾರ್ಥಿಗಳು	-10.0791
गर	-10.0792
▁ಹೋರಾಟ	-10.0792
▁યોજના	-10.0794
▁സ്ഥിതി	-10.0794
▁പ്രവര്ത്തിക്ക	-10.0799
ବ	-10.08
▁ಯಡಿಯೂರಪ್ಪ	-10.08
▁आपली	-10.0802
ಂಥ	-10.0803
▁ಸಲ್ಲಿಸ	-10.081
▁वातावरण	-10.0811
ോളം	-10.0815
िस	-10.082
ാര്	-10.0826
l	-10.0833
ತ್ರ	-10.0835
▁ಸುಲಭವಾಗಿ	-10.0837
യ്ക്കും	-10.0838
▁માનવ	-10.0839
▁ಪ್ರತ್ಯೇಕ	-10.0839
▁ಮೊ	-10.0839
▁അധിക	-10.0843
▁रे	-10.0847
▁ನಡೆಸಿದ	-10.0847
▁ફ	-10.0848
કી	-10.085
અ	-10.0851
▁ಉನ್ನತ	-10.0858
▁પ્રાપ્ત	-10.0861
v	-10.0863
▁ജല	-10.0865
▁લાભ	-10.0869
▁पोलिसांनी	-10.0873
▁अत्यंत	-10.0876
▁अंतिम	-10.0881
ેટ	-10.0881
▁ಮಾಡಲಾಗಿದೆ	-10.0885
ೇಶ್ವರ	-10.0888
ೆಲ್ಲ	-10.0889
▁ആവശ്യപ്പെട്ട	-10.0889
▁कै	-10.089
ാക്കി	-10.0891
ियां	-10.0891
a	-10.0892
▁जाईल	-10.0892
▁અમદાવાદ	-10.0895
▁ಚರ್ಚೆ	-10.09
▁स्व	-10.0905
▁विमान	-10.0907
▁तेल	-10.0911
ವರೆಗೂ	-10.0913
କୁ	-10.0913
▁आवाज	-10.0917
ുന്നതിനും	-10.0917
▁ವಸ್ತು	-10.0919
फा	-10.0919
ಿರಲಿಲ್ಲ	-10.092
▁माध्यमातून	-10.092
यर	-10.0924
പ്പെട്ടു	-10.0924
▁प्रसिद्ध	-10.0928
▁വാങ്ങ	-10.0929
▁പിന്നാലെ	-10.093
▁നിയമം	-10.0931
ज़	-10.0933
▁ધરાવે	-10.0935
▁अचानक	-10.0935
▁ચર્ચા	-10.0938
▁वीडियो	-10.0941
▁ಹಾಗೆ	-10.0943
ंवर	-10.0943
▁અભ્યાસ	-10.0948
o	-10.0948
▁तिच्या	-10.0953
▁खुद	-10.096
ઓને	-10.0962
▁संगठन	-10.0967
▁ફક્ત	-10.0967
▁കണ്ടെത്തിയ	-10.0973
▁ಗ್ರಾಮದ	-10.0977
▁ಹೋಗಿ	-10.0977
▁करण्यास	-10.098
തിനു	-10.0985
▁प्रणाली	-10.0986
ಪುರ	-10.0988
ക്സ്	-10.099
▁सामना	-10.0993
▁जाए	-10.0994
▁ಪ್ರಯತ್ನಿಸ	-10.0996
ിരിക്ക	-10.0996
▁મેળવવા	-10.1
▁ಸಭೆಯಲ್ಲಿ	-10.1004
▁दूसरे	-10.1008
ಗಳೂ	-10.1009
▁in	-10.101
▁ಮುಖ	-10.1011
▁બીજી	-10.1017
▁पासून	-10.1021
ಂದ	-10.1024
▁...	-10.1027
▁നാം	-10.1033
▁कप	-10.1034
મેન્ટ	-10.1035
▁त्याने	-10.1035
ಿಗ	-10.1037
▁ली	-10.1039
▁સામગ્રી	-10.1042
શન	-10.1042
▁જોઇએ	-10.1046
▁जिसके	-10.1047
▁താഴെ	-10.1047
▁आपकी	-10.1047
▁फडणवीस	-10.1049
കൾക്ക്	-10.1049
▁ಸರಿಯಾದ	-10.1058
▁वाद	-10.1058
യല്ല	-10.1059
▁એવી	-10.1059
र्ट	-10.106
▁शाह	-10.1066
ેલ	-10.1076
▁समिति	-10.1077
▁अंतर्गत	-10.1078
▁ഭക്ഷണ	-10.1079
▁जातात	-10.108
ढ	-10.1081
▁തുടര	-10.1082
ઠ	-10.1082
ಿದ್ದೇನೆ	-10.109
ರಾಗ	-10.109
▁ಇದರಲ್ಲಿ	-10.109
▁താന്	-10.109
गे	-10.1093
▁വിഭാഗ	-10.11
ये	-10.1102
▁നേതൃത്വം	-10.1102
नुसार	-10.1105
नाथ	-10.1105
▁ತಾಯಿ	-10.1106
ുളള	-10.1106
▁ഗോ	-10.1107
▁ಪ್ರವೇಶ	-10.1107
മാര	-10.1111
▁રોડ	-10.1111
പ്പെടുത്ത	-10.1112
ಕ್ಸ್	-10.1113
▁ફરી	-10.1113
▁क्षमता	-10.1117
▁गट	-10.1119
▁ಕಾಮಗಾರಿ	-10.1126
▁प्रमाण	-10.1134
▁शे	-10.1135
यू	-10.1138
ುವುದರಿಂದ	-10.1138
▁കഴിയില്ല	-10.1141
वाल	-10.1149
ण्या	-10.1149
▁ಜನಪ್ರಿಯ	-10.1149
▁ഹാ	-10.115
വു	-10.1152
▁പ്രശ്നം	-10.1157
▁डि	-10.1162
▁ಕಥೆ	-10.1167
▁ପ	-10.1169
▁असल्याची	-10.1169
ിയുടെ	-10.1172
▁વરસાદ	-10.1173
ക്സ	-10.1177
ರಾಜ	-10.1178
""	-10.1183
▁പേര	-10.1183
पे	-10.1184
ാക	-10.1185
ेत	-10.1185
▁तास	-10.1186
▁പക്ഷെ	-10.1187
▁इं	-10.1188
▁ಸಿಗ	-10.119
▁મહત્વપૂર્ણ	-10.1191
▁जांच	-10.1192
▁വന്	-10.1194
▁बारे	-10.1194
▁सि	-10.1201
ಬೇಕಾಗುತ್ತದೆ	-10.1202
വരാണ്	-10.1202
വാ	-10.1206
▁ಎನ್ನ	-10.1212
▁ಹಳೆಯ	-10.1213
രും	-10.1217
▁g	-10.1218
्यु	-10.1225
▁എത്ത	-10.1226
▁ಅಧಿಕಾರಿ	-10.1228
▁ಸೆ	-10.1231
▁ಮಾರ್ಗ	-10.1236
▁આયોજન	-10.1245
▁सुरक्षित	-10.1249
ಲೂ	-10.1249
▁पश्चिम	-10.125
▁केस	-10.1253
ುತ್ತಿವೆ	-10.1255
ುವುದಕ್ಕೆ	-10.1256
▁हरियाणा	-10.1258
ಕೊಳ್ಳ	-10.126
▁വിഷയ	-10.1263
▁अन	-10.1264
▁ગો	-10.1265
▁हवा	-10.127
▁ಮಾತನಾಡಿದರು	-10.1271
▁પાંચ	-10.1278
▁ಕಟ್ಟಡ	-10.1279
▁यदि	-10.1285
▁लग	-10.1287
▁खासदार	-10.1287
▁ಕಾರ್ಯಕ್ರಮದಲ್ಲಿ	-10.1287
▁വേദന	-10.1288
▁ತನಿಖೆ	-10.1291
▁റിപ്പോർട്ട്	-10.1292
णाऱ्या	-10.1293
▁शासन	-10.1295
▁ರೈತರ	-10.1297
ળી	-10.13
▁ഇന്	-10.1303
▁സൗദി	-10.1304
▁रोड	-10.1305
▁लगभग	-10.1306
▁ക്ഷേത്ര	-10.1307
i	-10.1307
ಂತಹ	-10.1314
ણા	-10.1317
ുമ	-10.1321
▁ચ	-10.1323
▁വാര്ത്ത	-10.1323
▁पहुंच	-10.1324
▁സുരക്ഷാ	-10.1326
▁शिकायत	-10.133
▁ಪೂರ್ಣ	-10.1335
▁મુલાકાત	-10.1337
▁ഉപയോഗിക്കുന്ന	-10.1339
▁आपला	-10.134
ുമെന്നാണ്	-10.1341
▁टाक	-10.1344
ખા	-10.1346
▁उत्तम	-10.1351
▁സം	-10.1353
▁स्टेशन	-10.1355
ിപ്പിക്ക	-10.1355
▁സൈനിക	-10.1356
തോ	-10.1361
▁काळात	-10.1362
▁വിട	-10.1363
▁വിശ്വാസ	-10.1363
▁सोमवार	-10.1367
▁ಲಾಭ	-10.1368
▁ತಕ್ಷಣ	-10.1369
▁ഖ	-10.1375
▁ഫല	-10.1376
▁રી	-10.1378
ेड	-10.1382
▁આવતા	-10.1384
es	-10.1384
▁રોગ	-10.1392
▁ഭീഷണി	-10.1393
ാർ	-10.1393
▁ಜೆ	-10.1394
▁ലി	-10.1394
વાની	-10.1396
▁ಪ್ರಧಾನ	-10.1397
യിലുള്ള	-10.1398
▁അഴിമതി	-10.1399
सु	-10.1402
ଲ	-10.1404
▁ആഭ്യന്തര	-10.1405
▁ಕ್ಷೇತ್ರದಲ್ಲಿ	-10.1409
ത്തിന	-10.1411
▁राष्ट्र	-10.1417
▁ನಿರ್ವಹಿಸ	-10.1421
▁ಬಿಟ್ಟು	-10.1423
ऱ्या	-10.1425
ीचा	-10.1427
കാര	-10.1427
▁सत्ता	-10.1432
▁ನಿಯಂತ್ರಣ	-10.1438
▁ಕಾರ್ಯನಿರ್ವಹಿಸ	-10.144
▁प्रशिक्षण	-10.1441
▁ವೈದ್ಯಕೀಯ	-10.1443
▁बता	-10.1443
▁गुजरात	-10.1444
▁परिसरात	-10.1451
▁સંપૂર્ણ	-10.1452
ഥ	-10.1462
▁ಇವರು	-10.1464
▁बड़ी	-10.1465
તું	-10.147
▁તેનો	-10.1473
▁चाल	-10.1474
ವಾಗಿರುತ್ತದೆ	-10.1475
െത്തിയ	-10.1479
▁બેઠક	-10.148
▁ആവശ്യമായ	-10.148
ർത്ത	-10.148
ಲ್ಲೂ	-10.1481
▁ಸಿಎಂ	-10.1482
સે	-10.1483
പ്പു	-10.1487
▁मित्र	-10.149
▁पुढील	-10.1492
▁सुंदर	-10.1495
ಕೊಂಡ	-10.1498
▁ഉപ	-10.1501
▁પ્રેમ	-10.1502
દા	-10.1504
ಿಕೊಂಡು	-10.1504
▁જિલ્લા	-10.1505
▁കാര്യ	-10.1505
▁નક્કી	-10.1508
ण्यास	-10.1509
ട്ടെ	-10.1511
▁ನಾಟಕ	-10.1513
ായിരിക്കും	-10.1514
▁जाएगी	-10.1517
▁ಆದರೂ	-10.1517
▁માર્ગ	-10.152
વાળા	-10.1523
▁ಪೆ	-10.1524
▁നടത്തിയത്	-10.1537
र्ड	-10.1538
ഷി	-10.154
▁ಅರಣ್ಯ	-10.154
▁ಜೀವನದ	-10.154
एल	-10.1541
▁આવેલા	-10.1544
▁ಮೈ	-10.1547
ക്കാണ്	-10.1549
ಂಟ	-10.1558
▁અંદર	-10.156
▁ആയി	-10.1564
ನ್ನೂ	-10.1564
▁ಸಿದ್ಧ	-10.1567
▁ಹೆ	-10.1567
▁लग्न	-10.1567
▁ನಿರ್ಧಾರ	-10.1568
ुक	-10.1569
▁स्वागत	-10.1571
▁എവിടെ	-10.1573
േഴ്സ്	-10.1573
▁സ്ഥലം	-10.1575
▁എങ്കിൽ	-10.1577
▁ದಿ	-10.158
गो	-10.1581
▁मामला	-10.1585
ികൾ	-10.1585
▁બી	-10.1585
▁സംബന്ധിച്ച്	-10.159
▁गांव	-10.1594
▁अच्छा	-10.1595
ेन	-10.1597
▁ಮಕ್ಕಳಿಗೆ	-10.1599
▁ಬಂದಿದೆ	-10.1606
കു	-10.161
▁സാമൂഹിക	-10.1612
▁मंगलवार	-10.1616
ડો	-10.1616
▁करण्याचे	-10.1617
▁m	-10.1617
▁गु	-10.162
▁പര	-10.1621
▁ಶ	-10.1622
નાર	-10.1622
▁ಮಾಡುವುದು	-10.1622
▁पिछले	-10.1622
▁കി	-10.1622
▁वाहतूक	-10.1626
▁അമേരിക്ക	-10.1628
ാര	-10.163
▁ಶಿವ	-10.1631
▁રસ	-10.1631
િસ	-10.1632
▁മനുഷ്യ	-10.1632
ಎಸ್	-10.164
▁ಮನೆಗೆ	-10.1643
▁കടന്നു	-10.1643
▁പോയി	-10.1648
▁ಚುನಾವಣೆಯಲ್ಲಿ	-10.1648
▁समान	-10.1648
▁વાર	-10.1653
▁रात	-10.1653
▁રહ્યું	-10.1654
▁എന്താണ്	-10.1655
▁સમાન	-10.1657
▁अमित	-10.1657
▁जिसमें	-10.166
എം	-10.1664
ળા	-10.1664
મે	-10.1664
വർക്ക്	-10.1665
▁निकाल	-10.1667
▁ಬ್ಯಾಂಕ್	-10.1675
बद्दल	-10.1678
▁ദൈവ	-10.1682
ഐ	-10.1683
▁ಇಲ್ಲಿನ	-10.1688
▁ಸರಿಯಾಗಿ	-10.1696
▁पुस्तक	-10.1698
માન	-10.1698
ಳ್ಳ	-10.17
▁മണി	-10.1701
▁ജനറല്	-10.1701
ಂಡ್	-10.1701
ರೀ	-10.1703
ಲಾಗುತ್ತಿದೆ	-10.1703
യുണ്ട്	-10.1705
▁കണ്ടു	-10.1707
▁ഒറ്റ	-10.1713
പാ	-10.172
▁സഹ	-10.1729
▁प्रकरण	-10.1731
ുകളെ	-10.1734
▁प्रयोग	-10.174
▁ग्रामीण	-10.1741
▁ಇಬ್ಬರು	-10.1743
▁ને	-10.1744
നോ	-10.1746
▁പ്രതിരോധ	-10.1746
▁ഇത	-10.1748
▁ಸೂಚನೆ	-10.1749
▁शकतात	-10.1751
▁ઉપલબ્ધ	-10.1754
▁""	-10.1755
▁തോമസ്	-10.1756
▁पूरा	-10.1757
▁उपाय	-10.1757
▁करतो	-10.1759
▁કાર્યક્રમ	-10.176
▁നന്നായി	-10.1761
▁ಕಲೆ	-10.1762
▁प्रयास	-10.1766
▁വനിതാ	-10.1767
▁t	-10.1768
૦	-10.177
▁येते	-10.177
▁केलं	-10.1772
▁ಪ್ರಕ್ರಿಯೆ	-10.1773
ष	-10.1778
▁સે	-10.1778
▁चाहते	-10.1781
दर	-10.1782
തല്ല	-10.1783
▁पर्याय	-10.1785
▁ലക്ഷ്യം	-10.1787
ेश्वर	-10.1792
▁ಆರಂಭಿಸ	-10.1793
▁ಕಚೇರಿ	-10.1793
വര്ക്ക്	-10.1795
▁ബെ	-10.1797
മാണെന്നും	-10.1799
▁लगातार	-10.1802
▁દાખલ	-10.1807
▁रात्री	-10.1808
▁પસાર	-10.1831
▁ડો	-10.1833
▁എണ്ണം	-10.184
ാമ	-10.1851
ുകയോ	-10.1853
ಿದ್ದೇವೆ	-10.1853
▁ವ	-10.1855
▁लागत	-10.1857
▁राजस्थान	-10.1863
▁ભારે	-10.1864
▁ಇಲಾಖೆಯ	-10.1872
▁ರಾಜ್ಯದಲ್ಲಿ	-10.1872
▁ह्या	-10.1873
▁കനത്ത	-10.1875
ಕೊ	-10.1879
▁നാ	-10.1882
▁ಪ್ರಸಿದ್ಧ	-10.1885
▁മര	-10.1888
▁സന്തോഷ	-10.1891
▁ಕ್ಷೇತ್ರ	-10.1901
▁काल	-10.1901
▁അവസരം	-10.1902
▁ಪದ	-10.1903
▁ಸುಂದರ	-10.1907
▁હજુ	-10.1907
▁करावी	-10.1908
▁स्वतः	-10.1915
वत	-10.1917
▁ಕುಮಾರಸ್ವಾಮಿ	-10.1918
▁ഗ്രാമ	-10.1921
യില്ല	-10.1922
▁ಅಂದರೆ	-10.1924
ದರ	-10.1924
▁पड	-10.193
▁ഏക	-10.1936
▁മഹാ	-10.1937
▁തമ്മിലുള്ള	-10.1938
▁പോലുള്ള	-10.1941
▁કરતી	-10.1941
▁കയറി	-10.1944
ക്കാര്	-10.1944
નિ	-10.1947
ોએ	-10.1952
▁ചിന്ത	-10.1952
▁खबर	-10.1953
▁ಒಳ್ಳೆಯ	-10.196
▁નાના	-10.1961
ക്കൊപ്പം	-10.1964
▁ಜಾ	-10.1965
▁સ્થિતિ	-10.197
▁മോ	-10.197
▁निगम	-10.1972
ଣ	-10.1972
▁જવાબ	-10.1972
▁അടി	-10.1973
▁रखने	-10.1982
क्स	-10.1988
▁पेश	-10.1993
▁शेयर	-10.2001
▁રાજ	-10.2003
▁ಹೆಚ್ಚುವರಿ	-10.2005
▁കേരളത്തില്	-10.2007
▁ಒಳ	-10.2009
▁मिळत	-10.201
▁કાર્યવાહી	-10.201
▁പ്രകൃതി	-10.2012
▁रहने	-10.2012
▁പരീക്ഷ	-10.2015
മില്ലാത്ത	-10.2015
ୋ	-10.2019
▁k	-10.2023
▁नदी	-10.2024
▁ತಲೆ	-10.2025
▁ചെറു	-10.2029
▁ಮನ	-10.2031
▁मि	-10.2031
वान	-10.2034
▁રે	-10.2036
ମ	-10.2037
▁कट	-10.2037
▁पंजाब	-10.2045
▁राष्ट्रपति	-10.2045
▁ಸಾವಿರ	-10.2045
આર	-10.2046
ಎಂ	-10.2055
ंस	-10.206
▁അന്ന്	-10.2061
▁બનાવી	-10.2066
ಗಳಾದ	-10.2072
▁ದೂರು	-10.2076
▁ശ്രമിച്ച	-10.2083
▁read	-10.2085
टर	-10.2085
▁गा	-10.2085
▁ಸುತ್ತ	-10.2088
િટ	-10.2088
▁अशोक	-10.2089
▁व्यवहार	-10.2091
ಕೊಂಡು	-10.2091
▁ಏಕ	-10.2093
▁આવેલ	-10.2094
▁എന്തു	-10.2096
▁દિવસે	-10.2098
▁പ്രണയ	-10.2098
ेज	-10.21
▁अप	-10.21
▁ಜಾತಿ	-10.21
▁भगवान	-10.2103
▁असू	-10.2104
▁നടക്ക	-10.2106
ಹಾ	-10.2106
▁ಮೈಸೂರು	-10.211
पो	-10.2115
▁શરૂઆત	-10.2115
▁परवानगी	-10.212
ન્	-10.212
▁નજીક	-10.2121
▁സഹായ	-10.2127
▁ಮಾಡಿದೆ	-10.2128
▁ಹೃದಯ	-10.2133
▁വരും	-10.2134
बल	-10.2135
▁કલાક	-10.2136
▁सो	-10.2137
ುವಿಕೆ	-10.2141
▁त्यांची	-10.2142
▁സിനിമാ	-10.2143
▁പ്രസ്താവന	-10.2145
▁जहां	-10.2147
ാണെന്നും	-10.215
▁ಕ್ಷೇತ್ರದ	-10.2151
▁കാര്യങ്ങൾ	-10.2153
▁कला	-10.2156
▁વડાપ્રધાન	-10.216
▁પરિવાર	-10.2161
യിട	-10.2165
▁അതിന്	-10.2166
ഷ്യ	-10.2166
▁ഇൻ	-10.2167
▁संपर्क	-10.2168
ಬಹುದಾದ	-10.2175
▁അതുകൊണ്ട്	-10.2176
▁വ്യാജ	-10.218
▁ಸೋಮವಾರ	-10.2183
▁અરજી	-10.2185
▁जातो	-10.2186
ाशी	-10.2186
त्व	-10.2187
▁ಸ್ವ	-10.2188
▁ആഗ്രഹിക്കുന്ന	-10.2191
पूर्ण	-10.2196
ंत	-10.2205
▁സ്ഥാപന	-10.2208
മാക്കി	-10.2212
▁ವಾರ	-10.2218
▁ખા	-10.222
ന്ദ	-10.2221
▁રા	-10.2222
▁स्थानिक	-10.2223
▁സോ	-10.2225
▁શ્રી	-10.223
▁बड़ा	-10.224
ಿಸಿದರು	-10.2241
શી	-10.2243
z	-10.225
▁ಪ್ರತಿಕ್ರಿಯೆ	-10.225
▁कल्याण	-10.2254
▁याच	-10.2257
▁d	-10.2258
▁കൊലപാതക	-10.226
▁ನೀತಿ	-10.2264
▁चला	-10.2268
തായും	-10.2268
▁जिससे	-10.2269
▁राज्यात	-10.227
▁પ્રકારની	-10.227
ದಿದ್ದರೆ	-10.2271
▁सकाळी	-10.2272
▁ಮಟ್ಟದ	-10.2272
▁മേ	-10.2273
▁ಹಾಗಾಗಿ	-10.2277
f	-10.2279
एम	-10.228
▁വിജയം	-10.2281
સ્ત	-10.2282
▁കൊ	-10.2285
▁लगाया	-10.2287
▁આનંદ	-10.2292
▁उठ	-10.2292
▁सक्षम	-10.2294
▁ಸಂಸ್ಥೆಯ	-10.23
▁कहना	-10.2302
▁ഭാഗ	-10.2302
യ്യ	-10.2303
▁ಹೊಂದ	-10.2306
▁ವಿಭಿನ್ನ	-10.2309
▁पहुंचे	-10.231
▁શિક્ષણ	-10.231
ಟೆ	-10.2311
▁ಇಲ್ಲದೆ	-10.2315
▁ಸಂದರ್ಭಗಳಲ್ಲಿ	-10.2317
്റെ	-10.2319
▁നികുതി	-10.232
▁दिवशी	-10.2323
▁रद्द	-10.2323
▁ಏ	-10.2324
x	-10.2325
▁ತಂದೆ	-10.2326
യേ	-10.2328
ೀಕರಣ	-10.2329
▁शि	-10.2329
▁ആരോപണം	-10.2332
▁સ્વ	-10.2336
▁കാർ	-10.2337
▁इंटरनेट	-10.2339
▁പോകുന്ന	-10.2339
ಗಳಾಗಿ	-10.2343
▁ಅಭ್ಯರ್ಥಿ	-10.2343
ീസ്	-10.2345
▁ಬೇಡಿಕೆ	-10.2347
▁നീണ്ട	-10.2348
ीचे	-10.2353
▁ಸಂಜೆ	-10.2354
▁अमेरिका	-10.2358
▁ഇക്കാര്യം	-10.2367
▁अनु	-10.2371
▁मृत्यू	-10.2372
▁വിവരങ്ങൾ	-10.2372
▁യുവ	-10.2374
▁ಸೀ	-10.2375
ಸನ್	-10.2376
▁દેવ	-10.2376
▁ദിവസ	-10.238
▁ജനാധിപത്യ	-10.2381
യം	-10.2383
ટે	-10.2383
▁ति	-10.2384
▁करावा	-10.2384
ുവാൻ	-10.2388
an	-10.2391
▁ഇതോടെ	-10.2392
▁केल्यानंतर	-10.2393
▁एल	-10.2393
▁നൽകുന്ന	-10.2395
▁ಬಿಡ	-10.2395
▁धाव	-10.2397
▁અપ	-10.2398
▁ಕೃಷ್ಣ	-10.2399
▁പത്ര	-10.24
ಷ್	-10.2404
▁જવા	-10.2414
▁જન્મ	-10.2418
▁વિસ્તારમાં	-10.2419
હા	-10.2426
▁ಮರ	-10.2426
▁എത്തി	-10.2431
▁આઇ	-10.2432
▁નંબર	-10.2439
▁ಕನಿಷ್ಠ	-10.2442
▁मुताबिक	-10.2444
ന്നു	-10.2445
▁विरोधी	-10.2446
le	-10.2446
▁അഭിപ്രായ	-10.2448
▁વિરોધ	-10.2449
▁news	-10.245
▁तु	-10.2455
▁મુખ્યમંત્રી	-10.2456
ल्ड	-10.2456
▁ವಿದ್ಯಾರ್ಥಿ	-10.2462
▁ಸಂಗ್ರಹ	-10.2463
ಂಟ್	-10.2465
▁പറഞ്ഞ്	-10.2466
▁ചെയ്യുക	-10.2469
▁સંપૂર્ણપણે	-10.247
ಯವರು	-10.2471
▁आधारित	-10.2471
▁കണ്ടെത്തി	-10.2472
ಾದರೂ	-10.2472
▁ಔಷಧ	-10.2472
ശാല	-10.2474
▁ಮಹಿಳೆ	-10.2475
▁ಸರಿ	-10.2478
▁દવા	-10.2481
▁દ	-10.2483
▁ಮಾಧ್ಯಮ	-10.2483
▁उद्धव	-10.2485
▁സഭ	-10.2486
ତ	-10.2487
▁लि	-10.2488
▁चलते	-10.249
▁लगे	-10.249
ിലുള്ള	-10.249
▁ರಕ್ತ	-10.2493
▁ಸರ್ವ	-10.2498
▁ലൈംഗിക	-10.2502
▁જી	-10.2504
ಾರ	-10.2505
▁സംവിധാന	-10.2508
ેલી	-10.2509
തെ	-10.2511
▁भाषा	-10.2512
ಹಿ	-10.2513
്ക്ക്	-10.2515
▁ನಷ್ಟ	-10.2516
▁ട	-10.2517
▁घेण्यात	-10.2518
▁संप	-10.252
▁യാതൊരു	-10.2525
▁बनाया	-10.2526
▁ಅವಧಿಯಲ್ಲಿ	-10.2531
छ	-10.2531
▁રોજ	-10.2533
▁എടുത്തു	-10.2538
ಬ್ಬ	-10.2539
▁പ്രതിസന്ധി	-10.2545
ಶಿ	-10.2546
▁വര്ഷ	-10.2548
▁હો	-10.255
▁વર્ષે	-10.255
▁જ્યાં	-10.2552
▁फेसबुक	-10.2553
▁निवडणुकीत	-10.2556
▁નીચે	-10.2557
▁കാര്യങ്ങള്	-10.2558
▁മീഡിയ	-10.2559
▁ವಿಭಾಗ	-10.2561
▁कळ	-10.2567
▁तुमच्या	-10.2567
▁ಪರಿ	-10.2569
▁ग्राहक	-10.2569
▁यू	-10.257
▁शुक्रवार	-10.2571
രാജ	-10.2572
ങ്	-10.2573
▁ಸದಸ್ಯರು	-10.2574
▁ವಾ	-10.2575
▁वक्त	-10.258
ശേഷം	-10.2583
▁तेज	-10.2588
▁ಕೆಲವೊಮ್ಮೆ	-10.2589
▁രംഗത്ത്	-10.259
▁ಹಾಕಿ	-10.2593
▁चालक	-10.2594
ಷ್ಟು	-10.2598
▁स्वीकार	-10.2601
▁चि	-10.2601
▁અર્થ	-10.261
▁സംശയ	-10.2611
ळा	-10.2612
▁ತಾಲೂಕಿನ	-10.2615
ಯಂತೆ	-10.2616
ನೆಯ	-10.2618
മു	-10.262
ത്തിനുള്ള	-10.2621
▁आपका	-10.2627
▁ಬಹಳಷ್ಟು	-10.2632
▁समझ	-10.2635
▁ಇತಿಹಾಸ	-10.2636
▁आदी	-10.2647
▁गोष्टी	-10.2647
മാര്	-10.2647
ള്ള	-10.2648
▁सही	-10.2655
▁કરવાનું	-10.2656
▁ಬೇ	-10.2658
ಖ	-10.2661
▁വിരുദ്ധ	-10.2666
▁किती	-10.2669
മെന്ന	-10.2669
▁ವೈದ್ಯರು	-10.2671
▁પ્રકારના	-10.2671
▁മറ	-10.2681
ಿಗೂ	-10.2682
ક્ર	-10.2682
ર્ડ	-10.2684
▁ഉണ്ടാക	-10.269
▁सड़क	-10.2694
▁വിതരണം	-10.2694
▁હોવા	-10.2697
▁ಜತೆ	-10.2703
▁ગરમ	-10.2703
स्थ	-10.2704
▁ആക്രമണ	-10.2708
▁പലരും	-10.2713
ത്തിന്റെയും	-10.2715
▁അവതരിപ്പിക്ക	-10.2717
▁રકમ	-10.272
▁ಮಹಿಳೆಯರು	-10.2721
ેશ	-10.2721
▁ಪ್ರದೇಶದ	-10.2729
▁સરકારે	-10.273
▁ತೆರಿಗೆ	-10.2733
▁करावे	-10.2735
▁ವಿಚಾರಣೆ	-10.2735
▁ലോ	-10.2736
▁ഫോട്ടോ	-10.2736
▁വസ്തുത	-10.2737
ર્ટ	-10.2738
▁ಭ	-10.2741
▁बँक	-10.2742
▁પો	-10.2752
▁സംരക്ഷിക്ക	-10.2754
▁पे	-10.2755
ರಿಯ	-10.2758
▁जण	-10.2761
▁അധികൃതര്	-10.2763
▁सभा	-10.2765
▁તરફથી	-10.2765
പാല	-10.2768
▁ಮರು	-10.2769
ിട്ടുള്ളത്	-10.277
▁दरअसल	-10.2775
▁ನೇ	-10.2775
▁വിവാഹം	-10.2779
സ്റ്റ്	-10.2781
▁पट	-10.2782
▁चौकशी	-10.2783
▁स्वास्थ्य	-10.2786
▁कानून	-10.2787
જે	-10.2789
▁ಧ್ವನಿ	-10.279
▁પસંદગી	-10.2792
▁അക്രമ	-10.2795
▁त्यावर	-10.2802
ിക്കാൻ	-10.2803
▁നമുക്ക്	-10.2805
▁महाराज	-10.2807
▁ಬಿಸಿ	-10.2809
▁ವೈಯಕ್ತಿಕ	-10.281
▁ಗುಣಮಟ್ಟದ	-10.2811
धार	-10.2816
▁കള	-10.2817
▁ആവശ്യമാണ്	-10.2818
▁ಸಮ	-10.2818
ശി	-10.282
प्रमाणे	-10.2823
▁ભર	-10.2823
▁ചെ	-10.2826
ाचं	-10.2827
▁ತಂಡದ	-10.2831
તાં	-10.2831
▁തീര	-10.2832
ാണ	-10.2832
▁ലഭിക്ക	-10.2833
▁સ્તર	-10.2833
▁അല്	-10.2837
▁વા	-10.284
गार	-10.284
▁યુ	-10.2841
▁ಮಗುವಿನ	-10.2842
ജന	-10.2846
▁കേസില്	-10.2848
▁पहचान	-10.2851
ri	-10.2853
▁സാങ്കേതിക	-10.2854
ઘ	-10.2855
ങ്ങളിലെ	-10.2855
▁ବ	-10.2855
▁લક્ષણો	-10.2857
▁पांच	-10.286
▁ರಂಗ	-10.2861
▁ആധുനിക	-10.2861
▁आल्या	-10.2863
▁નુકસાન	-10.2865
▁बांधकाम	-10.2867
ಕಲ್	-10.2871
ક્સ	-10.2872
h	-10.2875
▁പട	-10.2875
▁ജാ	-10.2878
▁છેલ્લા	-10.2878
▁बो	-10.2879
▁ಎಲ್ಲರೂ	-10.2881
ോടെ	-10.2881
▁લોકોને	-10.2883
ಲ್ಲಾ	-10.2889
▁रक्कम	-10.289
ശ്	-10.2891
▁ನಗರದಲ್ಲಿ	-10.2895
▁પગ	-10.2897
▁ભાવ	-10.2898
▁ನರೇಂದ್ರ	-10.29
▁തെറ്റ	-10.29
സെ	-10.2903
▁रविवार	-10.2903
്യം	-10.2904
▁കൊടുക്ക	-10.2904
ીક	-10.2908
▁നിറ	-10.2909
क्र	-10.291
ಜನ	-10.2913
▁ವ್ಯಕ್ತಿಯ	-10.2914
▁શેર	-10.2914
▁વધારો	-10.2915
▁കേസിൽ	-10.2916
▁ઉત્તર	-10.2917
▁कभी	-10.2918
ત્ર	-10.2919
▁ಸ್ವತಃ	-10.2919
▁ಸಂಬಂಧಿಸಿದ	-10.2922
ाना	-10.2922
ગર	-10.2924
▁ಎಂದರೆ	-10.2926
▁જશે	-10.2933
ಪು	-10.2934
▁कपूर	-10.2937
▁पो	-10.2939
ಆರ್	-10.294
▁നിറഞ്ഞ	-10.2942
▁പ്രദേശ	-10.2943
ଳ	-10.2945
▁સ્થાનિક	-10.2948
▁देऊन	-10.2948
▁ವ್ಯವಹಾರ	-10.2949
છ	-10.2951
▁खो	-10.2951
▁गुन्हा	-10.2954
▁ബാങ്ക്	-10.2954
▁ಚುನಾವಣಾ	-10.2958
▁ಪ್ರಮಾಣದ	-10.2962
▁ફોન	-10.2963
▁મિ	-10.2966
▁मैं	-10.2966
▁ನಿರ್ವಹಣೆ	-10.2966
ವನ್ನೂ	-10.2971
▁शनिवार	-10.2971
▁ಖ	-10.2971
ന്ന്	-10.2974
▁ಕಟ್ಟ	-10.2975
േക്ക്	-10.2975
as	-10.2978
▁ಸೌಲಭ್ಯ	-10.2978
▁ಕೊರತೆ	-10.2981
ುವಲ್ಲಿ	-10.2982
ാറുണ്ട്	-10.2984
▁જાણ	-10.2985
▁പഴ	-10.2987
▁कर्नाटक	-10.2989
▁दूसरी	-10.299
▁ಚಿ	-10.2992
▁ತು	-10.2994
▁मोठी	-10.2999
▁സ്ഥാന	-10.3003
▁ബന്ധം	-10.3005
▁ഇവർ	-10.3006
્વ	-10.3008
▁मानव	-10.301
▁പഞ്ചായത്ത്	-10.301
▁होऊन	-10.3011
યો	-10.3011
▁i	-10.3012
▁വിവര	-10.3016
▁ಒದಗಿಸ	-10.3017
▁राह	-10.3019
ುತ್ತಿದ್ದು	-10.3019
▁അന്താരാഷ്ട്ര	-10.3022
▁युवा	-10.3023
▁ಇನ್	-10.3024
पत्र	-10.3025
▁more	-10.3028
▁पता	-10.3029
▁आहोत	-10.3031
ುತ್ತಿತ್ತು	-10.3032
▁ಪ್ರೀತಿ	-10.3032
രോ	-10.3035
▁પરથી	-10.3038
▁നിലപാട	-10.3038
▁ಹು	-10.3041
देखील	-10.3043
തിൽ	-10.3048
▁बुधवार	-10.3052
ವೆಂದರೆ	-10.3055
▁കേരളം	-10.3057
ലും	-10.3059
കി	-10.306
▁ആര	-10.3061
▁ગંભીર	-10.3062
ગા	-10.3063
▁പണി	-10.3064
▁तुम्हाला	-10.3064
▁ತೋರಿಸ	-10.3065
▁ಸಾಗ	-10.3068
▁ಅವುಗಳ	-10.3069
▁പട്ടിക	-10.3071
▁ഭാഷ	-10.3071
▁अदालत	-10.3072
▁રાજકોટ	-10.3076
▁ഇഷ്ട	-10.3077
▁सम	-10.3082
തെന്നാണ്	-10.3083
▁ಸೇರ	-10.3084
മാവ	-10.3085
▁ಅನುಭವಿಸ	-10.3086
ുകൊണ്ട്	-10.3089
ૈ	-10.3091
▁തരം	-10.3092
▁ಸಂಬಂಧಿಸಿದಂತೆ	-10.3102
▁ಪ್ರಾಥಮಿಕ	-10.3114
द्र	-10.3115
▁अल	-10.3119
ोर	-10.312
▁शहरात	-10.3122
▁ಯು	-10.3122
▁ಪರಸ್ಪರ	-10.3124
▁ನಿಜವಾದ	-10.3126
▁रन	-10.3129
▁करेगा	-10.3131
െടുക്ക	-10.3131
▁റാ	-10.3132
▁ಚೆನ್ನಾಗಿ	-10.3132
▁ಭಾಷೆ	-10.3132
સો	-10.314
▁ರಕ್ಷಣೆ	-10.3148
▁નરેન્દ્ર	-10.3148
▁ಸಹಕಾರ	-10.315
▁તેવી	-10.315
▁પૂર્ણ	-10.3151
▁ഉന്നത	-10.3151
സ്സ	-10.3154
▁अव	-10.3154
▁વજન	-10.3157
ൻസ്	-10.3164
▁നോക്കി	-10.3165
▁न्याय	-10.3165
▁ಆಟ	-10.3166
▁मौत	-10.3168
▁वजन	-10.3169
▁आधी	-10.3172
▁ನಿಟ್ಟಿನಲ್ಲಿ	-10.3173
▁പ്രവർത്തിക്ക	-10.3175
▁संधी	-10.3177
▁जम्मू	-10.3182
േണ്ടതുണ്ട്	-10.3185
▁दर्शन	-10.3186
▁ಚಾ	-10.3189
▁പോസ്റ്റ	-10.3189
ിക്കുന്നു	-10.3189
ിച്ചത്	-10.319
▁સર	-10.3191
▁આગામી	-10.3193
▁બને	-10.3194
ತ್ವ	-10.3195
▁ಆತಂಕ	-10.3195
▁चांगले	-10.3197
सन	-10.3199
▁વ્યક્તિગત	-10.3201
▁લાંબા	-10.3206
▁विकसित	-10.3208
िश	-10.3213
▁करणाऱ्या	-10.3213
▁कोटी	-10.3215
▁શહેર	-10.3216
▁ശിവ	-10.3222
▁ടോ	-10.3224
▁ખરીદી	-10.3224
▁રામ	-10.323
▁સ્પષ્ટ	-10.3232
▁जल्द	-10.3234
▁कॉलेज	-10.3238
▁ಬಣ್ಣದ	-10.3238
▁നീ	-10.3242
▁घरी	-10.3243
▁એન્ડ	-10.3244
▁टक्के	-10.3246
▁സംഗീത	-10.3248
▁ಅನುಕೂಲ	-10.325
▁ഉയര	-10.3251
▁बिहार	-10.3252
▁വിഭാഗം	-10.3252
or	-10.3259
▁રમત	-10.3263
पु	-10.3263
▁मैच	-10.3265
▁ಕೊನೆಯ	-10.3274
▁કેટલીક	-10.3275
പരമായ	-10.3276
▁ಮುನ್ನ	-10.3276
ിരുന്നില്ല	-10.3277
▁લઇ	-10.3278
▁ಲಾ	-10.3278
धा	-10.3283
▁ತೋರ	-10.3284
▁ಶುಕ್ರವಾರ	-10.3285
▁ಇಷ್ಟ	-10.3294
നിയ	-10.3296
▁നിയന്ത്രണ	-10.3297
ृ	-10.3297
▁कश्मीर	-10.33
▁ആരും	-10.3303
ण्ड	-10.3304
▁ഒഴിവാക്ക	-10.3312
യുമായ	-10.3313
▁पर्यटन	-10.3314
▁ઝડપી	-10.3316
▁പ്രഖ്യാപിച്ച	-10.3321
▁यावर	-10.3321
▁യോഗം	-10.3322
ാനോ	-10.3323
▁સુરક્ષા	-10.3324
▁ನೋವು	-10.3324
▁કહે	-10.3329
आय	-10.3332
▁रचना	-10.3333
▁വ്യവസായ	-10.3334
▁ಮಾತು	-10.3336
▁વસ્તુઓ	-10.3336
▁ಸಸ್ಯ	-10.3338
▁കൊണ്ട	-10.3339
▁ಸ್ಥಿತಿ	-10.3342
▁विभिन्न	-10.3343
▁कलाकार	-10.3345
▁ಓದ	-10.3349
ന്സ്	-10.3352
സ്ഥ	-10.3353
▁ಉಡುಪಿ	-10.3353
▁જેના	-10.3354
▁ಅಪಾಯ	-10.3355
re	-10.3355
▁ಹೆಚ್ಚ	-10.3361
▁രണ്ട	-10.3362
ಷ್ಟೇ	-10.3366
▁ગુણવત્તા	-10.3367
ಟು	-10.3369
▁रक्त	-10.3369
ലു	-10.3371
▁അനുവദിക്ക	-10.3371
▁ಕಂಡು	-10.3375
▁વિભાગ	-10.3377
▁യോഗ	-10.3379
▁ചൈന	-10.3379
ಮೋ	-10.3382
▁ઇન્	-10.3384
▁ഇതേ	-10.3386
ୟ	-10.3386
ുന്നതാണ്	-10.3386
▁लेख	-10.339
▁ആത്മഹത്യ	-10.3391
പോലെ	-10.3395
▁ഉപയോഗിച്ച	-10.3395
▁രൂപം	-10.3397
▁એલ	-10.3401
▁सतत	-10.3402
▁പ്രവര്ത്തന	-10.3402
▁ഉണ്ടായിരുന്നു	-10.3408
णं	-10.3411
रिया	-10.3411
കാ	-10.3415
▁ಕಾಲೇಜು	-10.3416
▁ભગવાન	-10.3422
मंत्री	-10.3423
▁നിര	-10.3425
▁गोष्ट	-10.3426
अर	-10.3426
मु	-10.3429
ೊಂದು	-10.3432
ൊന്നും	-10.3434
▁ಪುಸ್ತಕ	-10.3436
ഃ	-10.3443
▁थेट	-10.3445
▁ആക്രമണം	-10.3445
▁ಜೀವನದಲ್ಲಿ	-10.3446
▁ചീഫ്	-10.3446
▁അത്ര	-10.3447
ിക്	-10.345
▁ರೈತ	-10.3454
▁ಬರೆದ	-10.3457
▁એવા	-10.3457
▁આરોગ્ય	-10.3458
ങ്ങി	-10.3462
▁ವಿರೋಧ	-10.3463
वन	-10.3463
▁ಅಧಿಕಾರಿಗಳ	-10.3464
▁आत	-10.3464
▁करार	-10.3464
▁ಸೂಚಿಸ	-10.3467
▁गिर	-10.347
▁വർഷ	-10.347
▁असलेले	-10.3471
▁ഒര	-10.3471
▁राज्यातील	-10.3473
▁રજૂ	-10.3474
▁ज्ञान	-10.3474
▁അറിയിച്ച	-10.3477
▁ബസ്	-10.3477
▁सत्य	-10.3477
▁दिसून	-10.3479
▁പൗരത്വ	-10.3482
▁ઓછી	-10.3483
ത്തും	-10.3483
▁मै	-10.3484
▁ಗುರಿ	-10.3489
▁ತಲುಪ	-10.349
▁क्योंकि	-10.3497
▁ડ	-10.3499
▁ഇവരുടെ	-10.3499
▁”	-10.3499
▁ನಿರ್ಮಿಸ	-10.35
▁રૂ	-10.35
▁सीमा	-10.3502
▁നടന്നു	-10.3503
ಚ್ಚ	-10.3505
▁प्रचंड	-10.3506
▁ಕಾಯ	-10.3518
▁થતા	-10.3518
▁കണ്ണ	-10.352
▁ಅವನು	-10.352
જન	-10.3521
▁എല്	-10.3521
ुर	-10.3521
▁આગ	-10.3522
▁લાગે	-10.3525
▁बने	-10.3525
വല	-10.3526
▁नेतृत्व	-10.3527
▁उपाध्यक्ष	-10.3527
ായിരുന്ന	-10.3527
▁ಮೊಬೈಲ್	-10.3528
▁ചിത്രത്തിന്റെ	-10.353
▁മുന്നില്	-10.3531
▁എല്ലാവരും	-10.3534
▁संघर्ष	-10.3535
ರೊ	-10.3544
ल्याने	-10.3546
▁कुटुंब	-10.3548
െന്നാണ്	-10.3548
▁શરીર	-10.3549
ಟ್ಟು	-10.3549
▁मतदार	-10.3552
▁ശ്രമം	-10.3553
▁പ്രക്രിയ	-10.3553
ર્	-10.3555
ರಾಗಿದ್ದಾರೆ	-10.3556
▁જાહેરાત	-10.3558
ബാ	-10.3559
▁बजे	-10.3561
▁പോസ്റ്റ്	-10.3564
▁ಉಪಸ್ಥಿತರಿದ್ದರು	-10.3566
▁ಸೋ	-10.3567
▁ખોરાક	-10.357
▁ചുമതല	-10.3572
▁ઝ	-10.3572
▁ચાલુ	-10.3573
▁ನಂಬಿಕೆ	-10.3574
▁जवळ	-10.3575
▁होकर	-10.3578
▁વધી	-10.3582
▁അനുഭവ	-10.3582
▁സാഹചര്യത്തിൽ	-10.3583
▁પરવાનગી	-10.3584
▁दि	-10.3585
▁ಆಸ್ತಿ	-10.3585
▁ಶನಿವಾರ	-10.3586
▁बनाए	-10.3587
തല	-10.3587
▁બસ	-10.359
▁ವಹಿಸ	-10.359
പ്പാ	-10.359
▁ಸಾಧನ	-10.359
फ़	-10.3591
▁ನಿರ್ಧರಿಸ	-10.3593
▁ഫലം	-10.3593
ುವುದರ	-10.3594
▁होंगे	-10.3595
ात्मक	-10.3597
▁ಮದುವೆ	-10.3598
▁ಎದುರಿಸ	-10.36
▁സഹായം	-10.3601
ಕ್ಕಿಂತ	-10.3602
▁ಆತನ	-10.3602
▁મહા	-10.3602
ઝા	-10.3603
ಶಾ	-10.3604
▁तिला	-10.3604
it	-10.3605
▁ಆಡ	-10.3609
▁കിട്ടിയ	-10.361
▁ജോ	-10.361
▁ತಪ್ಪ	-10.3611
യാത്ര	-10.3611
▁ಸಹಾಯಕ	-10.3611
റേ	-10.3612
▁ಪು	-10.3614
▁ಏಕೆ	-10.3615
▁ಪ್ರಭಾವ	-10.362
▁ಕುಟುಂಬದ	-10.3626
▁कैसे	-10.3629
सिंह	-10.3629
▁राजनीतिक	-10.363
धी	-10.3633
▁ಇತ್ತೀಚೆಗೆ	-10.3635
ಮಾಡ	-10.3637
ಟ್ಟಿ	-10.3638
▁പ്രവർത്തന	-10.3641
▁व्यापार	-10.3643
▁लवकरच	-10.3644
▁ലഭിക്കുന്ന	-10.3647
▁ആരംഭിച്ച	-10.3647
पन	-10.3648
▁ಅದ್ಭುತ	-10.365
▁പങ്കെടുത്ത	-10.365
▁ತಪ್ಪು	-10.365
ಸ್ತ	-10.3652
▁छ	-10.3653
▁അവന്റെ	-10.3656
हि	-10.3657
▁केल्या	-10.3659
▁આપ્યો	-10.366
▁ന്	-10.3662
स्प	-10.3662
▁આર	-10.3663
▁त्याच	-10.3665
▁गिरफ्तार	-10.3666
▁ಶಾಲಾ	-10.3667
ಕೊಡ	-10.3669
സ്ഥാന	-10.3671
കളിലും	-10.3673
▁ಒಮ್ಮೆ	-10.3675
▁ಗಂಭೀರ	-10.3678
▁जवान	-10.368
▁ಅಂತಿಮ	-10.368
▁ದೇಶದಲ್ಲಿ	-10.3687
▁ಅಧಿಕ	-10.3697
▁ಚರ್ಮದ	-10.3698
▁जि	-10.3698
▁दुनिया	-10.3701
പ്പെടുന്നു	-10.3704
मत	-10.3705
ीची	-10.3707
▁ഡെ	-10.3708
▁સુંદર	-10.3708
▁कोशिश	-10.3708
▁പുസ്തക	-10.3712
▁कामगार	-10.3712
गल	-10.3713
▁ನೈಸರ್ಗಿಕ	-10.3716
▁भवन	-10.3717
യാണെന്ന്	-10.3719
ಬೇಡಿ	-10.372
▁കൂട	-10.3721
▁घ	-10.3723
▁മരണം	-10.3724
▁പ്രകടനം	-10.3729
▁ಅಂಗ	-10.3732
▁ഉടമ	-10.3732
ುವುದಾಗಿ	-10.3733
▁गुण	-10.3733
▁ಕೋಟಿ	-10.3735
लि	-10.3735
ವಾಯಿತು	-10.3738
▁വ്യക്തമായ	-10.3739
▁मिला	-10.374
▁પાછળ	-10.3741
▁നട	-10.3742
▁ದೇವರ	-10.3742
▁ಆಚರಣೆ	-10.3743
▁ಕಾರು	-10.3744
▁ತಂತ್ರಜ್ಞಾನ	-10.3745
▁മൂ	-10.3745
▁होना	-10.3749
▁ತಿಳಿಸ	-10.375
▁जाधव	-10.3752
ಡಿಯ	-10.3753
▁ધરપકડ	-10.3755
ીએ	-10.3757
▁सिर्फ	-10.3758
▁ಗೃಹ	-10.3761
▁മുഖ്യ	-10.3761
▁നരേന്ദ്ര	-10.3761
▁ഫി	-10.3762
▁ಪರಿಗಣಿಸ	-10.3762
▁പേരിൽ	-10.3763
st	-10.3763
▁કાર્ડ	-10.3763
▁ಕೂಡಾ	-10.3767
ಿರ	-10.3772
▁બોલ	-10.3773
വള	-10.3773
ूर	-10.3776
▁ಅಪ್ಲಿಕೇಶನ್	-10.3782
▁ಹಿಂದೂ	-10.3786
ഖ്	-10.3791
▁પ્રદર્શન	-10.3793
▁ಸಾಧಿಸ	-10.3794
▁કંપનીઓ	-10.3794
▁രാജ്യത്ത്	-10.3796
▁ദിന	-10.3797
▁ಸಾಮರ್ಥ್ಯ	-10.3798
ನಾಗಿ	-10.3799
▁അതി	-10.38
▁उदाहरण	-10.38
▁ದೇವ	-10.3803
पेक्षा	-10.3804
▁ಬಳಸಲು	-10.3804
▁आधुनिक	-10.3806
▁ಕೆಳಗಿನ	-10.3807
▁दबाव	-10.3807
▁सुधार	-10.3808
▁મંત્રી	-10.3809
लेला	-10.3809
മല	-10.3817
▁കഴിഞ്ഞു	-10.3817
▁ಮಂಗಳವಾರ	-10.382
▁ಬಟ್ಟೆ	-10.382
▁सलमान	-10.3822
ദ്ധ	-10.3822
▁ಉದ್ಯಮ	-10.3824
ल्यानंतर	-10.3826
ದಲ್ಲೇ	-10.3826
▁മാതൃക	-10.3827
▁ഹൈ	-10.3828
▁करे	-10.3829
▁ಪ್ರವಾಸ	-10.3829
▁એર	-10.3832
ांकडून	-10.3837
▁വ്യക്തമാക്കിയ	-10.3839
▁ಪ್ರಯಾಣ	-10.3839
▁राय	-10.384
ೋಣ	-10.3841
▁वाढत	-10.3842
▁ತಂದ	-10.3844
ઉ	-10.3847
▁മൊഴി	-10.3848
ಬೇಕಿದೆ	-10.3848
▁മാന	-10.3849
▁തുറന്നു	-10.3849
▁सेना	-10.3852
▁सचिन	-10.3852
▁ആഘോഷ	-10.3852
▁ଆ	-10.3853
▁ઝડપથી	-10.3856
कु	-10.386
▁ವರ್ಷಗಳಿಂದ	-10.386
ರಾಯ	-10.3861
▁സോഷ്യല്	-10.3869
▁e	-10.3869
▁തിരിച്ചു	-10.3871
▁सर्वोच्च	-10.3872
▁രക്ത	-10.3873
▁ಸ್ಥಳದಲ್ಲಿ	-10.3875
▁भविष्य	-10.3878
at	-10.3878
▁नगरसेवक	-10.3878
▁अपघात	-10.3878
▁ಕಪ್ಪು	-10.3879
▁प्रतिक्रिया	-10.3879
▁അവധി	-10.388
ર્ન	-10.388
ापासून	-10.3882
▁സുപ്രീംകോടതി	-10.3883
▁कह	-10.3884
▁ತಿಳಿಯ	-10.3884
ાં	-10.3885
▁बड़े	-10.3885
▁હકીકત	-10.3885
ta	-10.389
▁रखा	-10.389
▁ಇಂಥ	-10.3892
▁വാർത്ത	-10.3893
▁പ്രതിഷേധം	-10.3895
ಿರುತ್ತದೆ	-10.3896
▁അതുപോലെ	-10.3898
ર્ક	-10.3899
ത്തെക്കുറിച്ച്	-10.3905
▁ಬಡ	-10.3905
▁मशीन	-10.3906
▁ರೂಪದಲ್ಲಿ	-10.3908
▁જેવી	-10.3909
▁തനിക്ക്	-10.3911
ड्या	-10.3911
▁मह	-10.392
▁ആരോപണ	-10.392
તર	-10.3923
േഷൻ	-10.3928
▁વ્યવસ્થા	-10.3929
हर	-10.3929
ावा	-10.3933
▁वर्षे	-10.3935
▁ಇಂದಿನ	-10.3938
▁നടപ്പാക്ക	-10.3939
▁भावना	-10.3939
▁मिळणार	-10.3941
ಯವರ	-10.3941
▁ആന	-10.3942
ക്കാ	-10.3942
▁രോഗം	-10.3943
▁ಪರಿಣಾಮವಾಗಿ	-10.3948
▁ऐक	-10.3949
▁ಬೋ	-10.395
ಟೋ	-10.3952
▁ഇതിൽ	-10.3954
▁जीत	-10.3955
▁ಕೊಲೆ	-10.3963
▁गेला	-10.3964
▁ಲ	-10.3965
▁समाधान	-10.3967
തര	-10.3968
ാള	-10.397
▁समारोह	-10.397
▁થોડા	-10.3973
▁પરિણામ	-10.3977
▁त्यासाठी	-10.3977
▁ഇന്ത്യയിലെ	-10.3978
▁फायदा	-10.3981
▁ದರ	-10.3981
▁लखनऊ	-10.3985
▁നന്ദി	-10.3985
▁परि	-10.3987
▁ಆದಾಯ	-10.399
കം	-10.3991
സം	-10.3993
▁देशात	-10.3994
▁ಉಚಿತ	-10.3994
▁देवेंद्र	-10.3995
▁जोड	-10.3996
▁ಅಂಶ	-10.3999
▁മണ്ണ	-10.4
▁વિજય	-10.4
▁അതിൽ	-10.4006
▁પ્રદેશ	-10.4007
ાર	-10.401
▁ಚಾಲನೆ	-10.4011
▁സമ	-10.4013
▁सिनेमा	-10.4014
▁रोक	-10.4015
મ્પ	-10.4019
▁महीने	-10.4024
മാരുടെ	-10.4024
ിക്കാന്	-10.4029
▁परिसर	-10.4029
▁जवाब	-10.403
▁विशिष्ट	-10.403
▁ಸಹಜವಾಗಿ	-10.403
▁ಹಾನಿ	-10.4031
▁अनिल	-10.4031
▁કેસ	-10.4033
▁ಜಲ	-10.404
▁മുഖ	-10.4041
लेली	-10.4044
▁सकारात्मक	-10.4046
▁ನಡುವಿನ	-10.4046
കരമായ	-10.405
▁ಆದ್ಯತೆ	-10.405
▁നേരിട്ട്	-10.4051
▁മാറിയ	-10.4052
യെയും	-10.4053
▁ಸೈ	-10.4053
▁प्रा	-10.4055
▁चालू	-10.4056
ನಿಯ	-10.4057
▁ಕೇಳಿ	-10.4057
▁സുപ്രീം	-10.406
ीला	-10.406
▁साध	-10.406
▁ಘಟಕ	-10.4061
ವರನ್ನು	-10.4063
एस	-10.4064
▁ട്ര	-10.4066
▁ಮಾಡಿಕೊಳ್ಳ	-10.4069
സു	-10.407
▁મીડિયા	-10.4071
▁പേ	-10.4072
▁ಇಡ	-10.4072
▁പാട	-10.4072
▁મૂળ	-10.4073
െടുത്ത	-10.4074
▁അംഗ	-10.4078
▁पटेल	-10.408
▁सहभागी	-10.408
▁ಎನ್ನುವುದು	-10.4082
▁શોધ	-10.4085
▁समज	-10.4086
▁ಬೆಳವಣಿಗೆ	-10.4087
▁लोकप्रिय	-10.4089
▁തിരിച്ചറിയ	-10.4092
▁സ്വീകരിച്ച	-10.4094
ഗോ	-10.4095
▁जखमी	-10.4095
▁ದೃಶ್ಯ	-10.4097
▁काळ	-10.4097
▁ഇല	-10.4098
▁મેળવી	-10.4099
la	-10.4106
▁കലാ	-10.4107
ପ	-10.4109
ൊക്കെ	-10.4109
▁असर	-10.411
ില്ലാത്ത	-10.411
▁കാണാൻ	-10.411
▁ಮಂಡಳಿ	-10.411
▁പരിശോധിക്ക	-10.4111
ഗ്ര	-10.4111
▁બાજુ	-10.4111
▁મહિના	-10.4113
▁ഭ	-10.4115
വോ	-10.4116
ികള്	-10.4117
▁ಎಚ್ಚರಿಕೆ	-10.412
गत	-10.4121
ഹി	-10.4121
▁टीका	-10.4121
▁പ്രചാരണ	-10.4122
▁ಜಿಲ್ಲಾಧಿಕಾರಿ	-10.4124
▁अंदाज	-10.4125
▁त्यांचा	-10.4127
▁വ്യവസ്ഥ	-10.413
▁മെഡിക്കല്	-10.413
▁മുട്ട	-10.4134
▁മതി	-10.4137
रि	-10.4137
▁ಸೂಕ್ಷ್ಮ	-10.4139
▁विश्वविद्यालय	-10.4141
ಸ್ವಾಮಿ	-10.4142
▁ಭಯ	-10.4148
▁വരുത്ത	-10.4148
ുമായ	-10.4152
▁ജില്ല	-10.4152
▁ಹಬ್ಬ	-10.4153
▁തെ	-10.4153
▁ಎಲ್	-10.4154
▁ವಾತಾವರಣ	-10.4156
▁प्रकरणात	-10.4159
▁અગાઉ	-10.416
▁ಆರು	-10.416
▁आत्महत्या	-10.4161
▁ऊपर	-10.4162
▁നയ	-10.4163
ಬಹುದಾಗಿದೆ	-10.4164
u	-10.4167
नो	-10.4169
ીન	-10.4172
▁उपक्रम	-10.4174
▁पुरुष	-10.4175
▁बेहद	-10.4175
वाडी	-10.4177
▁सके	-10.4177
▁ഹിന്ദു	-10.4183
▁പരസ്യ	-10.4184
તે	-10.4185
▁ആറു	-10.4185
▁ಪಂದ್ಯ	-10.4187
▁ಹೋಟೆಲ್	-10.4187
▁ಪತ್ನಿ	-10.4187
▁ಇರಬೇಕು	-10.4187
▁കൂടിയ	-10.4188
▁ವೆಚ್ಚ	-10.4189
वादी	-10.4191
▁એન	-10.4191
▁ಭಾವನೆ	-10.4193
▁રાખવા	-10.4194
▁ഒരിക്കലും	-10.4194
▁ಸಂದರ್ಭ	-10.4196
▁കുറച്ചു	-10.4197
▁ಕಂಪನಿ	-10.4198
▁ലക്ഷ്യ	-10.42
മാന	-10.4201
▁മാനസിക	-10.4201
▁ಬುಧವಾರ	-10.4204
▁ಸಂಗತಿ	-10.4206
▁अच्छी	-10.4207
▁घरात	-10.4208
▁કુ	-10.4208
▁മനോഹരമായ	-10.4212
▁ಸೇರಿ	-10.4213
▁ಕರ್ನಾಟಕದ	-10.4213
▁ಬಿದ್ದ	-10.4213
▁फैसला	-10.4216
▁ಬೆಳೆ	-10.4217
ുവാന്	-10.4217
ൌ	-10.4219
ൃ	-10.4221
▁ഡ	-10.4222
▁നിലയില്	-10.4225
▁ശ്രമ	-10.4231
▁സോഷ്യൽ	-10.4232
▁अनेकदा	-10.4232
▁എടുത്ത	-10.4236
▁सहयोग	-10.4238
ത്തോട്	-10.424
▁ಒಟ್ಟು	-10.424
ನೊಂದಿಗೆ	-10.4241
ങ്ങളുമായി	-10.4244
▁घ्या	-10.4244
▁શાહ	-10.4251
▁w	-10.4251
▁गृह	-10.4252
▁ಹಂತದಲ್ಲಿ	-10.4253
एफ	-10.4262
▁अर्थात	-10.4263
▁રહેલા	-10.4263
ുന്നതിനു	-10.4264
റുകൾ	-10.4265
▁ವಿಜಯ	-10.4265
▁योग	-10.4267
▁उम्मीदवार	-10.4268
▁ആലപ്പുഴ	-10.4269
▁પ્રકાશ	-10.427
क्	-10.4271
▁ಸ್ವಾತಂತ್ರ್ಯ	-10.4275
▁ಗುರುತಿಸ	-10.4277
▁गेली	-10.4278
▁ಪ್ಯಾ	-10.4279
ಬೆ	-10.4281
▁जान	-10.4282
ड़ा	-10.4283
▁ವಿಶ್ವದ	-10.4283
िम	-10.4285
▁संशोधन	-10.4286
बर	-10.4286
▁गणेश	-10.4286
सारख्या	-10.4288
▁वहां	-10.429
▁നല്കിയത്	-10.4291
▁तय	-10.4292
▁അംഗീകരിക്ക	-10.4294
▁नस	-10.4296
▁સમાજ	-10.4296
▁બદલ	-10.4299
▁ನಾಯಕರು	-10.43
ത്തിനിടെ	-10.4302
▁നടപടികള്	-10.4302
ts	-10.4303
▁വിവരങ്ങള്	-10.4306
▁ಶೆಟ್ಟಿ	-10.4307
▁ഞങ്ങളുടെ	-10.431
▁नेहमी	-10.4311
▁સ્	-10.4313
▁നടന്നത്	-10.4315
▁ರೈತರು	-10.4318
▁વિશ્વ	-10.4318
▁ರೂಪಿಸ	-10.4318
▁നെ	-10.4319
▁ಪದವಿ	-10.432
▁કરનાર	-10.432
▁नया	-10.432
▁ചോദിച്ച	-10.4321
▁ટી	-10.4322
▁ಹಣವನ್ನು	-10.4322
▁സ്ഥാനം	-10.4324
▁ಅಂಗಡಿ	-10.4325
ಣಾ	-10.4326
▁પાકિસ્તાન	-10.4329
▁ಅವಳ	-10.433
▁ആദ്യമായി	-10.433
▁ಮಾಡಲಾಗುತ್ತದೆ	-10.4334
▁મામલે	-10.4342
▁ടെ	-10.4343
ಯಿ	-10.4345
▁शहरातील	-10.4348
റാ	-10.4351
▁ಶಿಫಾರಸು	-10.4351
दि	-10.4352
▁സേവന	-10.4355
▁ಕೆಳಗೆ	-10.4358
▁માતા	-10.4361
▁ನೇರವಾಗಿ	-10.4363
ഷൻ	-10.4363
▁બદલે	-10.4364
बे	-10.4368
▁ಅದರಲ್ಲಿ	-10.437
ഉ	-10.437
એસ	-10.4375
ીના	-10.4376
യാക്ക	-10.4377
▁ಕವಿ	-10.4378
▁ખરેખર	-10.438
▁ಕ್ಯಾನ್ಸರ್	-10.438
▁સમ	-10.4381
ಐ	-10.4393
▁माल	-10.4397
ಡಾ	-10.4397
▁ಯಂತ್ರ	-10.44
▁अरब	-10.4401
▁इच्छा	-10.4404
▁રહેતા	-10.4405
▁સફળ	-10.4406
▁ಇನ್ನೊಂದು	-10.4407
▁अभि	-10.4408
▁ಮನುಷ್ಯ	-10.4408
▁आलं	-10.4408
▁किस	-10.4409
▁ದೇವಾಲಯ	-10.441
▁हमला	-10.4411
▁എഴുതിയ	-10.4412
▁അതിനു	-10.4412
▁പുറമേ	-10.4412
▁ശരിയായ	-10.4413
▁ನೋಡಲು	-10.4415
il	-10.4415
▁ಉತ್ಪನ್ನ	-10.4416
▁യഥാർത്ഥ	-10.4416
▁ಒಳಗೆ	-10.4417
▁चा	-10.4423
▁ಸ್ಪಷ್ಟ	-10.4423
▁മുഴുവന്	-10.4426
▁ಬೆಳಗಾವಿ	-10.4429
▁दावा	-10.443
▁പരമ്പര	-10.443
▁સરકારી	-10.4433
▁ಗಾಂಧಿ	-10.4433
▁प्रो	-10.4434
▁ઉપ	-10.4439
▁બોર્ડ	-10.4439
▁ಪ್ರಮಾಣದಲ್ಲಿ	-10.4441
▁റോഡ്	-10.4441
▁जीव	-10.4441
▁ಯೋಗ	-10.4442
െല്ലാം	-10.4442
▁ഇരുവരും	-10.4442
▁കേട്ട	-10.4443
▁ಸಂಸ್ಕೃತಿ	-10.4443
▁खरीद	-10.4448
▁કિંમત	-10.4449
▁അനുവദിച്ച	-10.4451
▁ಮೀ	-10.4453
▁विराट	-10.4453
▁ആശുപത്രിയില്	-10.4455
▁ಸಮುದಾಯ	-10.4458
▁रख	-10.4464
ವನ್ನ	-10.4464
▁કરીએ	-10.4465
▁ಬೇಡ	-10.4467
ലിന്റെ	-10.4468
િલ	-10.447
▁रोजगार	-10.4471
▁ಸ್ವಂತ	-10.4472
▁വിളിച്ചു	-10.4472
▁लागली	-10.4474
▁तक्रार	-10.4477
▁शुरुआत	-10.4479
णारे	-10.4479
▁सुख	-10.4482
▁શા	-10.4482
▁ಹಾ	-10.4483
▁ഹെ	-10.4484
▁झाल्यानंतर	-10.4486
▁സര്ക്കാരിന്റെ	-10.4487
▁व्ह	-10.4489
▁લોક	-10.4491
ಯಲ್ಲಿರುವ	-10.4492
ಮೇ	-10.4494
ಂಪ	-10.4497
▁राहत	-10.4498
▁ശരി	-10.45
▁હાજર	-10.4502
ic	-10.4504
▁अॅ	-10.4504
പ്പോ	-10.4504
റും	-10.4506
▁वाच	-10.4507
च्छ	-10.4508
ायचे	-10.4508
▁മുറി	-10.451
▁पीएम	-10.451
▁ಕಾಯಿಲೆ	-10.4513
▁വിട്ടു	-10.4515
▁મોત	-10.4515
▁छात्र	-10.4516
▁അറിയിക്ക	-10.4518
▁સમયમાં	-10.4518
वल	-10.452
ંદ	-10.4522
▁ഇത്തവണ	-10.4522
▁ಸ್ಪರ್ಧೆ	-10.4523
▁ರಿ	-10.4524
▁ഔദ്യോഗിക	-10.4526
ുണ്ടായിരുന്നു	-10.4527
▁കൃഷ്ണ	-10.4532
▁റെ	-10.4532
കർ	-10.4533
▁ನೂತನ	-10.4537
ંડ	-10.4538
en	-10.4539
▁കീ	-10.454
▁ಅರ್ಧ	-10.4541
▁दुसऱ्या	-10.4542
▁कल्पना	-10.4542
▁ഇവരെ	-10.4543
▁व्यावसायिक	-10.4545
▁ക്യാമറ	-10.4547
▁કેમ	-10.4547
▁സ്നേഹ	-10.4548
▁अधिकारियों	-10.4549
▁ഭേദഗതി	-10.455
▁સ્થાન	-10.4551
▁राहणार	-10.4553
ಂಜ	-10.4553
▁कस	-10.4554
▁തരത്തിലുള്ള	-10.4554
▁സേന	-10.4554
ାଇ	-10.4558
▁स्वप्न	-10.4558
णारा	-10.456
ಿರುವುದರಿಂದ	-10.4562
േറ്റ്	-10.4564
▁प्रतिनिधी	-10.4564
▁നവ	-10.4568
▁കുറയ്ക്ക	-10.457
ેજ	-10.4573
▁ಪ್ರದೇಶಗಳಲ್ಲಿ	-10.4573
നില	-10.4573
▁વિસ્તાર	-10.4574
▁મહાન	-10.4576
▁സൃഷ്ടിക്ക	-10.4577
ಬೇಕಾಗಿದೆ	-10.4577
▁തിരിച്ചടി	-10.458
▁હાલ	-10.4582
▁તેમાં	-10.4587
▁ಕಲ್ಯಾಣ	-10.4588
▁മുംബൈ	-10.4592
▁ಬೃಹತ್	-10.4593
ല്ലോ	-10.4593
▁ಊಟ	-10.4594
▁ನಿಯಮ	-10.4595
▁हमें	-10.4599
▁स्थिति	-10.46
ര്ത്ത	-10.4609
▁पर्यटक	-10.4609
ಿನಲ್ಲಿ	-10.4612
▁കൊടുത്ത	-10.4613
▁ಅಡುಗೆ	-10.4619
▁ഉത്തരവ്	-10.4619
્ડ	-10.462
ನಾದ	-10.4621
▁ಗುಣ	-10.4622
▁ಚಲನಚಿತ್ರ	-10.4626
▁പ്രാദേശിക	-10.4626
▁ಸಮಾಜದ	-10.4628
▁ಅಪ್ಪ	-10.4628
▁વ્યવસાય	-10.4629
▁ರೋ	-10.4629
▁റഷ്യ	-10.463
ഷ്ട	-10.4631
ಹು	-10.4633
હી	-10.4633
▁આદેશ	-10.4634
ાયા	-10.4636
द्वारे	-10.4637
▁ಹತ್ತಿರ	-10.4637
▁അവകാശ	-10.4638
▁एक्स	-10.464
▁ಆಚರಿಸ	-10.4641
e	-10.4642
▁ಪ್ರಕಟಿಸ	-10.4643
▁ಪಡೆದು	-10.4646
द्द	-10.4646
▁എന്നിവര്	-10.4648
▁ಹೊ	-10.465
▁ಲೈಂಗಿಕ	-10.465
▁ವ್ಯತ್ಯಾಸ	-10.4651
▁असल्याचा	-10.4652
▁കാണുന്ന	-10.4653
ഡോ	-10.4654
▁തിരഞ്ഞെടുക്ക	-10.4654
युक्त	-10.4663
ദ്യ	-10.4667
▁ശിക്ഷ	-10.4667
▁सीएम	-10.4668
▁ಡೆ	-10.4669
देव	-10.467
▁നാളെ	-10.4673
▁സ്ഥാപിക്ക	-10.4673
ંટ	-10.4679
ിൻ	-10.4682
▁मुक्त	-10.4686
▁ಪೂಜೆ	-10.4688
▁ಚಿತ್ರದಲ್ಲಿ	-10.4688
▁താൻ	-10.469
ल्ला	-10.469
▁ಕೆಲವರು	-10.469
▁ആളുകൾ	-10.4692
म्प	-10.4692
▁നടപ്പിലാക്ക	-10.4692
▁यात्रा	-10.4694
ंच	-10.4698
ുമായിരുന്നു	-10.47
▁ಜತೆಗೆ	-10.47
▁કર્મચારીઓ	-10.4701
▁विद्यार्थी	-10.4702
▁ಗಡಿ	-10.4702
▁झाल्या	-10.4704
▁ಖರೀದಿ	-10.4705
▁ಮತ್ತಷ್ಟು	-10.4708
▁ധ	-10.4709
▁ನದಿ	-10.471
▁ಪತ್ರಿಕೆ	-10.4712
▁देता	-10.4713
▁ಪ್ರಥಮ	-10.4718
▁पूर्णपणे	-10.4719
▁തിരഞ്ഞെടുപ്പ്	-10.4719
▁ഉത്തരവ	-10.4722
▁नका	-10.4722
▁ರಂದು	-10.4722
▁ശബ്ദ	-10.4724
▁नाशिक	-10.4729
▁പ്രശ്നങ്ങൾ	-10.4729
▁सत्र	-10.4729
വന	-10.4731
▁ആറ്	-10.4735
▁പരിഗണിക്ക	-10.4739
▁युद्ध	-10.4739
▁ഷോ	-10.4742
▁ವಿಶ್ವಾಸ	-10.4743
▁असता	-10.4744
▁घट	-10.4748
ાના	-10.475
्यावर	-10.4752
▁આધારે	-10.4753
▁भारतात	-10.4754
▁മൃതദേഹം	-10.4755
ad	-10.4756
▁खाली	-10.4757
▁भा	-10.4758
▁കാലം	-10.4759
▁भाई	-10.476
▁മുന്നിൽ	-10.4763
ंदा	-10.4764
▁ನರ	-10.4767
te	-10.4767
▁യുദ്ധ	-10.4768
▁अखेर	-10.4768
▁आघाडी	-10.4771
▁लक्ष्य	-10.4773
▁जाऊन	-10.4774
▁उलट	-10.4776
▁मराठा	-10.4776
ાની	-10.4779
લ્ડ	-10.4782
▁ഹൃദയ	-10.4783
एन	-10.4785
▁രാഹുല്	-10.4787
▁പ്രവര്ത്തകര്	-10.4789
▁लेखक	-10.479
ાવી	-10.4791
വില	-10.4793
▁ಆಸ್ಪತ್ರೆಗೆ	-10.4794
▁ನಡೆಯುವ	-10.4796
▁സ്വതന്ത്ര	-10.4796
▁സംസ്ഥാനത്ത്	-10.4797
▁रस्त्यावर	-10.4798
സർ	-10.4799
വിന്	-10.48
યર	-10.4803
▁ಸಂಕೀರ್ಣ	-10.4803
▁तालुक्यातील	-10.4804
▁ಹತ್ಯೆ	-10.4806
▁ಕಂಪ್ಯೂಟರ್	-10.4807
▁ജനറൽ	-10.4809
▁સફળતા	-10.481
▁കൊണ്ടു	-10.4814
▁क्षेत्रात	-10.4815
▁चुकी	-10.4817
▁वापस	-10.4818
▁આર્થિક	-10.4818
ाऊ	-10.4819
ಾಧಿಕಾರಿ	-10.4821
द्	-10.4821
▁ખાતરી	-10.4823
▁ಅನ್ನ	-10.4825
ച്ചി	-10.4828
പോലും	-10.4831
▁ವಿವರ	-10.4831
▁सोड	-10.4832
ହ	-10.4832
ಾಯ	-10.4833
ില്ലെന്ന	-10.4835
▁ડિઝાઇન	-10.4837
▁જોઈ	-10.484
ಮನ್	-10.4843
▁ಸಂಸದ	-10.4843
▁ಮಗ	-10.4846
ಿಂದಲೂ	-10.4847
ത്തന്നെ	-10.4855
▁नाटक	-10.4855
▁मिलने	-10.4861
▁ഒന്ന്	-10.4863
ରୁ	-10.4864
▁മെഡിക്കൽ	-10.4865
▁നേതൃത്വത്തില്	-10.4868
▁തിരക്ക	-10.487
▁खराब	-10.4871
▁ಭಾಗದಲ್ಲಿ	-10.4871
ंध	-10.4871
▁വച്ച	-10.4873
▁न्यायालयाने	-10.4873
▁ಗುರುವಾರ	-10.4874
▁આધુનિક	-10.4875
▁കോട്ടയം	-10.4876
▁प्राथमिक	-10.4879
▁दहा	-10.4883
▁આઈ	-10.4883
▁ജില്ലയിലെ	-10.4883
യാക	-10.4885
▁નવ	-10.4888
▁കുട	-10.4888
▁ವ್ಯಕ್ತಪಡಿಸಿದರು	-10.489
▁राजकारण	-10.489
ॉल	-10.489
▁ഭാരത	-10.4891
വീ	-10.4892
▁ന്യൂ	-10.4892
▁બનાવે	-10.4893
रण	-10.4898
▁കുറ്റ	-10.4903
▁रोजी	-10.4909
देश	-10.491
ಿಕೊಂಡ	-10.491
▁ಇಲ್ಲದ	-10.4911
com	-10.4914
▁दिल्या	-10.4915
▁ಅನು	-10.4917
▁ചെയ്തിരുന്നു	-10.4921
▁વાળ	-10.4921
▁ಮರದ	-10.4922
▁ಫೋನ್	-10.4924
ಲೀ	-10.4925
▁તક	-10.4926
▁आगामी	-10.4927
▁પ્રવેશ	-10.4928
▁પાર્ટી	-10.4928
▁ಅನುದಾನ	-10.493
▁കാലത്ത്	-10.493
ಒ	-10.4934
▁पुर	-10.4936
▁ಇನ್ನಷ್ಟು	-10.4937
▁करेगी	-10.4938
▁लागेल	-10.4939
കളുമായി	-10.494
▁अन्न	-10.494
▁बोलत	-10.494
▁मोहम्मद	-10.4943
ാല	-10.4944
▁याचिका	-10.4945
▁ಬಯಸ	-10.4946
▁ખરાબ	-10.4952
▁ಬೆಂಗಳೂರಿನ	-10.4952
▁അടക്കമുള്ള	-10.4952
સ્	-10.4958
▁समूह	-10.4958
▁ನವದೆಹಲಿ	-10.4958
િય	-10.4959
▁यही	-10.4961
ळ्या	-10.4961
▁ಆಸ್ಪತ್ರೆ	-10.4961
▁ಬಿಳಿ	-10.4963
▁കള്ള	-10.4964
▁കവിത	-10.4964
▁ರೈ	-10.4964
▁उत्पन्न	-10.4965
ಬೀ	-10.4967
▁आश्वासन	-10.4967
▁નેતા	-10.4968
लाल	-10.4971
▁ഒന്നാം	-10.4976
▁ઉત્પાદનો	-10.4977
ಫಿ	-10.4977
▁ಧಾರ್ಮಿಕ	-10.4977
▁ಮುಚ್ಚ	-10.498
▁ಸಂತೋಷ	-10.4981
▁મને	-10.4982
▁मुली	-10.4982
▁തുടങ്ങിയവ	-10.4985
्ल	-10.4986
ദാ	-10.4987
ുവെന്ന	-10.4988
▁पड़	-10.499
▁ಮಾಡಿಕೊಂಡ	-10.499
▁ಭೂ	-10.4992
▁മൂലം	-10.4993
र्थ	-10.4995
▁മരിച്ചു	-10.4996
സോ	-10.4996
▁ഇനിയും	-10.4998
्ड	-10.4998
▁માણસ	-10.4999
▁स्वतंत्र	-10.5
જો	-10.5001
ത്തിനെതിരെ	-10.5001
▁കെട്ടിട	-10.5002
▁എപ്പോഴും	-10.5003
കുമാര്	-10.5005
തെന്ന	-10.5005
ંજ	-10.5006
▁તંત્ર	-10.5007
▁संकट	-10.5009
ठा	-10.5009
▁തുറന്ന	-10.501
▁പേർ	-10.5011
લિ	-10.5012
▁ನೀಡಬೇಕು	-10.5012
ंमध्ये	-10.5013
▁પ્રમાણે	-10.5015
▁കാരണ	-10.5016
▁ಕರೆಯ	-10.5016
બેન	-10.5017
▁સમસ્યાઓ	-10.5017
ര്മ	-10.5018
▁लागणार	-10.5018
▁ಚಟುವಟಿಕೆ	-10.5018
▁ಜಿಲ್ಲೆಯಲ್ಲಿ	-10.5019
▁समुद्र	-10.5022
▁ന്യൂഡല്ഹി	-10.5023
वास	-10.5024
▁जम	-10.5024
▁जबाबदारी	-10.5026
▁ಸಾಧ್ಯವಾಗುತ್ತದೆ	-10.5026
▁ഉയര്ന്ന	-10.5028
▁લા	-10.5029
▁ನಟಿ	-10.503
સ્પ	-10.503
ચર	-10.503
ಕಾರಿ	-10.5031
▁पहला	-10.5034
▁भ्रष्टाचार	-10.5034
િયો	-10.5034
▁घायल	-10.5034
ಗೊಳಿಸುವ	-10.5038
▁કરોડ	-10.5039
▁ನಿಂದ	-10.504
▁नसल्याने	-10.5042
▁വച്ച്	-10.5043
▁ക്രിക്കറ്റ്	-10.5044
▁ഒരുക്ക	-10.5046
ઓમાં	-10.505
▁गुणवत्ता	-10.5051
▁പദവി	-10.5051
▁ବି	-10.5053
▁ഉദാഹരണത്തിന്	-10.5055
▁प्रभावित	-10.5056
ിട്ടു	-10.506
▁थ	-10.5065
വന്	-10.5065
▁ऐसी	-10.5066
▁മുടി	-10.5068
▁ಅಡಿಯಲ್ಲಿ	-10.5068
▁असतील	-10.5069
▁સક્રિય	-10.507
▁സംരക്ഷണ	-10.507
ನರ್	-10.5073
▁ನೇರ	-10.5075
ીયા	-10.5076
▁ಸಲುವಾಗಿ	-10.5077
▁ಬರುತ್ತದೆ	-10.5077
▁सांसद	-10.508
▁ಸಿದ್ದ	-10.508
गण	-10.509
▁കിട്ട	-10.5093
▁मुंबईत	-10.5094
▁शो	-10.5095
▁ಹಂತ	-10.5097
ലീ	-10.5101
▁દિલ્હી	-10.5102
▁തുടക്കം	-10.5103
▁ಮಗು	-10.5104
▁कोहली	-10.5104
▁കുട്ടികളുടെ	-10.5105
▁ನಿಜ	-10.5106
िय	-10.5109
▁ദുരന്ത	-10.5111
▁ಜೋ	-10.5112
ଦ	-10.5112
▁ધર્મ	-10.5113
▁ಸಿಕ್ಕ	-10.5115
▁ವೃತ್ತಿ	-10.5116
തോടെയാണ്	-10.5116
શ્	-10.5116
▁തള്ളി	-10.5116
▁संचालक	-10.5118
▁ಸ್ವಾಮಿ	-10.5118
▁બો	-10.5119
▁ಸರಕಾರದ	-10.512
न्द	-10.5121
▁ચા	-10.5121
▁विस्तार	-10.5121
▁लेने	-10.5123
▁अहवाल	-10.5124
ಸರ್	-10.5125
▁ആക	-10.5127
▁അതിനെ	-10.5128
▁प्रसाद	-10.513
▁പച്ച	-10.5132
▁സാമൂഹ്യ	-10.5133
▁હતુ	-10.5133
िज	-10.5135
▁ಕೊಠಡಿ	-10.5136
▁നേതാക്കള്	-10.5138
▁ಗ್ರಾಮೀಣ	-10.514
▁जिल्ह्यातील	-10.514
▁ભાજપના	-10.5146
▁ಅವು	-10.5147
ದವರು	-10.5148
▁ನೆ	-10.5149
▁आम्हाला	-10.515
▁കണ്ട്	-10.5154
ದಾರ	-10.5154
▁ಮಹಿಳೆಯರ	-10.5155
▁लागला	-10.5157
▁ದಾಖಲೆ	-10.5158
▁ಕನಸು	-10.5163
कल	-10.5164
▁नव्या	-10.5167
▁ചെയ്യാന്	-10.517
▁शिवाजी	-10.5172
▁आंतरराष्ट्रीय	-10.5175
▁ઓળખ	-10.5178
ಕೇ	-10.5182
गढ़	-10.5183
ിന്റെയും	-10.5191
▁जनरल	-10.5191
▁ವಿಜ್ಞಾನ	-10.5192
▁बिल	-10.5193
▁ક્ષમતા	-10.5193
▁चौक	-10.5195
ासह	-10.5197
▁ದಾರಿ	-10.5205
▁ശരീര	-10.5208
▁ಆಕ್ರೋಶ	-10.5208
▁भरपूर	-10.5209
▁शिक	-10.5214
ೂರ	-10.5216
▁ಕಲಾ	-10.5218
▁सहज	-10.5219
▁काढून	-10.5219
ma	-10.5219
ઓની	-10.5221
ूल	-10.5222
▁આધારિત	-10.5223
બર	-10.5224
▁असल्यास	-10.5227
▁അപ്പ	-10.5228
▁मोह	-10.5233
ത്വം	-10.5235
▁वापरले	-10.5236
▁पै	-10.5236
se	-10.5237
▁റോ	-10.5237
▁लिये	-10.5241
ಗಳಿಗಾಗಿ	-10.5242
▁હતાં	-10.5242
▁ಮಾರ್	-10.5243
ಗೊಳ್ಳ	-10.5244
▁ದಂಡ	-10.5246
▁re	-10.5246
▁ബുദ്ധിമുട്ട	-10.5247
र्ज	-10.5247
इस	-10.5247
ल्	-10.525
▁ಸದ್ಯ	-10.5253
कि	-10.5253
▁നൽകാൻ	-10.5254
▁દા	-10.5255
▁മാറ്റം	-10.5255
▁ഏതാനും	-10.5256
▁ಕೈಗೊಳ್ಳ	-10.5258
▁കൈകാര്യം	-10.5259
▁ಫೋಟೋ	-10.5259
▁ರಚಿಸ	-10.5262
▁’	-10.5263
ुल	-10.5264
ड़ी	-10.5266
न्	-10.5266
दान	-10.5269
ുകളാണ്	-10.527
▁डो	-10.5271
▁പാലിക്ക	-10.5275
▁സമൂഹ	-10.5277
ജെ	-10.528
▁सूर्य	-10.528
िस्ट	-10.528
ರಿಯಾ	-10.528
अप	-10.5281
▁ಅವ	-10.5281
ियन	-10.5281
▁પિ	-10.5284
▁ചെലവ	-10.5285
▁यशस्वी	-10.5287
▁നോക്ക	-10.5287
ಗೋ	-10.5287
ನೂ	-10.5288
▁જઈ	-10.5289
▁सर्वाधिक	-10.529
ತರ	-10.529
▁വെല്ലുവിളി	-10.529
▁ಬಹುಶಃ	-10.529
▁ചെന്നിത്തല	-10.529
▁मुझे	-10.5291
▁कॉल	-10.5295
ss	-10.5296
▁സാഹചര്യത്തില്	-10.5297
▁वाटत	-10.5297
▁પગલે	-10.5298
▁ചു	-10.5299
▁ഘടന	-10.5299
ाकडून	-10.5299
▁ಕುಡಿಯುವ	-10.53
▁હોવાથી	-10.53
ल्स	-10.53
▁ನೀಡಿದೆ	-10.5304
▁કહી	-10.5308
▁जु	-10.5311
▁स्प	-10.5313
▁કદાચ	-10.5313
▁यु	-10.5314
▁തുറക്ക	-10.5315
▁ପ୍ର	-10.5317
▁धर	-10.5317
ഹാ	-10.5318
വുമാണ്	-10.5319
▁ಕೃತಿ	-10.5321
▁മുന്നോട്ടു	-10.5322
जीत	-10.5325
▁പ്രവർത്തനങ്ങൾ	-10.5325
▁ಮಂಗಳೂರು	-10.5328
ro	-10.5328
റിൽ	-10.5329
▁ઉપકરણ	-10.5329
ನೊ	-10.5331
▁കയറ	-10.5331
വിൽ	-10.5332
▁കൊല്ലപ്പെട്ട	-10.5332
ദു	-10.5333
श्	-10.5333
▁ಹಿಡಿದು	-10.5334
િમ	-10.5335
▁ಹೇಳಿ	-10.5335
▁इन्	-10.5336
▁संवाद	-10.5341
ra	-10.5341
▁कायद्या	-10.5343
▁എന്നിവർ	-10.5344
▁ಬಳಸಬಹುದು	-10.5345
▁पाऊस	-10.5345
गड	-10.5346
▁ആശയ	-10.5347
▁दें	-10.5349
▁ಜವಾಬ್ದಾರಿ	-10.5349
ಬಲ್ಲ	-10.535
▁മുകളിൽ	-10.5351
ೇಶ	-10.5352
▁बिना	-10.5353
▁कं	-10.5353
एक	-10.5357
ಡರ್	-10.5361
ેન	-10.5364
ഷണ	-10.5365
▁ವಸ್ತುಗಳ	-10.5366
▁ബ്ര	-10.5366
▁ഇതിനു	-10.5367
▁अजय	-10.5368
▁चव्हाण	-10.537
▁ವತಿಯಿಂದ	-10.537
▁കഥാപാത്ര	-10.5373
▁ऊर्जा	-10.5375
ଶ	-10.5377
▁संगीत	-10.5378
▁અધ્યક્ષ	-10.5378
കാര്യ	-10.5382
▁મંદિર	-10.5383
▁പ്രളയ	-10.5383
▁वै	-10.5383
हे	-10.5384
▁आवाहन	-10.5384
▁પાસેથી	-10.5385
▁രഹസ്യ	-10.5387
▁ಯುದ್ಧ	-10.5387
ಿಸುತ್ತದೆ	-10.5388
▁ಶಿ	-10.5388
▁ನಾಗ	-10.5389
ीने	-10.5391
▁ಅಲ್ಲದೇ	-10.5392
▁માંગ	-10.5392
▁चंद्र	-10.5394
▁ശ്രമിക്ക	-10.5395
▁ಭಾರತದಲ್ಲಿ	-10.5396
▁ऐ	-10.5397
▁सीट	-10.5398
▁पानी	-10.5399
ോടു	-10.5399
▁થયું	-10.5401
▁सहायक	-10.5402
ઇન	-10.5402
▁ગુ	-10.5403
▁ಫ	-10.5404
▁घेणे	-10.5404
▁v	-10.5406
▁ಆತ್ಮ	-10.5407
▁ಬೀರ	-10.5408
▁ಮಾಹಿತಿಯನ್ನು	-10.5409
▁म्हणतात	-10.5409
▁ಎನ್ನಲಾಗಿದೆ	-10.541
▁ಭೂಮಿ	-10.541
▁चयन	-10.5411
മില്ലാതെ	-10.5414
▁साधन	-10.5415
▁हासिल	-10.5415
▁പ്രവർത്തനം	-10.5415
▁वस्तू	-10.5416
▁ശേഷമാണ്	-10.5416
▁തുടങ്ങ	-10.5418
▁वीज	-10.5418
તુ	-10.5419
पट	-10.5419
ದಾ	-10.542
▁കൊല്ല	-10.5422
▁വിട്ട	-10.5423
▁അധികം	-10.5423
▁കേ	-10.5425
▁ಬಾರಿಗೆ	-10.543
▁ಸಮಸ್ಯೆಗಳನ್ನು	-10.543
▁हु	-10.5436
▁करोड़	-10.5438
ಂಡಿ	-10.5441
▁વિશાળ	-10.5441
▁h	-10.5441
▁ಕಾಳಜಿ	-10.5441
▁प्रबंधन	-10.5442
▁मागे	-10.5444
ಕೊಟ್ಟ	-10.5449
രിക്ക	-10.5449
െന്നു	-10.5451
▁ખબર	-10.5452
is	-10.5453
▁ಕಠಿಣ	-10.5454
▁ઘરે	-10.5454
ುವಂತಹ	-10.5457
▁सक्रिय	-10.5461
▁ഓഫീസ	-10.5462
ುತ್ತಲೇ	-10.5463
▁രംഗ	-10.5465
▁शाम	-10.547
▁આવક	-10.547
▁ഉദ്യോഗസ്ഥര്	-10.5477
▁ಚಂದ್ರ	-10.5478
▁तरीही	-10.5481
▁ವಸತಿ	-10.5482
▁കുറവ	-10.5483
▁પદ્ધતિ	-10.5489
कारी	-10.549
▁മിക്ക	-10.5492
▁ಯಾರ	-10.5493
▁ರಿಂದ	-10.5493
िए	-10.5493
▁લોકપ્રિય	-10.5493
રાજ	-10.5494
മന	-10.5495
▁સારા	-10.5495
▁എൽ	-10.5496
▁ಪ್ರದರ್ಶಿಸ	-10.5498
▁ಆತ	-10.55
ಮೀ	-10.5501
▁एखाद्या	-10.5502
▁कथा	-10.5502
▁ट्रेन	-10.5504
▁ಹೈ	-10.5506
നിര	-10.5506
▁ಬರೆಯ	-10.5507
પાલ	-10.5507
▁અલબત્ત	-10.5507
મેન	-10.5508
▁ಸ್ಥಾಪಿಸ	-10.5508
▁ഇതില്	-10.5509
દર	-10.5512
ण्याच्या	-10.5513
▁यामध्ये	-10.5515
▁ಜ್ಞಾನ	-10.5516
वाह	-10.5518
▁പ്രവാസി	-10.5518
▁ತಾವು	-10.552
રૂ	-10.5521
▁ಬ್ಯಾ	-10.5523
▁उद्घाटन	-10.5524
▁ವ್ಯವಸ್ಥೆಯ	-10.5524
▁സംഭവത്തില്	-10.5525
પે	-10.5525
▁ಸಂಭ್ರಮ	-10.5525
ിനി	-10.5533
▁समेत	-10.5535
ിക്കുന്നത്	-10.5538
▁જેને	-10.5538
न्न	-10.5538
▁നീതി	-10.554
▁સ્ટેશન	-10.5545
िट	-10.5546
ीस	-10.5547
ur	-10.555
સુ	-10.5557
▁धोरण	-10.5558
▁मूल्य	-10.5558
▁અધિકારીઓ	-10.5558
▁राज्यपाल	-10.5561
▁चरण	-10.5565
ീയ	-10.5566
▁ಸೌಂದರ್ಯ	-10.5567
ોલ	-10.5567
बरोबर	-10.5568
▁ಹೋದ	-10.5569
▁തിരു	-10.5569
▁ಸಾಂಪ್ರದಾಯಿಕ	-10.5576
▁દેખાવ	-10.5576
▁साफ	-10.5577
▁ખાન	-10.558
▁ತಿಂಗಳು	-10.5581
▁शतक	-10.5584
▁മത്സരം	-10.5585
▁ಖಾತೆ	-10.5585
▁ફરજ	-10.5586
ોનો	-10.5586
▁સ્થળ	-10.5587
ിനൊപ്പം	-10.5588
ೋತ್ಸವ	-10.5589
अलग	-10.5589
ದಲ್ಲೂ	-10.5594
സിൽ	-10.5597
▁ಭಾರೀ	-10.5598
വച്ച	-10.5599
▁ಟೈ	-10.5603
▁मांड	-10.5606
ಾಡ	-10.5607
▁ಆರೋಪಿ	-10.5609
गु	-10.5609
▁അറിഞ്ഞ	-10.561
▁उम्मीद	-10.561
▁फि	-10.5613
▁എയർ	-10.5615
ंगी	-10.5615
▁ವರ್ಷಗಳಲ್ಲಿ	-10.5615
തുപോലെ	-10.5617
▁ಪ್ರಾ	-10.5617
▁ಆರಂಭಿಕ	-10.5618
▁बदलाव	-10.562
ೊಂದ	-10.562
▁असले	-10.5622
▁ಮಧ್ಯೆ	-10.5623
▁मागील	-10.5624
▁रोज	-10.5624
▁ഉപയോഗം	-10.5625
▁પ્રો	-10.5628
▁गलत	-10.5628
▁ഷെ	-10.563
▁n	-10.5631
▁ടീമ	-10.5631
▁ಪತ್ತೆ	-10.5633
▁रेलवे	-10.5637
ಪೆ	-10.5637
▁નજર	-10.5641
▁લાખ	-10.5645
▁पराभव	-10.5645
na	-10.5645
ವಂತ	-10.5646
शि	-10.5648
▁ફે	-10.5649
▁സംഭവിച്ച	-10.5649
ಗಳೇ	-10.5654
▁ધરાવતા	-10.5654
▁टेस्ट	-10.5656
വൈ	-10.5658
▁દે	-10.5661
ುತ್ತೀರಿ	-10.5661
▁ಗುಂಪು	-10.5661
कुमार	-10.5662
▁ಕೂಡಲೇ	-10.567
▁सुप्रीम	-10.5674
▁पूरे	-10.5675
▁मोबाईल	-10.5676
▁പ്രശസ്ത	-10.5679
▁चौधरी	-10.5679
▁આપ	-10.568
▁ಲೇಖನ	-10.5681
व्या	-10.5682
▁વધુમાં	-10.5682
▁स्वच्छ	-10.5685
▁ત્યારબાદ	-10.5687
्रा	-10.5687
▁जिले	-10.5687
തായിരുന്നു	-10.5692
▁ट्रक	-10.5695
ಕ್ಕಿ	-10.5696
▁നില്ക്ക	-10.5696
▁രാമ	-10.5697
स्टर	-10.5698
▁ವಲಯ	-10.57
▁डाल	-10.57
तु	-10.57
▁ഭീകര	-10.57
▁मोठे	-10.57
▁ചോദ്യ	-10.5701
ंडा	-10.5705
▁ചൂണ്ടിക്കാട്ടി	-10.5707
ുന്നതില്	-10.5707
▁പരിസ്ഥിതി	-10.5707
ുന്നതിൽ	-10.571
▁मूळ	-10.5711
▁മുമ്പ	-10.5712
▁निकल	-10.5713
▁निर्मिती	-10.5714
▁ಸಂಪುಟ	-10.5714
▁રહ્યાં	-10.5715
▁നിലയിൽ	-10.5717
▁रुग्णालयात	-10.5717
):	-10.5719
▁ಮಾಡುತ್ತಾರೆ	-10.572
▁भर्ती	-10.572
ತ್ಯ	-10.5721
▁યાદ	-10.5721
▁मुद्दे	-10.5722
െത്തി	-10.5723
▁अभिनेत्री	-10.5723
▁अथवा	-10.5724
ത്തിയ	-10.5729
▁ಮ್ಯಾ	-10.5733
▁നില്ക്കുന്ന	-10.5733
▁वेळा	-10.5737
▁ಯ	-10.5742
हार	-10.5743
▁अजित	-10.5744
▁മറ്റും	-10.5745
▁ನ್ಯಾಯ	-10.5746
▁പന്ത	-10.5747
സില്	-10.575
▁ദേവ	-10.5751
ിയും	-10.5753
▁रस	-10.5757
ಗಳನ್ನೂ	-10.576
ेंद्र	-10.576
▁ಶಾಲೆಯ	-10.576
ನ್ನೇ	-10.5763
▁ಕೆಟ್ಟ	-10.5764
▁सफल	-10.5766
ಗೊಳಿಸಲು	-10.5766
ಿಗಳು	-10.5769
ଟ	-10.5772
▁ನಡೆಯಿತು	-10.5772
▁ಅಂತ್ಯ	-10.5779
▁पु	-10.5779
▁રો	-10.5779
▁होत्या	-10.5783
▁ಬೀಳ	-10.5784
et	-10.5784
▁പ്രകടന	-10.5784
ാട	-10.5784
▁विधान	-10.5786
▁तयारी	-10.5786
▁करणारे	-10.5786
▁വീട്ടില്	-10.5788
▁ಕ್ರಿಕೆಟ್	-10.579
▁നേരിടുന്ന	-10.5792
▁ഞങ്ങള്	-10.5795
▁બનાવવામાં	-10.5798
▁ಏನ	-10.5799
ുകളിലും	-10.58
ച്ഛ	-10.58
മന്ത്രി	-10.5801
▁हालांकि	-10.5801
▁શો	-10.5804
ವಾದಿ	-10.5807
ിക്കുകയും	-10.5807
▁નોંધ	-10.5807
ಯಲ್ಲ	-10.5809
▁ಸಿಂಗ್	-10.5809
▁ವಿವಾದ	-10.5809
▁પાર	-10.5811
▁असणे	-10.5812
▁ಸಂಚಾರ	-10.5812
▁स्पर्धा	-10.5814
മെന്റ്	-10.5814
▁मुस्लिम	-10.5814
▁ലക്ഷ	-10.5815
▁ಮಾರುಕಟ್ಟೆ	-10.5818
ઢ	-10.5821
િવ	-10.5821
▁ಶಾಲೆ	-10.5822
▁रहेगा	-10.5822
േയും	-10.5823
▁ચાલી	-10.5825
▁ಘೋಷಿಸ	-10.5825
▁കുട്ടികളെ	-10.5825
▁કાયદા	-10.5832
▁गयी	-10.5835
ol	-10.5836
▁સિંહ	-10.5838
▁करायला	-10.5839
वले	-10.5839
▁ಕೆರೆ	-10.5839
▁കുറച്ച്	-10.5842
▁ಬದುಕ	-10.5846
▁परिवर्तन	-10.5846
▁ಪುಟ್ಟ	-10.5849
▁ദൃശ്യ	-10.5849
िता	-10.5851
കളായ	-10.5853
▁കൂ	-10.5853
▁हिमाचल	-10.5855
▁पोहोच	-10.5855
▁അൽ	-10.5855
▁ധാരണ	-10.5857
▁કુદરતી	-10.5858
▁ನೀ	-10.5858
▁നിങ്ങളെ	-10.586
▁ನಂಬ	-10.5861
▁बु	-10.5861
ष्ट	-10.5862
▁പത്തു	-10.5865
નગર	-10.5865
പ്പോഴാണ്	-10.5865
▁कुल	-10.5868
▁મહિલાઓ	-10.587
▁ವರ್ಗ	-10.587
▁ಅಡಿ	-10.5871
th	-10.5875
▁എങ്കിലും	-10.5879
▁പ്രാഥമിക	-10.5879
el	-10.5882
മേഖല	-10.5882
▁ಸಂಶೋಧನೆ	-10.5883
▁अंग	-10.5883
▁જગ્યા	-10.5884
▁ટકા	-10.5887
▁हाथ	-10.5889
▁ಅಕ್ರಮ	-10.5893
▁ഒന്നു	-10.5894
▁എത്തിയത്	-10.5895
ാതിരുന്ന	-10.5904
ಲಾಗಿದ್ದು	-10.5904
▁આપણા	-10.5904
▁ಆಧಾರದ	-10.5905
▁ಫಲಿತಾಂಶ	-10.5907
▁અસરકારક	-10.5907
▁તેલ	-10.5909
ಎಫ್	-10.591
▁ಕೊಡುಗೆ	-10.5911
▁ಕ್ಷಣ	-10.5911
സ്വ	-10.5914
▁એડ	-10.5915
ટો	-10.5919
നിന്നു	-10.5921
▁ಪಂ	-10.5922
ीक	-10.5923
▁स्क	-10.5924
▁ജസ്റ്റിസ്	-10.5928
▁सदर	-10.593
▁ढ	-10.593
हून	-10.593
▁સક્ષમ	-10.5932
▁परिवहन	-10.5933
▁ಅನುಮತಿ	-10.5935
ಾಗಿದೆ	-10.5938
▁പരിധി	-10.5941
▁ಬೈ	-10.5942
ദ്ര	-10.5943
▁സൂര്യ	-10.5944
▁സുഖ	-10.595
▁r	-10.595
▁ನೀಡಲಾಗಿದೆ	-10.5953
▁वर्तमान	-10.5953
▁पाड	-10.5955
▁मानसिक	-10.5955
▁રસપ્રદ	-10.5956
▁ग्राम	-10.5958
▁x	-10.5961
▁ಕೈಗೊಂಡ	-10.5961
▁നടക്കുന്നത്	-10.5962
ેક	-10.5963
▁ದು	-10.5964
▁ಭಾವ	-10.5967
▁ನವ	-10.5972
▁ബാധിച്ച	-10.5975
▁ಒಳಗೊಂಡಿದೆ	-10.5977
▁റോഡ	-10.5985
▁മൂന്നാം	-10.599
▁ഇല്ലാതെ	-10.5991
▁तळ	-10.5992
▁ठीक	-10.5992
▁അവസര	-10.5992
▁મારી	-10.5993
▁निदेशक	-10.5993
ಕುಮಾರ್	-10.5993
li	-10.5994
▁કદ	-10.5996
▁देशातील	-10.5996
▁ಭಾವಿಸ	-10.5997
▁मंच	-10.6001
▁शेअर	-10.6003
▁ധാരാളം	-10.6006
▁मंडळ	-10.6007
▁છોડ	-10.6014
्व	-10.6014
▁કોલ	-10.6015
स्क	-10.6017
▁ଏହି	-10.6022
▁ಭಾಷಣ	-10.6022
▁ദു	-10.6023
െയും	-10.6026
्म	-10.6027
▁വീ	-10.6028
▁ಮುಕ್ತ	-10.6028
▁महिलाओं	-10.603
▁गाडी	-10.6031
▁ભલામણ	-10.6036
ಂಟು	-10.6038
▁സ്റ്റ	-10.6041
▁वेतन	-10.6043
തിര	-10.6045
▁പാത	-10.6049
▁ಒಂದ	-10.6049
▁सुन	-10.6049
▁कर्मचारियों	-10.605
▁निधी	-10.6052
▁ಪ್ರತಿಯೊಂದು	-10.6052
ിനുള്ള	-10.6054
▁સંસ્થા	-10.6054
▁मंडल	-10.6056
▁गये	-10.6057
ar	-10.6057
▁ನಡೆಸಲು	-10.6057
▁പ്രിയ	-10.6058
▁ठाकुर	-10.6058
ർച്ച	-10.6058
▁ഉത്തര	-10.6058
▁ಮಟ್ಟದಲ್ಲಿ	-10.606
▁മദ്യ	-10.6062
▁ಅಭ್ಯಾಸ	-10.6065
▁ವಸ್ತುಗಳನ್ನು	-10.6065
ബന്ധ	-10.6066
▁വന്നത്	-10.6067
▁ദി	-10.6069
▁ಶಾಸಕರು	-10.6071
▁હું	-10.6072
▁लगी	-10.6073
▁ಹತ್ತು	-10.6075
▁લીધો	-10.6077
▁થ	-10.6077
▁പെൺകുട്ടി	-10.6079
ത്തെയും	-10.6082
ುವುದ	-10.6088
▁अति	-10.6089
લ્સ	-10.6089
▁झाल्याने	-10.6089
▁रो	-10.609
▁ബാങ്ക	-10.6091
പ്പെടുത്തിയ	-10.6093
▁न्यायालयात	-10.6094
▁अंतर	-10.6095
▁എന്തെങ്കിലും	-10.6095
ભર	-10.6095
▁અધિકારી	-10.6095
▁तेथे	-10.6095
ವನ್ನೇ	-10.6099
▁ಮಧ್ಯ	-10.6099
▁ಒಳಗಾಗ	-10.61
ಯರ್	-10.6102
▁ಬೆಂಕಿ	-10.6102
▁ಶಬ್ದ	-10.6102
▁ठेवले	-10.6104
▁ନ	-10.6104
▁अभिनेता	-10.6105
▁നേട	-10.6106
▁लवकर	-10.6107
▁ഇര	-10.6108
▁ಹಳ್ಳಿ	-10.611
വിരുദ്ധ	-10.6112
▁पालक	-10.6112
▁തീർച്ചയായും	-10.6117
ാണി	-10.6117
▁ഫോ	-10.6118
▁ബല	-10.6118
▁പ്രതികരണം	-10.6121
ಫ	-10.6123
ിയെ	-10.6123
▁વિકલ્પ	-10.6124
▁પૂરી	-10.6124
शास्त्र	-10.6124
▁നിയമസഭാ	-10.6124
▁വിഷയം	-10.6126
ाप	-10.6127
▁ഇല്ലാത്ത	-10.6128
ുകൾക്ക്	-10.613
▁ಘೋಷಣೆ	-10.613
▁હર	-10.613
▁എത്തിക്ക	-10.613
्ज	-10.6132
▁ശ്രദ്ധിക്ക	-10.6134
ಸೇ	-10.6134
ാകും	-10.6137
▁ವೀರ	-10.6137
യാണു	-10.614
▁ಜನರನ್ನು	-10.6141
▁ಲೋಕಸಭಾ	-10.6142
ാണോ	-10.6142
ക്ര	-10.6145
▁લઇને	-10.6146
▁വൻ	-10.6148
▁તરત	-10.615
ിനായി	-10.6151
▁ರಸ	-10.6152
▁മനസ്സിലാക്ക	-10.6156
ाया	-10.6158
▁ഹര്ജി	-10.616
▁जिल्ह्यात	-10.6163
▁દબાણ	-10.6165
▁રાજકીય	-10.6165
▁પ્રવાસ	-10.6165
▁ಪ್ರಯೋಗ	-10.6167
▁ലഭിക്കും	-10.6167
പരി	-10.6168
▁किसान	-10.6169
ಬು	-10.617
ಹ್	-10.6171
▁बर	-10.6171
यों	-10.6172
▁तापमान	-10.6172
▁रुपए	-10.6173
▁दिशा	-10.6173
▁થવા	-10.6175
▁ಇದ್ದರೆ	-10.6176
ौर	-10.6177
ીત	-10.6177
ർക്ക	-10.6178
▁മരുന്ന്	-10.6179
നിന്ന്	-10.6181
▁સહિતના	-10.6182
▁ഞാന	-10.6183
ೊಳಗೆ	-10.6184
▁स्मार्टफोन	-10.6186
▁मिली	-10.6187
बू	-10.6188
▁ഉടന്	-10.6189
▁സ്കൂൾ	-10.6189
▁ಕಾರ್ಡ್	-10.619
▁വാദ	-10.6192
▁ಅನುಸರಿಸ	-10.6194
▁आदमी	-10.6195
യുമാണ്	-10.6195
▁પત્ની	-10.62
മീ	-10.62
▁പ്രവര്ത്തനങ്ങള്	-10.6204
▁ವ್ಯಾಯಾಮ	-10.6207
▁ಡ	-10.621
धि	-10.6211
विरुद्ध	-10.6212
▁मार्च	-10.6214
▁ಪ್ರಗತಿ	-10.6214
ುತ್ತಿರುವುದು	-10.6216
▁തീരുമാനിച്ച	-10.6217
▁જય	-10.6218
▁અમારા	-10.6219
▁ನಡೆಯಲಿದೆ	-10.622
मि	-10.6222
▁ಪ್ರೊ	-10.6224
▁सुमारे	-10.6226
▁હજાર	-10.6226
ശാ	-10.6227
▁शांत	-10.6227
▁વિદ્યાર્થીઓ	-10.6229
ിപ്പിച്ച	-10.6234
ಲೈ	-10.6236
▁ಗೊಂದಲ	-10.6238
▁હત્યા	-10.624
▁തോന്ന	-10.624
▁દવાઓ	-10.6241
▁धरण	-10.6244
▁बिजली	-10.6245
▁പരസ്പരം	-10.6246
▁വൈദ്യുതി	-10.6247
▁सिद्ध	-10.6247
ಗಳಿಗೂ	-10.6251
▁ಇತ್ತೀಚಿನ	-10.6251
▁ગામ	-10.6252
▁തേ	-10.6253
▁ഊ	-10.6253
ജ്ഞ	-10.6254
സീ	-10.6255
▁વિના	-10.6255
▁ಅಷ್ಟೇ	-10.6256
▁अवलंबून	-10.6258
ಿರಬಹುದು	-10.6258
ाळ	-10.6261
▁ഉണ്ടാവ	-10.6263
▁दूध	-10.6263
▁പറ	-10.6263
▁लांब	-10.6263
ുമ്പോഴും	-10.6264
▁बीजेपी	-10.6265
▁ಮುಖ್ಯಸ್ಥ	-10.6266
▁ഒരുക്കിയ	-10.6266
▁ആഴ്ച	-10.6267
▁लगता	-10.6273
▁ಹಸಿರು	-10.6274
जर	-10.6275
▁बाग	-10.6275
ുമായുള്ള	-10.6275
▁काळजी	-10.6277
▁બાબત	-10.6282
▁बावजूद	-10.6282
▁ಲೋಕ	-10.6283
ेंगे	-10.6287
▁ತಾಣ	-10.6289
ದ್ಧ	-10.629
ିତ	-10.6291
▁മനസ്സ	-10.6292
ीम	-10.6292
▁സ്വഭാവ	-10.6292
▁ब्र	-10.6293
▁भाषण	-10.6293
സ്ക	-10.6294
▁विज्ञान	-10.6296
▁പ്രശ്നങ്ങള്	-10.6296
▁ऑस्ट्रेलिया	-10.6296
▁સાધનો	-10.6297
ಗ್ಗ	-10.6299
वीर	-10.63
▁नेटवर्क	-10.6301
▁લાલ	-10.6302
समोर	-10.6303
▁बल्कि	-10.6306
▁പ്രത്യേകിച്ച്	-10.6306
▁अर्थव्यवस्था	-10.6306
▁ಜಾಗ	-10.6307
ગી	-10.6308
▁इथे	-10.631
▁ಹರಡ	-10.6311
▁स्त्री	-10.6311
▁ઉકેલ	-10.6311
ವಾಗಿವೆ	-10.6312
▁બાર	-10.6313
▁પહોંચી	-10.6314
▁ശരീരം	-10.6316
▁मनात	-10.6318
▁इंडियन	-10.6321
▁ವೇದಿಕೆ	-10.6323
സിന്	-10.6324
चर	-10.6325
▁વાહન	-10.6327
▁ചിത്രത്തില്	-10.6329
▁स्ट	-10.6329
▁ઉજવણી	-10.6331
▁ಚಿಂತನೆ	-10.6341
▁ಕಾರ್ಯಾಚರಣೆ	-10.6344
▁എനിക്ക	-10.6345
▁പണ	-10.6345
▁വകുപ്പ	-10.6347
ര്ക്ക	-10.6348
▁ଜ	-10.6349
▁ಪ್ರಯೋಜನ	-10.6351
▁പരിഹരിക്ക	-10.6351
പോ	-10.6352
▁असल्याचं	-10.6353
ઓના	-10.6353
▁വേദി	-10.6354
▁दिलेल्या	-10.6355
▁અકસ્માત	-10.6356
▁ജാതി	-10.6357
▁ಪಾಕಿಸ್ತಾನ	-10.6359
▁സംസ്ഥാനത്തെ	-10.6362
▁മൊ	-10.6362
▁मिळाले	-10.6362
j	-10.6363
▁വാഗ്ദാനം	-10.6364
▁നഷ്ടപ്പെട്ട	-10.6366
ાયેલા	-10.6367
▁സംഘടിപ്പിച്ച	-10.6367
ನಾಥ	-10.6368
▁കഴിക്ക	-10.6374
രീ	-10.6378
▁വ്യ	-10.6378
▁झाड	-10.6379
▁देर	-10.6379
▁"""	-10.638
▁ಕೋರ್ಟ್	-10.6384
▁ಆಂತರಿಕ	-10.6386
▁ചെന്നൈ	-10.6386
▁પક્ષ	-10.6388
રસ	-10.6389
▁કપ	-10.639
▁ವಿವಾಹ	-10.6391
▁આવતી	-10.6394
കൊ	-10.6394
യായിരുന്ന	-10.6396
ഹ്	-10.6396
▁ಮುಂತಾದ	-10.6397
▁स्थानीय	-10.6398
▁നടത്തുന്നത്	-10.6398
▁ಒಪ್ಪ	-10.6398
▁विद्यापीठ	-10.6399
▁ಮಾಡಿರುವ	-10.64
▁മമ്മൂട്ടി	-10.6401
ಿನಿಂದ	-10.6401
▁പ്രവൃത്തി	-10.6402
▁ಅಡ್ಡ	-10.6404
പുര	-10.6404
धर	-10.6405
ദിന	-10.6405
▁ಸಂಪ್ರದಾಯ	-10.6405
രം	-10.6407
▁തന്ന	-10.6411
▁सोच	-10.6411
▁അലി	-10.6412
▁બિન	-10.6413
▁ಕಟ್ಟಿ	-10.6413
▁चौ	-10.6413
▁ഉടൻ	-10.6414
▁ಕಳುಹಿಸ	-10.6414
▁ಕರ್ತವ್ಯ	-10.6417
▁അന്വേഷിക്ക	-10.6418
▁નો	-10.6424
ടക്കം	-10.6424
▁ಕೂದಲು	-10.6425
▁बजट	-10.6427
हो	-10.6429
क्त	-10.6431
▁വായ്പ	-10.6435
ಎಲ್	-10.6436
▁ઓછા	-10.6438
▁നൽകുന്നു	-10.6439
▁कामगिरी	-10.6439
മ്	-10.644
घर	-10.644
▁അവര	-10.6441
ർട്ട	-10.6442
▁ಕಾಣಬಹುದು	-10.6442
▁જતા	-10.6443
▁માલ	-10.6444
ನೀ	-10.6445
▁स्थापित	-10.6447
▁मोर्चा	-10.6449
▁എഴുത	-10.645
▁भु	-10.6452
▁येऊ	-10.6452
▁डाउनलोड	-10.6453
▁ಸೇರಿಸ	-10.6454
▁ആദ്യത്തെ	-10.6454
ರೂಪ	-10.6455
▁ಯಾರೂ	-10.6455
▁ಆರಂಭದಲ್ಲಿ	-10.646
ಹಳ್ಳಿ	-10.646
▁સ્થિત	-10.6461
▁विक्री	-10.6461
▁വരുന്നത്	-10.6462
▁ನೃತ್ಯ	-10.6464
▁തിരികെ	-10.6465
▁ಮೌಲ್ಯ	-10.6466
▁ಯೋಜನೆಯ	-10.6466
▁ಸೇವಾ	-10.6469
▁निवडणुकी	-10.6471
▁ഓസ്ട്രേലിയ	-10.6472
પો	-10.6477
▁बच्चों	-10.6478
▁धु	-10.6481
▁ऑ	-10.6482
▁ಮೂರನೇ	-10.6483
▁રાષ્ટ્રીય	-10.6483
▁ഇതിനകം	-10.6484
▁હોસ્પિટલ	-10.6485
▁പരിക്കേറ്റ	-10.6486
▁ಬದಲಿಗೆ	-10.6487
▁ಸರಣಿ	-10.6488
▁शेती	-10.6489
ವಾಗುವ	-10.6489
▁സാംസ്കാരിക	-10.6493
ତା	-10.6493
▁ಕಣ	-10.6493
ಾಳ	-10.6494
▁മലപ്പുറം	-10.6495
ರಷ್ಟು	-10.6497
ತ್ತಿ	-10.6497
▁ಕರೆಯಲಾಗುತ್ತದೆ	-10.6497
▁ಅಳವಡಿಸ	-10.6499
▁ക്ല	-10.6499
ಮನೆ	-10.65
▁પ્રકાર	-10.6501
▁ആവശ്യപ്പെട്ട്	-10.6505
മായും	-10.6505
▁ആയുധ	-10.6506
▁क्ल	-10.6507
രോഗ	-10.6511
▁ಇತ್ಯಾದಿ	-10.6512
▁ವಿದ್ಯಾರ್ಥಿಗಳಿಗೆ	-10.6514
▁आव्हान	-10.6516
ക്കൂട്ട	-10.6516
▁ಸಂಯೋಜನೆ	-10.6519
बार	-10.6519
ാനാവില്ല	-10.6522
▁വെട്ടി	-10.6523
്സ്	-10.6524
▁മേധാവി	-10.6524
▁ಸ್ಪ	-10.6525
വെച്ച	-10.6528
▁सेक्स	-10.653
▁പിഴ	-10.6531
▁ಹಕ್ಕು	-10.6531
▁നഷ്ട	-10.6531
▁തീരുമാനിക്ക	-10.6532
കൊണ്ട	-10.6532
▁पसंद	-10.6534
▁संस्थान	-10.6535
ावरून	-10.6536
▁കമ്മീഷന്	-10.6537
टक	-10.6538
▁प्रकारे	-10.654
ાત	-10.6541
▁निवासी	-10.6544
▁സാഹിത്യ	-10.6545
નર	-10.6545
▁ತೆಗೆದುಕೊಂಡ	-10.6546
▁જીવ	-10.6547
▁ಅದ	-10.6547
▁വെച്ച്	-10.6548
▁देकर	-10.6548
പൊ	-10.6551
▁ವರ್	-10.6552
വയ്ക്ക	-10.6552
ઝર	-10.6553
▁ಕಾರ್ಯಕರ್ತರು	-10.6559
ക്കാരുടെ	-10.6559
▁എന്ത്	-10.656
▁કુલ	-10.6561
▁ಪ್ರಬಲ	-10.6562
ിപ്പിക്കുന്ന	-10.6562
▁പങ്കെടുക്ക	-10.6563
യെന്നും	-10.6568
હિ	-10.657
ૌ	-10.6572
▁പ്രതീക്ഷിക്ക	-10.6574
▁ഏതു	-10.6578
▁વી	-10.6578
▁ಪೋ	-10.658
▁ದಾಖಲಿಸ	-10.658
താര	-10.6581
▁रहते	-10.6581
ಂದಿ	-10.6582
▁ನೆಲೆ	-10.6585
▁वित्त	-10.6585
▁ವಯಸ್ಸಿನ	-10.6586
▁രീതിയിൽ	-10.6586
▁जोर	-10.6587
ക്കാൻ	-10.6587
▁अली	-10.6589
▁પ્રતિ	-10.6589
▁ಧರಿಸ	-10.659
लिंग	-10.659
ಬರ	-10.659
▁अपेक्षा	-10.6591
▁શકતા	-10.6592
▁क्र	-10.6592
ങ്ങളുടെയും	-10.6592
▁മഞ്ഞ	-10.6593
ಹೋಗ	-10.6594
ામાં	-10.6596
▁आण	-10.6597
▁कायदा	-10.6597
▁ನಿರೀಕ್ಷೆ	-10.6598
▁बातचीत	-10.6598
▁ಅವಳು	-10.6598
ിലേക്കു	-10.66
▁થયેલ	-10.6601
▁ಮಾನಸಿಕ	-10.6602
▁നേടി	-10.6603
▁മാണി	-10.6605
▁ഉപയോഗിക്കാൻ	-10.6606
▁ഗാന	-10.6607
▁वार	-10.6609
▁ಕೆಲಸದ	-10.6616
▁ഗുണ	-10.6618
▁ചലച്ചിത്ര	-10.662
പ്പിക്ക	-10.662
રામ	-10.6622
ಿದ್ದರಿಂದ	-10.6622
▁સંપર્ક	-10.6623
▁महाविद्यालय	-10.6624
▁ಸ್ಥಳಕ್ಕೆ	-10.6625
▁ભા	-10.6625
▁സാഹചര്യ	-10.6628
▁തേടി	-10.6628
▁य	-10.663
▁દક્ષિણ	-10.663
▁स्टार	-10.6631
▁ಹೋ	-10.6634
നട	-10.6634
▁भाजपचे	-10.6634
▁ഉണ്ടാക്ക	-10.6637
▁വിനോദ	-10.6637
▁നിലവില്	-10.6639
ाह	-10.664
र्म	-10.6641
▁વારંવાર	-10.6642
▁उपयुक्त	-10.6643
▁आहार	-10.6643
▁ഘട്ട	-10.6646
▁खत्म	-10.6646
ക്കാന്	-10.6648
▁പീഡന	-10.6649
ेकर	-10.6651
ുമൊക്കെ	-10.6651
▁ಗಾಯ	-10.6653
▁देणे	-10.6655
▁ಉಪಯುಕ್ತ	-10.6656
▁പഠനം	-10.6656
▁સહાય	-10.6656
▁हल	-10.6657
▁हॉटेल	-10.6658
▁दुकान	-10.6658
▁सांग	-10.6658
▁वर्षी	-10.6659
▁പിടിച്ചു	-10.666
स्व	-10.6661
▁ജനങ്ങളുടെ	-10.6662
ാതിരിക്ക	-10.6663
▁ಅಂಶಗಳನ್ನು	-10.6663
▁ಇರಬಹುದು	-10.6664
टो	-10.6665
▁बंगाल	-10.6666
▁പിടിക്ക	-10.6666
▁हमले	-10.6668
▁निरीक्षक	-10.6668
▁സഹകരണ	-10.6671
ಂಕ	-10.6673
▁ശാസ്ത്ര	-10.6676
▁जमकर	-10.6677
▁हमारी	-10.6678
▁സ്ഥാപിച്ച	-10.668
ीज	-10.6681
▁विरोधात	-10.6681
ിപ്പ	-10.6681
▁कॅ	-10.6683
ಖಾ	-10.6683
▁घाट	-10.6684
ൻസ	-10.6685
▁अगले	-10.6685
▁അവതരിപ്പിച്ച	-10.6686
▁જગ્યાએ	-10.6686
▁येतो	-10.6687
▁भू	-10.6688
▁വാദം	-10.6688
▁ಭಾನುವಾರ	-10.6688
▁തികച്ചും	-10.6688
▁असणार	-10.6689
തുമായ	-10.6689
▁സ്വപ്ന	-10.669
▁આસપાસ	-10.6693
▁ಆವೃತ್ತಿ	-10.6694
▁तंत्रज्ञान	-10.6695
▁હંમેશા	-10.6696
▁अध्यक्षता	-10.6697
▁पंच	-10.6699
િયન	-10.6699
▁ತೈಲ	-10.6699
▁संदेश	-10.6699
▁ಬಳಸುವ	-10.67
മുണ്ടായ	-10.67
▁आदर्श	-10.6701
ാവസ്ഥ	-10.6701
शील	-10.6703
▁सरकारच्या	-10.6703
▁क्लिक	-10.6705
▁राजधानी	-10.6707
▁റഷ്യൻ	-10.6708
▁ದೀಪ	-10.6708
▁ಸ್ವಾಮೀಜಿ	-10.6709
▁വിഷയത്തില്	-10.671
▁ഇടപെട	-10.671
▁ಸಂಘಟನೆ	-10.6711
ानी	-10.6711
આઇ	-10.6716
रु	-10.6716
ഹാര	-10.6718
▁സിനിമയുടെ	-10.6719
നേ	-10.6721
▁નિવેદન	-10.6721
▁कसा	-10.6722
▁ચો	-10.6724
▁ಬದಲಾಗ	-10.6725
▁नही	-10.6727
▁ತಾಲೂಕು	-10.6729
os	-10.673
▁लोकांना	-10.6731
▁सम्मान	-10.6732
जित	-10.6733
▁छह	-10.6734
▁शपथ	-10.6735
રણ	-10.6738
",	-10.6738
▁ಹೇಳುತ್ತಾರೆ	-10.6739
▁ಪರಿಚಯ	-10.674
▁पडले	-10.6741
▁થી	-10.6743
കൃഷ്ണ	-10.6746
ાવવા	-10.6747
▁വെച്ച	-10.6748
▁इमारती	-10.6751
▁ಬಯಸುವ	-10.6753
▁सिस्टम	-10.6753
ോട	-10.6756
▁પ્રોજેક્ટ	-10.6757
▁નેટવર્ક	-10.6759
ോള	-10.6761
▁ರವಿ	-10.6764
▁ആള	-10.6765
▁सोमवारी	-10.6769
ಿಗಾಗಿ	-10.6769
ഘ	-10.6772
▁സജീവ	-10.678
▁असलेली	-10.6781
ಕಾಲ	-10.6783
▁सप्ताह	-10.6784
▁महान	-10.6785
▁શહેરના	-10.6785
▁येतात	-10.6785
▁രാജ്യം	-10.6787
▁मैदान	-10.6787
ിക്കുക	-10.6789
▁ಸಾಂಸ್ಕೃತಿಕ	-10.6797
पण	-10.6797
▁ലഭ്യമാക്ക	-10.6799
▁ധന	-10.6803
മാകും	-10.6806
ly	-10.6806
▁ಅಸಮಾಧಾನ	-10.6806
നീ	-10.6806
▁കേരളത്തിൽ	-10.6809
▁एंड	-10.681
▁ರುಚಿ	-10.6811
▁फॉर्म	-10.6811
▁ત્વચા	-10.6813
ೆಲ್ಲಾ	-10.6814
▁ऐतिहासिक	-10.6815
ുവെന്ന്	-10.6818
▁હાજરી	-10.682
▁મુંબઈ	-10.6823
▁ಸ್ವಯಂ	-10.6823
▁निर्	-10.6826
▁ସେ	-10.683
ത്തര	-10.6833
ावी	-10.6833
▁ടാ	-10.6833
ാലി	-10.6833
▁രാജ്യത്തിന്റെ	-10.6833
ಮುಖ	-10.6835
▁ಒದಗಿಸುತ್ತದೆ	-10.6836
▁ma	-10.6836
▁ഏറ്റെടുക്ക	-10.6836
ಜು	-10.6837
ગે	-10.6838
▁સામનો	-10.6841
▁एकाच	-10.6842
▁തിരിച്ച	-10.6844
▁ಬೆಳೆಯ	-10.6846
▁വിധേയ	-10.6848
▁વ્યક્ત	-10.6852
▁ಕಾಣಿಸಿಕೊಂಡ	-10.6855
▁പഠിക്ക	-10.6856
ಶಾಸ್ತ್ರ	-10.6856
▁એકાઉન્ટ	-10.6858
▁अद्याप	-10.6858
ಬಂಧ	-10.6858
▁പകുതി	-10.686
▁गरीब	-10.686
▁झोप	-10.6864
▁ತೂಕ	-10.6866
▁ര	-10.6867
ದಾಗ	-10.6868
▁ಕಣ್ಣು	-10.6868
ವೋ	-10.6868
▁ಸಮುದ್ರ	-10.6869
ಸರ	-10.6871
▁જોખમ	-10.6871
▁ആത്മ	-10.6874
ाम	-10.6875
രിയ	-10.6877
▁उमेदवारी	-10.6878
▁મંજૂરી	-10.688
▁સવારે	-10.6881
ಯಾಗಿದ್ದು	-10.6882
▁હુમલા	-10.6882
▁માર	-10.6882
ંત	-10.6884
▁ಉದ್ದ	-10.6885
▁ಗಾ	-10.6886
▁बनने	-10.6887
▁हल्ला	-10.689
▁आउट	-10.6891
ുന്നതിന്റെ	-10.6896
▁സർക്കാര	-10.6896
ಾಪ	-10.6896
▁കേസ	-10.6897
▁सफलता	-10.6897
▁ലോകത്തെ	-10.6898
▁അയാൾ	-10.6902
ുണ്ടെന്ന്	-10.6903
▁સેટ	-10.6903
▁कोल्हापूर	-10.6905
കൂടി	-10.6907
▁हवाई	-10.6907
▁नारायण	-10.6909
▁ನಿಲ್ದಾಣ	-10.6909
▁ರಾಹುಲ್	-10.6909
▁സ്കൂള്	-10.6911
▁पार्श्वभूमीवर	-10.6914
▁ವೃತ್ತಿಪರ	-10.6914
കളെയും	-10.6914
▁ಜಾರಿ	-10.6916
▁ವಿದ್ಯಾರ್ಥಿಗಳ	-10.6917
दे	-10.6918
सू	-10.6918
ेंट	-10.6922
ानुसार	-10.6924
▁मंगळवारी	-10.6927
ುವುದೇ	-10.6928
▁સભ્યો	-10.6931
ಳ್ಳಿ	-10.6931
▁പാട്ട	-10.6931
डि	-10.6932
▁રાખે	-10.6933
બે	-10.6934
▁યુવાન	-10.6934
ಗಿಂತ	-10.6935
▁കേന്ദ്രം	-10.6938
▁പ്രധാനപ്പെട്ട	-10.694
▁अधीक्षक	-10.694
▁एकूण	-10.6941
▁एड	-10.6942
▁ಹಾಗೆಯೇ	-10.6942
ानं	-10.6943
▁ગરમી	-10.6943
മാരെ	-10.6944
▁ಪುಟ	-10.6944
ાસ	-10.6945
▁ಹೊಂದಿವೆ	-10.6946
▁മഹ	-10.6947
▁ಯಶಸ್ವಿ	-10.6948
▁ಕೇ	-10.6948
आई	-10.6948
▁ट्विटर	-10.6948
ಲ್ಲಿರುವ	-10.6951
▁પોસ્ટ	-10.6951
▁ಕಾಣಿಸಿಕೊಳ್ಳ	-10.6951
ંચ	-10.6952
बाजी	-10.6955
▁पालन	-10.696
▁സമര്പ്പിച്ച	-10.6961
▁ബോധ	-10.6962
▁મી	-10.6962
▁ಮಾಡಿದ್ದ	-10.6965
▁रु	-10.6965
ാദ	-10.6966
ಲ್ಸ್	-10.6967
▁ബോ	-10.6971
▁ಘಟಕದ	-10.6972
करण	-10.6974
▁നഗരസഭ	-10.6975
▁सुनील	-10.6975
▁മൂല്യ	-10.6975
▁दीपक	-10.6975
इन	-10.6977
ग्र	-10.6977
▁നിൽക്കുന്ന	-10.698
▁ಮಠ	-10.6982
▁ಆಕೆಯ	-10.6982
▁मूल	-10.6982
ti	-10.6983
▁સંબંધિત	-10.6983
▁बांध	-10.6984
ch	-10.6984
▁શિ	-10.6987
▁ಜಿಲ್ಲೆ	-10.699
▁ജനുവരി	-10.699
▁ऑफिस	-10.6991
▁मनसे	-10.6993
ಲರ್	-10.6994
▁ನೀರನ್ನು	-10.6994
▁ನಿರಂತರ	-10.6996
▁ചന്ദ്ര	-10.6996
▁മുന്നറിയിപ്പ്	-10.6996
വാസ	-10.6997
ര്ച്ച	-10.6997
▁સોશિયલ	-10.7001
▁ಬಂಧನ	-10.7002
ങ്ങളിലൂടെ	-10.7005
ചി	-10.7006
▁ಕ್ಲ	-10.7008
▁ಬೆಳಕಿನ	-10.701
▁જુઓ	-10.701
▁ಉದಾಹರಣೆ	-10.7011
പുറ	-10.7011
▁ಇದ್ದರು	-10.7013
▁കുട്ടികൾ	-10.7013
▁द्या	-10.7016
▁ടീം	-10.7017
▁വോട്ട	-10.7019
▁ಮಂಡ್ಯ	-10.7019
▁അപകടം	-10.702
▁पुल	-10.7022
ುಗಳು	-10.7024
▁असल्यामुळे	-10.7024
ക്കുന്നത്	-10.7025
ാക്കിയ	-10.7025
▁എത്തുന്ന	-10.7025
▁പെട്ട	-10.7025
▁അദ്ദേഹത്തെ	-10.7026
कट	-10.7026
▁ರಷ್ಯಾದ	-10.7027
▁ಪೊಲೀಸರ	-10.7027
▁ಕೆಲಸವನ್ನು	-10.7028
▁നാട	-10.7031
▁കണ്ണൂര്	-10.7034
fi	-10.7036
▁चुके	-10.7037
▁प्रतिशत	-10.704
▁പ്രായ	-10.7041
ವನು	-10.7046
▁કરવાના	-10.7046
ya	-10.7047
▁ഏകദേശം	-10.7049
બુ	-10.7049
▁होण्याची	-10.705
▁ಪತಿ	-10.705
▁വീട്	-10.705
▁उठा	-10.705
▁जरिए	-10.7051
▁കണ്ടെത്തിയത്	-10.7052
ിൻറെ	-10.7055
▁ಅಂತರ	-10.7056
▁સૌ	-10.7056
▁तरीके	-10.7056
▁ಪ್ರಾರಂಭಿಸ	-10.7057
▁कठीण	-10.7057
▁ಕಾರ್ಯಕ್ರಮದ	-10.706
▁ജോസഫ്	-10.706
▁വിളിച്ച	-10.7061
▁ಪರಿಶೀಲನೆ	-10.7061
▁നല്കാന്	-10.7062
േഴ്സ	-10.7063
▁ಪಶ್ಚಿಮ	-10.7065
▁देऊ	-10.7069
▁नव्हे	-10.707
सारखे	-10.707
▁जाना	-10.707
▁स्वरूप	-10.707
കളിലെ	-10.7071
▁तथापि	-10.7073
▁रुग्ण	-10.7074
മാണിത്	-10.7074
▁एच	-10.7075
ಷಿ	-10.7076
▁ಗಳಿಸ	-10.7076
▁ಪಡೆಯುವ	-10.7077
▁മന	-10.7078
▁जागतिक	-10.7078
പര	-10.7079
▁शानदार	-10.708
▁ಪಾಟೀಲ	-10.7082
▁ಆಳ	-10.7083
▁નોકરી	-10.7083
▁ದೈಹಿಕ	-10.7084
▁ನಡೆಸಿದರು	-10.7085
▁આરોપ	-10.7088
▁പരിശീലനം	-10.7088
भा	-10.709
▁കരുത	-10.7092
▁વર્ષની	-10.7092
▁રશિયન	-10.7093
▁കാര്	-10.7094
▁കോട്ട	-10.7097
▁હે	-10.7098
▁લખ	-10.7098
▁ಆರಂಭ	-10.7099
▁जरूरी	-10.71
▁આપશે	-10.7102
▁नोकरी	-10.7103
▁ಉತ್ಪಾದನೆ	-10.7106
ലിയ	-10.711
▁ಕಾಲದಲ್ಲಿ	-10.711
▁ટ્રેન	-10.7111
▁കോടതിയില്	-10.7111
▁क्लब	-10.7113
▁घोषित	-10.7114
ಕರು	-10.7115
ಠ	-10.7116
▁गुरु	-10.7118
േക്ക	-10.7122
▁એવું	-10.7123
▁ವಿಶಿಷ್ಟ	-10.7125
▁નિયમો	-10.7129
▁കേരളത്തിന്റെ	-10.7129
▁चुका	-10.7129
▁സിറ്റി	-10.713
▁ಸೃಷ್ಟಿಸ	-10.7131
▁ബസ	-10.7133
▁പ്രതികരിക്ക	-10.7133
▁പറഞ്ഞിരുന്നു	-10.7134
ೇಶ್	-10.7135
▁शाळा	-10.7135
▁गैर	-10.7137
▁വിള	-10.7137
▁असलेला	-10.7138
on	-10.714
▁ಕರ	-10.714
ങ്ങളെയും	-10.7141
▁അതില്	-10.7143
▁ದಿನದ	-10.7144
▁ಕಾಯ್ದೆ	-10.7148
▁ನಡೆಸುವ	-10.7148
▁दस	-10.7148
▁ഫോൺ	-10.7148
ಲಿಯ	-10.7148
▁अहम	-10.7149
▁സൈ	-10.7149
▁साखर	-10.7157
▁चांगला	-10.7158
▁മൂന്ന	-10.7161
ಮರ್	-10.7164
▁वितरण	-10.7167
▁हमेशा	-10.7167
▁ಹುಡುಕ	-10.7167
▁ಕಲ್ಲು	-10.7168
▁ઓફર	-10.7169
▁स्थापना	-10.7171
ികളുടെ	-10.7173
▁ऑनलाईन	-10.7173
્સને	-10.7174
▁ലോകം	-10.7175
▁शिवाय	-10.7176
▁ಹೊರಗೆ	-10.7177
തയും	-10.7178
ેર	-10.718
▁योजने	-10.718
▁શક્યતા	-10.7181
േഷന്	-10.7181
ಗಳಾಗಿವೆ	-10.7182
സ്റ്റാ	-10.7182
▁ಜಾರಿಗೆ	-10.7183
▁એક્સ	-10.7183
લેન્ડ	-10.7186
▁പത്ത്	-10.7189
▁જાણવા	-10.719
▁ಸ್ವರೂಪ	-10.7191
वेळी	-10.7191
▁केजरीवाल	-10.7192
▁रोहित	-10.7192
▁शक्ती	-10.7193
ियर	-10.7196
വില്	-10.7196
ലിന്	-10.7198
▁સિવાય	-10.7199
▁આંતરિક	-10.7202
▁അഭിനയ	-10.7203
▁સુરત	-10.7204
us	-10.7205
▁योगी	-10.7206
▁આવેલી	-10.7206
മാറ്റ	-10.7206
▁നിന്നാണ്	-10.7208
▁ഇന്നത്തെ	-10.7209
▁കാര്യത്തില്	-10.721
▁दा	-10.7211
ಾರ್ಥ	-10.7213
ંબ	-10.7215
▁വെറും	-10.7217
गळ	-10.7217
ಾಯಿ	-10.7218
ಘ	-10.7219
ുന്നതു	-10.722
વાનો	-10.7222
▁शुल्क	-10.7222
▁माह	-10.7223
▁സന്ദേശ	-10.7223
એમ	-10.7225
▁ഗുരു	-10.7226
▁नियमित	-10.7227
മെന്റ	-10.7227
▁പുറത്ത	-10.7229
▁પત્ર	-10.7231
▁બિ	-10.7232
▁വയസ്സ	-10.7232
▁જીત	-10.7232
ೃ	-10.7236
▁ಹರಿ	-10.7237
▁സിബിഐ	-10.7239
ಗೌಡ	-10.724
▁ಏರ್	-10.7244
am	-10.7245
യ്ക്കായി	-10.7245
▁വായിക്ക	-10.7246
म्ब	-10.7248
▁നിയന്ത്രണം	-10.7248
▁સલાહ	-10.7249
▁ಇತರೆ	-10.7249
ऱया	-10.7251
▁ಎಲ್ಲರ	-10.7251
▁സുഹൃത്തുക്കള	-10.7251
ેસ	-10.7252
▁લાગુ	-10.7253
▁इशारा	-10.7254
▁કોલેજ	-10.7255
▁इच्छित	-10.7256
▁ಉತ್ಸವ	-10.7256
▁येऊन	-10.7257
▁दिल	-10.7258
id	-10.7258
ന്മാർ	-10.7259
▁ನಿರಂತರವಾಗಿ	-10.7259
▁ജനങ്ങള്	-10.7261
▁आशा	-10.7263
▁ಮೈತ್ರಿ	-10.7263
▁કરવાથી	-10.7264
▁ഗതാഗത	-10.7264
▁महिन्यात	-10.7265
ઇલ	-10.7265
ದ್ರ	-10.7267
▁बैठकीत	-10.7268
▁പിടിച്ച	-10.7268
▁अस	-10.7269
▁പരിശീലന	-10.7271
▁ಕಾಲು	-10.7276
▁ಎಲ್ಲರಿಗೂ	-10.7277
▁ಲಿ	-10.7278
ંસ	-10.7279
▁त्वचा	-10.728
ീന	-10.7286
▁നിങ്ങള്	-10.7287
▁നാടക	-10.7287
വന്ന	-10.7289
▁नोंद	-10.729
ર્મ	-10.7293
बीर	-10.7294
▁ಮೂಲದ	-10.7294
▁തോ	-10.7296
▁വിസ	-10.7296
ಸ್ಟ	-10.7297
▁സമുദായ	-10.7298
▁મુશ્કેલ	-10.73
▁विनोद	-10.7303
▁लौट	-10.7305
▁പ്രവേശന	-10.7306
ଙ୍କ	-10.7306
▁देखने	-10.7307
▁वैद्यकीय	-10.7308
▁सुट	-10.7309
સં	-10.7309
▁നിലവിൽ	-10.7311
▁अपराध	-10.7311
િકા	-10.7311
▁കൃത്യമായ	-10.7312
▁ಮಕ್ಕಳನ್ನು	-10.7314
▁ನಿಜವಾಗಿಯೂ	-10.7315
▁സേവനം	-10.7316
▁ಉಪಾಧ್ಯಕ್ಷ	-10.7317
ബോധ	-10.7319
ോട്ട്	-10.732
▁जाकर	-10.7323
▁ശുപാർശ	-10.7323
▁ವಿರೋಧಿ	-10.7323
▁ദേശ	-10.7324
ണ്ണ	-10.7325
▁ભૂમિકા	-10.7325
ಸ್ನ	-10.7325
▁नर	-10.7327
▁ഉപയോഗ	-10.7329
ശു	-10.733
್ರ	-10.733
▁સમજ	-10.7333
▁ड्र	-10.7334
▁काँग्रेसचे	-10.7334
▁कप्तान	-10.7334
▁પ્રધાન	-10.7337
വൻ	-10.7338
കര്	-10.734
▁സ്വാതന്ത്ര്യ	-10.734
▁ಆಟಗಾರ	-10.7341
▁രസകരമായ	-10.7342
ീഷ	-10.7342
▁સાત	-10.7344
▁വിശദീകരണം	-10.7345
യാവ	-10.7347
ध्य	-10.7347
▁अहमद	-10.7348
▁ಗಂಟೆ	-10.735
▁വിപണി	-10.735
▁പുറമെ	-10.7351
▁રૂપિયા	-10.7352
ಟ್ಸ್	-10.7354
ക്ത	-10.7354
▁રજૂઆત	-10.7355
▁समाप्त	-10.7355
െങ്കില്	-10.7355
▁ഉപയോഗിക്കുന്നു	-10.7357
▁ମ	-10.7358
ಗಳನ್ನ	-10.7361
▁सैन्य	-10.7362
▁ಮಾಡಿದರೆ	-10.7363
▁ಹುದ್ದೆ	-10.7368
ുണ്ടോ	-10.7368
▁विवाद	-10.7368
▁વ્યવહાર	-10.737
▁ഇന്ത്യയില്	-10.7371
▁എറണാകുളം	-10.7372
▁പരമാവധി	-10.7372
▁ಸಮಿತಿಯ	-10.7373
▁पाक	-10.7374
▁मू	-10.7375
ക്കട	-10.7376
▁अजूनही	-10.7376
र्न	-10.7379
▁മാത്രമ	-10.7379
▁संत	-10.738
▁ವಿಭಾಗದ	-10.738
▁അവനെ	-10.7381
▁मगर	-10.7381
વન	-10.7382
▁डेटा	-10.7383
▁ತಾಲ್ಲೂಕಿನ	-10.7383
▁ಸಹೋದರ	-10.7386
▁ದೋಷ	-10.7386
▁प्रदूषण	-10.7386
ിംഗ	-10.7387
▁खंड	-10.7387
ക്കെതിരായ	-10.7389
യെങ്കിലും	-10.7389
മത	-10.7394
▁सर्वच	-10.7394
▁सुनवाई	-10.7394
▁ऑपरेशन	-10.7396
▁मोड	-10.7396
▁घड	-10.74
▁બિઝનેસ	-10.7401
▁മുന്നോട്ട്	-10.7401
േഷ്	-10.7402
▁ପାଇ	-10.7403
ડિયા	-10.7404
ोड	-10.7404
▁तिथे	-10.7406
വഴി	-10.7406
▁സമാനമായ	-10.7407
▁ધ્યાનમાં	-10.741
▁തടവ	-10.7411
ರಾಮ	-10.7412
▁കൂടിക്കാഴ്ച	-10.7412
▁ആശുപത്രിയിൽ	-10.7414
▁ತತ್ವ	-10.7417
▁घडली	-10.7418
▁दिख	-10.7421
▁രീതിയില്	-10.7421
ഗാ	-10.7422
▁अंदर	-10.7422
▁विधेयक	-10.7425
ാമെന്ന്	-10.7427
▁ചിത്രങ്ങൾ	-10.7427
▁શબ્દ	-10.7429
▁വനിത	-10.743
▁എച്ച്	-10.7431
▁ટેક્સ	-10.7431
കല	-10.7434
द्य	-10.7435
▁लगाने	-10.7438
ബു	-10.7439
▁नौ	-10.7441
ठी	-10.7443
വിനെ	-10.7444
▁നേരിട്ട	-10.7445
▁ಸಂದೇಶ	-10.7445
ರ್ಸ್	-10.7446
▁ଏ	-10.7448
▁લેવામાં	-10.7449
▁ഒരുപാട്	-10.745
▁വൈസ്	-10.7451
▁ಸ್ಪಷ್ಟವಾಗಿ	-10.7451
▁वक्तव्य	-10.7454
ೀನ್	-10.7455
▁ವಿಧಾನಸಭಾ	-10.7457
▁ಮತದಾನ	-10.7458
▁ಪೋಷಕರು	-10.7458
മുഖ	-10.7461
▁होतात	-10.7461
ाबाबत	-10.7462
▁થયેલા	-10.7463
▁ಅಪರಾಧ	-10.7464
▁બહુ	-10.7466
▁ಹೆಚ್ಚಿಸ	-10.7466
बो	-10.7466
ಜನ್	-10.7468
▁ଦ	-10.7469
നിന്ന	-10.7471
▁शिर	-10.7473
▁વન	-10.7473
▁कार्यरत	-10.7474
રિ	-10.7476
▁प्रत्यक्ष	-10.7479
▁पाया	-10.748
▁सरकारला	-10.7481
▁കല്ല	-10.7481
▁ग्रुप	-10.7484
▁സമീപം	-10.7488
▁ગત	-10.7491
रू	-10.7492
ികളെ	-10.7492
ിയിരുന്നു	-10.7494
▁ಏಳು	-10.7495
▁ಮೂಡ	-10.7495
▁પેટ	-10.7495
▁ಆಗಿತ್ತು	-10.7497
निक	-10.7498
▁ഏഴു	-10.7499
▁मध्यप्रदेश	-10.7499
im	-10.7501
▁ചോ	-10.7502
कड	-10.7505
▁ಸಾರಿಗೆ	-10.7505
▁પ્રશ્ન	-10.7508
વાદ	-10.7508
▁പച്ചക്കറി	-10.7508
▁આરોપી	-10.7514
▁पावसा	-10.7516
▁असेही	-10.7518
▁લિ	-10.7519
മാരും	-10.752
▁થતાં	-10.7525
▁अंतरराष्ट्रीय	-10.7525
▁കൊണ്ടുവന്ന	-10.7527
▁सरपंच	-10.7528
▁કમ	-10.753
▁ಉಂಟಾಗ	-10.7533
▁ಅತ್ಯಾಚಾರ	-10.7536
ब्र	-10.7537
▁ट्वीट	-10.7538
ിനെയും	-10.7539
ಹಾಕ	-10.754
ಂಟಿ	-10.7541
୍	-10.7542
▁ಭವಿಷ್ಯ	-10.7542
▁അവർക്ക്	-10.7543
▁ಬೀಜ	-10.7545
▁കാണാം	-10.7545
▁കാണിക്ക	-10.7547
▁സംഭാവന	-10.7547
▁ಗೌಡ	-10.7548
▁એકવાર	-10.7549
▁व्हिडिओ	-10.7549
▁ആഗോള	-10.755
സര്	-10.7551
ത്തോളം	-10.7555
▁ಪದ್ಧತಿ	-10.7556
▁ಕರ್	-10.7557
▁શહેરમાં	-10.7559
▁ചാണ്ടി	-10.7561
▁ഉപകരണങ്ങൾ	-10.7563
▁जून	-10.7564
ଜ	-10.7564
▁ಅನುಮಾನ	-10.7566
▁हाल	-10.7567
▁ನೇಮಕ	-10.7568
▁അമിത്	-10.7568
▁जाएंगे	-10.7569
▁सिर	-10.757
▁ಪರವಾಗಿ	-10.7572
▁असली	-10.7573
▁દુ	-10.7573
▁ಸಂಪನ್ಮೂಲ	-10.7574
▁उससे	-10.7574
▁भेज	-10.7575
▁ഡാ	-10.7576
▁ಹ್ಯಾ	-10.7576
▁शिंदे	-10.7576
▁ಪೇ	-10.7577
▁ഭാവി	-10.7578
▁ಗ್ರಾಮದಲ್ಲಿ	-10.7579
▁भो	-10.758
हन	-10.7581
പു	-10.7582
▁കയറിയ	-10.7582
ാസ്	-10.7583
▁स्थापन	-10.7584
ાઓ	-10.7585
▁ವೈದ್ಯರ	-10.7587
ಪೇಟೆ	-10.7588
▁ഉണ്ടായിരുന്ന	-10.7592
ടെ	-10.7593
▁सामग्री	-10.7594
▁ಬೆಳಿಗ್ಗೆ	-10.7596
ടുത്ത	-10.7599
▁હોવાનું	-10.7599
रम	-10.7601
ഫോ	-10.7604
▁രമേശ്	-10.7606
्न	-10.7608
ഭി	-10.7608
▁બેંક	-10.7609
േക്കാം	-10.761
▁प्रभावी	-10.7611
▁નોંધપાત્ર	-10.7611
▁ರಾಜೀನಾಮೆ	-10.7614
▁ബാക്കി	-10.7614
▁ದಲಿತ	-10.7616
▁કિસ્સામાં	-10.7618
▁ಹೌದು	-10.7618
ಪಡಿಸ	-10.7618
▁ദുരിത	-10.762
▁''	-10.7622
▁बाब	-10.7624
ಬೇಕೆಂಬ	-10.7625
ങ്ങള്ക്കും	-10.7626
▁ಮಣ್ಣಿನ	-10.7626
▁ഞായറാഴ്ച	-10.7629
▁पद्धत	-10.7631
▁कराने	-10.7631
▁നേരിട	-10.7632
▁पद्धतीने	-10.7632
▁ರಕ್ಷಣಾ	-10.7634
▁ಎಲ್ಲವೂ	-10.7634
ഴി	-10.7636
▁അക്കാദമി	-10.7638
▁अग्रवाल	-10.7638
▁ഉച്ച	-10.7644
▁राजनीति	-10.7644
▁ಓದಿ	-10.7644
▁ತಂತ್ರ	-10.7645
sc	-10.7648
ालय	-10.7651
സും	-10.7652
▁ರೈಲು	-10.7653
▁ताकि	-10.7654
▁കാര്യത്തിൽ	-10.7657
▁പിടി	-10.7657
ർട്ട്	-10.7658
▁ಮೂಲಭೂತ	-10.7658
चार	-10.7659
▁आजार	-10.766
▁ಸಕ್ಕರೆ	-10.7662
▁ಮಹತ್ವದ	-10.7663
▁ನಿಮ್ಮನ್ನು	-10.7663
પણ	-10.7667
യൊക്കെ	-10.7671
▁ಬಂದಾಗ	-10.7672
▁കൃത്യമായി	-10.7673
र्क	-10.7673
▁मेहनत	-10.7674
▁तब्बल	-10.768
सो	-10.7683
▁પરત	-10.7684
ધી	-10.7684
▁സീ	-10.7685
▁बलात्कार	-10.7685
ബ്ര	-10.7685
▁સૂ	-10.7685
▁बनी	-10.7687
▁ಸಾರ	-10.7688
▁અત્યંત	-10.7689
ड़े	-10.769
▁तपासणी	-10.7692
▁खासगी	-10.7692
▁नसल्याचे	-10.7693
ायची	-10.7694
ുന്നത	-10.7695
ಾಪುರ	-10.7696
▁ಸೇರಿದ	-10.7697
ंगा	-10.7697
▁शहा	-10.7697
▁l	-10.7699
▁पेट	-10.77
▁કરાવ	-10.7702
കാരി	-10.7703
ક્ષા	-10.7704
▁കോളേജ്	-10.7707
▁વડા	-10.7707
ഞ	-10.7709
▁अवैध	-10.7709
विरोधात	-10.771
▁ಇತ್ತು	-10.7711
▁पार्क	-10.7711
ઈન	-10.7711
▁सेट	-10.7712
▁पडत	-10.7712
ીની	-10.7714
ವಿರುವ	-10.7716
સ્ક	-10.7718
▁ಯೋಚಿಸ	-10.7719
▁ಚಾಲಕ	-10.772
▁അനുകൂല	-10.7722
ടക്ക	-10.7723
▁അനുസരിച്ച്	-10.7724
▁ದರ್ಶನ	-10.7724
▁हमने	-10.7725
▁ಹಣಕಾಸು	-10.7725
ണമെന്നാണ്	-10.7725
▁गरम	-10.7726
▁ಟಿಕೆಟ್	-10.7728
▁ಧ	-10.7728
ટ્સ	-10.7729
മെന്നും	-10.7731
▁तीव्र	-10.7731
ചിത്ര	-10.7736
▁ഫെ	-10.7737
▁ರನ್	-10.7738
▁ಸ್ಟಾರ್	-10.7739
▁मुद्दा	-10.7741
क्या	-10.7743
▁ચે	-10.7745
▁അപ്പോൾ	-10.7745
▁कराया	-10.7748
ಥಿ	-10.7749
▁अमर	-10.775
▁ಬಾಲ	-10.775
▁എഴുതി	-10.775
▁શક્તિ	-10.7751
▁વર્તમાન	-10.7752
▁વેચાણ	-10.7754
▁തിരഞ്ഞെടുപ്പ	-10.7755
ढा	-10.7755
एच	-10.7756
ભા	-10.7756
▁ನಿಲ್ಲಿಸ	-10.7758
मर	-10.776
▁पं	-10.7761
ತೆಗೆ	-10.7762
ગો	-10.7762
ાળ	-10.7763
ുത	-10.7764
▁घटने	-10.7764
ರಂಗ	-10.7767
▁शेख	-10.7768
ക്കാരെ	-10.777
പക്ഷ	-10.777
▁ભારતમાં	-10.777
▁അന്ന	-10.7771
▁ಸ್ಪರ್ಧಿಸ	-10.7772
સ્થ	-10.7772
▁ಹಂತದ	-10.7773
▁एफ	-10.7773
▁યુનિવર્સિટી	-10.7775
▁વીડિયો	-10.7775
▁विद्यालय	-10.7777
▁കരി	-10.7777
झा	-10.7778
റില്	-10.7779
ಿರಬೇಕು	-10.7779
ଟି	-10.778
രൊ	-10.7784
▁નેતાઓ	-10.7785
िर	-10.7785
▁അവസാനം	-10.7787
▁राहिले	-10.7788
്യൂ	-10.7789
▁ಶರಣ	-10.779
▁തള	-10.7794
▁थाना	-10.78
ിങ്ങ	-10.78
▁ಅಪಘಾತ	-10.7801
ಗರ	-10.7803
▁ഫേസ്ബുക്ക്	-10.7804
ದೇಶ	-10.7804
દેવ	-10.7804
▁കാറ്റ	-10.7804
ാവുന്നതാണ്	-10.7804
▁झालं	-10.7805
▁ಪಾಠ	-10.7806
▁त्यावेळी	-10.7806
▁સમાચાર	-10.7806
▁കായിക	-10.7806
▁പീ	-10.7808
▁कार्यकर्ता	-10.7808
▁രണ്ടാമത്തെ	-10.7809
▁പാക്	-10.7809
▁रहता	-10.781
▁चे	-10.7811
▁ನಿನ್ನ	-10.7812
▁ಗಾಳಿ	-10.7813
സ്ട്ര	-10.7814
▁गोल	-10.7815
▁તેણે	-10.7816
തൊ	-10.7816
▁ಆಕರ್ಷಕ	-10.7817
ില്ലെങ്കിൽ	-10.7818
▁ಅಗತ್ಯವಿಲ್ಲ	-10.7819
▁ಆಸೆ	-10.7821
▁ലഭിച്ചത്	-10.7821
▁अंमलबजावणी	-10.7822
▁सुपर	-10.7822
ിയായ	-10.7823
▁गठबंधन	-10.7824
ers	-10.783
▁ഇയാള്	-10.7832
ಷನ್	-10.7835
ावरील	-10.7836
ക്കം	-10.7836
▁എഴുത്ത	-10.7836
ಗೇ	-10.7839
▁പാലക്കാട്	-10.784
▁പരിഹാര	-10.7842
▁રક્ષણ	-10.7843
▁പരിഹാരം	-10.7843
▁बनाकर	-10.7846
▁ഗവേഷണ	-10.7847
▁मर	-10.7848
▁ಸರಕಾರಿ	-10.7849
लर	-10.7851
കാലത്ത്	-10.7852
▁ಪೈಕಿ	-10.7852
▁സമാധാന	-10.7854
ൊര	-10.7854
▁ಒಪ್ಪಂದ	-10.7854
▁ಗಿಡ	-10.7855
▁बच्चे	-10.7856
ल्ल	-10.7856
▁ತಾಂತ್ರಿಕ	-10.7858
▁ಪ್ರವಾಹ	-10.7859
▁ഗ്രൂപ്പ്	-10.7861
വരുന്ന	-10.7862
വിട	-10.7864
▁ಸಚಿವರು	-10.7864
സൈ	-10.7866
▁ബിസിനസ്	-10.7866
▁തിരഞ്ഞെടുത്ത	-10.7872
▁उत्सव	-10.7874
▁ವಾಣಿಜ್ಯ	-10.7874
▁डाय	-10.7876
▁രാഷ്ട്ര	-10.7879
▁વિષય	-10.7879
▁ಮಾಡುತ್ತಿದ್ದಾರೆ	-10.788
യറ	-10.7881
जो	-10.7882
▁ತಾನು	-10.7884
सि	-10.7885
▁ફો	-10.7885
्क	-10.7887
▁ಭಾಗದ	-10.7891
▁j	-10.7893
▁केलेले	-10.7894
▁st	-10.7894
▁अध्ययन	-10.7895
▁ગણતરી	-10.7897
गम	-10.7898
▁ज्येष्ठ	-10.7899
▁ಸ್ಥಿರ	-10.79
▁ગઇ	-10.7902
▁ಕೆಳ	-10.7904
▁ચિ	-10.7904
▁പ്രിയപ്പെട്ട	-10.7905
▁થતી	-10.7905
तः	-10.7908
▁mo	-10.7908
▁पड़ा	-10.7909
▁କରି	-10.7911
ಿಸಿಕೊಳ್ಳ	-10.7911
▁സിപിഐ	-10.7913
▁वतीने	-10.7913
▁બધી	-10.7914
ोन	-10.7914
▁കരാറ	-10.7916
▁മുന്നണി	-10.7917
▁बाळ	-10.7919
▁एयर	-10.792
िनी	-10.7921
ವಾಗಲಿದೆ	-10.7924
▁ಸ್ವೀಕರಿಸ	-10.7926
▁ವಿವರಣೆ	-10.7927
ുകള്ക്ക്	-10.7928
▁മുൻപ്	-10.793
ോട്ട	-10.7931
▁महत्व	-10.7931
▁સ્કૂલ	-10.7931
▁ಮಾತುಕತೆ	-10.7931
▁ಹೆಸರನ್ನು	-10.7931
▁ರೇ	-10.7932
▁തങ്ങള്	-10.7932
▁സഖ്യ	-10.7935
▁ലീഗ്	-10.7935
▁વિરુદ્ધ	-10.7936
ાઉ	-10.7938
▁ಗಂಟೆಗಳ	-10.7939
▁ક્ષેત્ર	-10.794
રુ	-10.794
ફા	-10.794
▁त्यानुसार	-10.794
▁દરમ્યાન	-10.794
▁ಹಲ್ಲೆ	-10.7941
▁ജനത	-10.7942
▁ഓണ	-10.7942
▁વગેરે	-10.7943
▁बोलताना	-10.7943
▁അത്യാവശ്യമാണ്	-10.7945
▁അറിവ	-10.7945
ಜ್ಞ	-10.7945
▁ಸಾವಿರಾರು	-10.7945
▁जवळपास	-10.7945
ದ್ದೇ	-10.7947
▁अजून	-10.7947
▁સંબંધ	-10.7947
▁मेडिकल	-10.7947
▁പരിഗണിച്ച	-10.795
▁करवा	-10.795
▁એપ્લિકેશન	-10.795
▁കളിക്ക	-10.795
▁ಪ್ರಯತ್ನಿಸಿ	-10.7951
▁അമേരിക്കന്	-10.7951
▁മീ	-10.7951
ಗೊ	-10.7953
▁દેશના	-10.7954
പെട്ട	-10.7956
▁ઘ	-10.7961
ફર	-10.7961
▁നടപടികൾ	-10.7963
▁तसे	-10.7964
▁जिंक	-10.7965
▁പ്രശസ്തമായ	-10.7966
▁ಸರ್	-10.7966
▁സാഹചര്യം	-10.7969
▁നിലവിലെ	-10.7971
▁വിശുദ്ധ	-10.7971
▁ಬೆಳೆಸ	-10.7972
▁ഭാഗം	-10.7972
▁ನೀರ	-10.7973
▁ನೀಡಿರುವ	-10.7974
▁ವಿಷಯದಲ್ಲಿ	-10.7974
▁પ્રયત્ન	-10.7975
ുന്നതിനിടെ	-10.7976
▁ಬಜೆಟ್	-10.7977
▁കോൺഗ്രസ	-10.7978
▁ಬಗೆಯ	-10.7978
▁ತಿನ್ನ	-10.7978
▁ನೇತೃತ್ವದಲ್ಲಿ	-10.798
▁ಬು	-10.798
▁ಹಿಡಿದ	-10.7981
▁ઘરમાં	-10.7981
▁ವರ್ಗಾವಣೆ	-10.7982
▁ಎಡ	-10.7987
ಎನ್	-10.7987
ಪಾಲ	-10.7988
▁धार्मिक	-10.7989
▁ನಂತರದ	-10.7989
▁બેન્ક	-10.799
▁ಶೈಕ್ಷಣಿಕ	-10.7991
▁ಮಟ್ಟ	-10.7993
പ്പുറം	-10.7993
▁ಜನ್ಮ	-10.7993
वट	-10.7994
▁തൊഴിൽ	-10.7996
▁പോരാട്ട	-10.7997
▁ಆನ್ಲೈನ್	-10.7998
▁ചരിത്രം	-10.7999
▁ನಾಯಕರ	-10.8
ಪೋ	-10.8002
▁एसोसिएशन	-10.8005
ಂತೂ	-10.8005
▁महाराष्ट्रात	-10.8008
▁कामे	-10.801
▁ಹೂ	-10.801
▁ತಮ್ಮನ್ನು	-10.801
▁कहते	-10.8011
▁વધારવા	-10.8011
▁महसूस	-10.8012
ುತ	-10.8016
िप	-10.8016
ುತ್ತಿದ್ದರೆ	-10.8017
▁ಚರ್ಮ	-10.8018
ಥ	-10.8019
പ്പെടുന്നത്	-10.802
▁ഇല്ലാതാക്ക	-10.8023
સિ	-10.8023
▁જણાવી	-10.8024
ಯನ್ನೂ	-10.8025
च्च	-10.8025
▁ಮೇಲ್	-10.8025
▁બજાર	-10.8026
▁नव्हते	-10.8026
▁विक	-10.8026
എന്	-10.8027
ാവ്	-10.8028
▁तस्वीर	-10.8029
▁വീട	-10.8029
മണി	-10.803
ાણી	-10.803
▁ಸಮಸ್ಯೆಯನ್ನು	-10.803
▁ಹೆಸರ	-10.8033
▁ಸಮಗ್ರ	-10.8034
ണ്ടി	-10.8038
▁അമേരിക്കൻ	-10.8038
▁હુમલો	-10.8039
जू	-10.8041
▁വ്യത്യാസ	-10.8041
വേഷ	-10.8042
▁साइट	-10.8042
गृह	-10.8043
▁ಪಟ್ಟ	-10.8043
ില്ലാതെ	-10.8045
▁ചൂട	-10.8046
▁જન	-10.8047
▁ದೇಹ	-10.8049
▁आवड	-10.805
▁ತಿಳಿದ	-10.805
ದೋ	-10.805
▁घेणार	-10.805
▁ઓવર	-10.8052
ഭവ	-10.8054
▁ಕಳೆದುಕೊಂಡ	-10.8057
▁રિપોર્ટ	-10.8058
▁दिनों	-10.8059
▁ನ್ಯಾಯಾಲಯ	-10.8059
▁રાહત	-10.806
▁योगदान	-10.8061
▁उभे	-10.8061
▁ചേര്ന്ന	-10.8061
ಭಾವ	-10.8061
▁टिक	-10.8062
റിന്	-10.8065
▁ಶತಮಾನದ	-10.8068
▁ઉપયોગી	-10.8069
काम	-10.807
▁ಫಾರ್	-10.8071
രാമ	-10.8071
ಿಗಳ	-10.8072
ಮನ	-10.8074
▁તાલીમ	-10.8074
▁प्रतिसाद	-10.8074
▁ಶಿಕ್ಷಕ	-10.8075
▁અમેરિકન	-10.8076
▁ವೇತನ	-10.8076
▁વસ્તુ	-10.8077
▁बचाव	-10.8078
▁ಯಾ	-10.8078
ನಾಗ	-10.8081
▁આપતા	-10.8081
▁ಫಿ	-10.8082
▁किये	-10.8085
ಲಿದ್ದು	-10.8085
▁विकेट	-10.8087
મિ	-10.8088
વાળી	-10.809
ିକ	-10.8093
▁मिलकर	-10.8094
▁ફરીથી	-10.8094
श्र	-10.8094
▁ಪಾವತಿ	-10.8095
▁देशमुख	-10.8099
▁കോള	-10.8102
▁स्पर्धेत	-10.8102
ત્રી	-10.8103
▁സിസ്റ്റം	-10.8106
▁സാധാരണയായി	-10.8107
▁भारी	-10.8107
▁നടന്	-10.8108
▁വിളിക്ക	-10.8109
▁മുഖം	-10.811
▁അയച്ച	-10.8111
▁hindi	-10.8112
▁രേഖ	-10.8112
▁मिळाली	-10.8116
▁മനസിലാക്ക	-10.8117
▁അമ്മയുടെ	-10.8119
ಸ್ಟರ್	-10.8123
▁ನಿಲ್ಲ	-10.8124
▁स्वच्छता	-10.8125
ಯಾಗಿರುವ	-10.8125
▁पेट्रोल	-10.8125
▁ಎಲ್ಲವನ್ನೂ	-10.8126
▁ಶ್ರೀಮಂತ	-10.8128
no	-10.8128
▁मुले	-10.8129
▁ಇರಲಿಲ್ಲ	-10.8131
▁देण्यासाठी	-10.8132
▁निसर्ग	-10.8132
ാത	-10.8134
▁നോട്ട	-10.8134
▁नैसर्गिक	-10.8135
ിരിക്കെ	-10.8138
▁ಲೆಕ್ಕ	-10.8138
▁ವಿಷ	-10.8139
▁പ്രകാശ	-10.8139
▁સામાજિક	-10.8142
▁ಪುತ್ರ	-10.8143
▁ഭൂ	-10.8144
▁ಸಮುದಾಯದ	-10.8144
▁നമ്മൾ	-10.8145
▁ನಾಯಿ	-10.8146
मार	-10.8146
▁મદદથી	-10.8147
▁ಬಳಸಿಕೊಂಡು	-10.8148
▁ഡ്ര	-10.8148
▁शासकीय	-10.8149
ുകയാണെങ്കിൽ	-10.8149
▁കിടക്ക	-10.815
▁खात्या	-10.8151
▁ക്ര	-10.8152
ക്രമ	-10.8152
टन	-10.8153
▁ಶಿಕ್ಷೆ	-10.8154
▁ठेव	-10.8155
ाद	-10.8156
▁ગયું	-10.8157
ംഗ്	-10.8157
തിയ	-10.8157
▁पुनर्	-10.8157
▁मालक	-10.8157
▁സൃഷ്ടിച്ച	-10.8158
▁गर्दी	-10.8158
ರಣ	-10.8161
▁वनस्पती	-10.8163
▁આવશ્યક	-10.8163
▁उपकरण	-10.8164
▁फा	-10.8164
▁शक	-10.8165
▁ഗൂ	-10.8165
▁महापालिका	-10.8165
▁लो	-10.8166
▁नियोजन	-10.8166
▁ಶಾಸಕರ	-10.8168
▁ડાય	-10.8168
▁കൈമാറ	-10.8168
▁शा	-10.8168
▁महापौर	-10.817
▁ಸಂಖ್ಯೆಯ	-10.817
▁दंड	-10.8172
ಿದರೂ	-10.8174
▁കൊല്ലം	-10.8175
▁o	-10.8175
ତି	-10.8176
▁വ്യാപാര	-10.8178
ോടും	-10.8178
ೇಂದ್ರ	-10.8179
▁തിങ്കളാഴ്ച	-10.8179
▁રોકાણ	-10.8179
▁രംഗത്തെത്തിയ	-10.818
▁വാഹനം	-10.818
▁അഭിപ്രായം	-10.8181
▁സ്വാമി	-10.8181
▁નદી	-10.8182
വായ	-10.8183
▁ಅವುಗಳಲ್ಲಿ	-10.8184
▁અમુક	-10.8184
▁ಸಂಕೇತ	-10.8184
▁थांब	-10.8184
ವಾಹ	-10.8185
▁രൂപയുടെ	-10.8186
▁ವ್ಯವಸ್ಥೆಯನ್ನು	-10.8186
▁ವಿಡಿಯೋ	-10.8186
वली	-10.8187
▁കറ	-10.8188
▁સામેલ	-10.8191
▁સરળતાથી	-10.8191
▁पिक	-10.8195
▁ಪಟ್ಟಣದ	-10.8198
▁ತಯಾರಿ	-10.82
▁ಪರಿಶೀಲಿಸ	-10.82
▁ತೆರೆಯ	-10.8201
▁ഡല്ഹി	-10.8202
▁ഗ്രൂപ്പ	-10.8203
▁अंत	-10.8203
▁ದಾ	-10.8205
▁മണ്ഡല	-10.8205
വറ	-10.8206
▁സബ്	-10.8207
▁आसान	-10.8208
સાર	-10.8209
સન	-10.821
▁ವಾರ್ತೆಗಳು	-10.821
▁પરીક્ષા	-10.8212
▁मिळेल	-10.8212
▁અમને	-10.8215
▁વપરાય	-10.8215
▁തലമുറ	-10.8216
▁पति	-10.8217
ग्	-10.822
▁ಸದಸ್ಯರ	-10.822
▁ಎನ್ನುತ್ತಾರೆ	-10.8221
▁മടങ്ങ	-10.8224
▁ಬೆಳೆದ	-10.8224
કારી	-10.8226
▁അവര്ക്ക്	-10.8228
▁വസ്ത്ര	-10.8228
▁വന	-10.8229
▁दाखव	-10.8229
▁નગર	-10.8231
ाबाद	-10.8231
ിറങ്ങിയ	-10.8235
▁बनव	-10.8235
▁मौसम	-10.8236
▁പുഴ	-10.8238
ಈ	-10.8238
▁त्रास	-10.8238
▁ಪಡೆದುಕೊಳ್ಳ	-10.8238
▁जैन	-10.8239
ಕ್ಕು	-10.8239
▁ബു	-10.8241
▁ದ್ರವ	-10.8242
ട്ര	-10.8245
▁ಹೇಳುವ	-10.8245
▁અંત	-10.8246
ക്സി	-10.8246
▁प्रस्तुत	-10.8248
▁વિશેષ	-10.8249
▁पूर्वी	-10.825
▁જા	-10.8251
▁નહી	-10.8252
▁ಎದುರು	-10.8252
▁अमेरिकी	-10.8252
▁ഭയ	-10.8253
यो	-10.8253
▁ഏഴ്	-10.8253
ബോ	-10.8255
▁സുരക്ഷിത	-10.8257
ोल	-10.8261
രൂപ	-10.8263
▁ઇન	-10.8263
ക്കെട്ട	-10.8263
▁प्रतिबंध	-10.8264
▁പാറ	-10.8264
્સની	-10.8264
▁ಹೆಚ್ಚಳ	-10.8265
लन	-10.8265
▁ઉત્તમ	-10.8267
▁അമ്പ	-10.8267
▁વર્ગ	-10.8267
▁પિતા	-10.8268
ರಾಗಿದ್ದರು	-10.8268
▁പങ്കെടുത്തു	-10.8271
ટલ	-10.8272
▁ಮೇಲ	-10.8272
▁प्रभारी	-10.8273
▁હા	-10.8275
▁ಆಟದ	-10.8277
▁ಸೈಟ್	-10.8278
നാഥ	-10.8279
▁रविवारी	-10.8281
യുണ്ടായ	-10.8282
നിൽ	-10.8284
▁ಬೇಕಾದ	-10.8285
ର୍	-10.8286
▁प्रकारच्या	-10.8286
ऊ	-10.8287
▁मतलब	-10.8288
ആര്	-10.829
▁നാല	-10.829
▁बुधवारी	-10.829
▁संकेत	-10.829
▁ಪಂಚಾಯಿತಿ	-10.829
▁बंदी	-10.8291
▁ಪೊ	-10.8291
ಾವ	-10.8292
▁ಒಣ	-10.8292
▁સર્વ	-10.8293
▁उसी	-10.8293
ന്മാര്	-10.8293
▁राख	-10.8295
പ്രകാരം	-10.8295
▁મશીન	-10.8295
ಶೀಲ	-10.8296
▁നിരക്ക	-10.8296
▁પરંપરાગત	-10.8298
▁അധ്യക്ഷത	-10.8298
▁ઘટાડો	-10.8299
▁स्क्रीन	-10.8299
ೋಪ	-10.8299
ലേ	-10.83
▁કિ	-10.8301
▁યુદ્ધ	-10.8303
▁હોવાની	-10.8304
ಾಯಿತು	-10.8306
▁ರೆ	-10.8306
▁ಮೂಡಿಸ	-10.8307
▁जीएसटी	-10.831
त्य	-10.8312
▁ತರಕಾರಿ	-10.8313
दल	-10.8314
▁ಹೆಣ್ಣು	-10.8314
▁वी	-10.8314
▁गुरुवार	-10.8314
▁സംവിധായകന്	-10.8315
मय	-10.8316
▁ചോദിച്ചു	-10.8316
va	-10.8316
▁article	-10.8316
വാദ	-10.8318
▁ನಿಂತ	-10.8321
ದ್ದಾಗ	-10.8322
ಕಿಂಗ್	-10.8322
ग्रस्त	-10.8324
▁हवे	-10.8325
▁ನಿವಾಸಿ	-10.8327
▁बाबतीत	-10.8329
िड	-10.833
▁ಭದ್ರತೆ	-10.833
કલ	-10.8331
▁ആരോപിച്ചു	-10.8331
▁જણાવ્યા	-10.8333
▁മേഖലയില്	-10.8333
▁ઉલ્લેખ	-10.8333
▁महासचिव	-10.8336
▁संभव	-10.8338
ക്കൽ	-10.834
▁നിര്ദേശം	-10.8341
▁ಮೀನು	-10.8341
▁ಹೇರ	-10.8344
▁അമ	-10.8346
▁ഇതിനെ	-10.8347
▁പ്രസ്ഥാന	-10.8348
▁ઊ	-10.8349
▁ಮುಂದಾಗ	-10.8351
▁സാധിക്ക	-10.8352
▁എത്തുന്നത്	-10.8353
ഓ	-10.8354
▁ಕಾಡ	-10.8355
ക്കാല	-10.8356
▁વડોદરા	-10.8357
▁സൗകര്യ	-10.836
ാണെന്ന	-10.8361
▁हृदय	-10.8362
▁બન્ને	-10.8362
▁हित	-10.8362
▁फुल	-10.8362
ंभ	-10.8363
േക്കും	-10.8364
▁ബീ	-10.8366
ജോ	-10.8367
▁നേട്ട	-10.8368
ಧಿ	-10.8369
▁ગુજરાતમાં	-10.8369
ೊಬ್ಬ	-10.837
▁ಅಲ್ಲಿನ	-10.8371
▁મોરબી	-10.8371
▁വേഷ	-10.8372
योग	-10.8372
▁उत्पादक	-10.8372
▁ഒന്നാണ്	-10.8373
▁सौ	-10.8373
▁ಸಂವಹನ	-10.8374
▁પુત્ર	-10.8376
जि	-10.8377
▁ನಡೆಯುತ್ತಿರುವ	-10.8377
ಿದ್ದವು	-10.8377
▁विकल्प	-10.8377
▁ભારતના	-10.8379
▁താമസ	-10.8382
▁ಅನುಕೂಲಕರ	-10.8382
▁യുഎസ്	-10.8382
ൻഡ	-10.8384
▁ओपन	-10.8385
ജാ	-10.8385
▁પતિ	-10.8386
▁ಕ್ರೀಡಾ	-10.8386
▁स्थिती	-10.8388
▁ಶಾಂತಿ	-10.8388
▁കര്ണാടക	-10.8388
ൂര	-10.839
▁നിറം	-10.8391
ंप	-10.8393
ारी	-10.8393
▁ಸೂಚಿಸುತ್ತದೆ	-10.8393
▁जिसे	-10.8395
▁നായിക	-10.8396
▁રહેવા	-10.8396
▁ಹೋಗುವ	-10.8396
▁ಟಿವಿ	-10.8397
▁દેશમાં	-10.8397
▁यंत्रणा	-10.8399
യാണെന്നും	-10.8401
▁पद्धती	-10.8401
▁खोल	-10.8403
▁ಸಲ	-10.8404
▁ನಡೆಯುತ್ತಿದೆ	-10.841
▁ശാരീരിക	-10.841
▁अक्षय	-10.8412
▁शहीद	-10.8412
▁મત	-10.8412
▁લી	-10.8414
▁करेल	-10.8415
્યૂ	-10.8415
▁ಗಮನಾರ್ಹ	-10.8416
നില്	-10.8417
ಶ್ರೀ	-10.8417
सम	-10.8418
दु	-10.842
▁कॉ	-10.842
▁संबोधित	-10.8422
▁കാണാന്	-10.8422
ಟನ್	-10.8423
▁ചേര	-10.8425
േജ്	-10.8426
▁वकील	-10.8427
▁जाणून	-10.8429
▁मनुष्य	-10.8429
▁ઝડપ	-10.8429
▁ഉത്തരം	-10.843
ation	-10.8431
▁ಸಂಸ್ಥೆಗಳು	-10.8432
▁ಹಾಡ	-10.8432
ીટ	-10.8433
▁ಎತ್ತರ	-10.8434
▁खरं	-10.8434
▁ಬರ್	-10.8434
▁ಎಲೆ	-10.8435
lo	-10.8439
▁सिंग	-10.844
ન્ક	-10.844
▁പങ്ക്	-10.8441
ಿಂಗ್	-10.8444
▁ಮಾಡುವುದಿಲ್ಲ	-10.8444
തയുടെ	-10.8444
વાસ	-10.8444
േഷ	-10.8445
▁मोहन	-10.8447
▁राशि	-10.8447
▁નિયંત્રણ	-10.8448
▁મેચ	-10.8448
▁അടക്കം	-10.8449
▁लाइन	-10.845
▁प्रतिमा	-10.845
બલ	-10.8452
મન	-10.8452
യ്ക്കുള്ള	-10.8454
സിസ്	-10.8454
ೀಸ್	-10.8454
▁દીધી	-10.8455
▁ಗೆದ್ದ	-10.8456
▁लॉ	-10.8457
ଗ	-10.8457
जवळ	-10.8457
▁സഹായിക്ക	-10.8459
▁देखते	-10.8461
ಲಿಂಗ	-10.8462
▁ഉന്നയിച്ച	-10.8462
▁‘‘	-10.8466
▁അഡ്വ	-10.8466
ವಾಡ	-10.8467
▁ദിവസവും	-10.8469
▁तिने	-10.847
ठे	-10.8471
▁പാടില്ല	-10.8472
▁रमेश	-10.8472
▁പമ്പ	-10.8473
▁बाइक	-10.8476
ത്യ	-10.8477
▁देना	-10.8478
▁ಕನ್ನಡದ	-10.8479
▁ಪಾವತಿಸ	-10.8479
▁હિ	-10.848
▁ഹോട്ടല	-10.8481
▁जेल	-10.8481
ार्थ	-10.8486
▁ટેસ્ટ	-10.8487
▁જળ	-10.8488
▁നിക്ഷേപ	-10.8488
ಬದ್ಧ	-10.8489
ലാണ്	-10.849
▁મધ્ય	-10.849
പ്പിച്ച	-10.8491
▁പരമ്പരാഗത	-10.8492
▁വാങ്ങിയ	-10.8492
▁પડ	-10.8494
▁किमान	-10.8494
ധന	-10.8495
▁രാഹുൽ	-10.8499
जल	-10.85
▁नीति	-10.8501
▁റിപ്പോര്ട്ട	-10.8502
▁അധികൃതർ	-10.8504
▁കൊണ്ടുവര	-10.8505
▁പ്രഖ്യാപിക്ക	-10.8506
▁വിജയന്	-10.8509
ರಾಜ್	-10.851
▁ನನ್ನನ್ನು	-10.8511
▁शक्ति	-10.8511
ફે	-10.8512
▁સપાટી	-10.8513
ોડ	-10.8514
▁आसपास	-10.8514
▁ધારાસભ્ય	-10.8514
ದರ್	-10.8516
▁યુવક	-10.8518
▁लगाए	-10.8519
▁ಪರಿಣಾಮಕಾರಿ	-10.8519
▁पिता	-10.852
ಲ್ಲದೆ	-10.8521
▁शव	-10.8523
धारक	-10.8523
▁विदेश	-10.8523
▁ആക്രമിച്ച	-10.8524
▁ഒക്കെ	-10.8524
▁ಪಠ್ಯ	-10.8525
निया	-10.8526
▁कीमत	-10.8528
▁കൂട്ടി	-10.8529
ne	-10.853
നൊ	-10.853
▁देणार	-10.8533
▁ನೂರಾರು	-10.8535
▁ನೇತೃತ್ವದ	-10.8537
▁ಪ್ರಾಚೀನ	-10.8538
▁ಮೇಲ್ಮೈ	-10.8538
▁महत्वाचे	-10.854
▁ಅಧಿಕೃತ	-10.8541
▁കാറ	-10.8542
▁പത്തനംതിട്ട	-10.8543
ഞ്ച്	-10.8543
▁ഓഫീസ്	-10.8543
ീഷ്	-10.8543
കൂട്ട	-10.8544
▁विक्रम	-10.8544
▁ಹರಿಸ	-10.8547
▁ಮುಂಬೈ	-10.8547
▁ಮದ್ಯ	-10.8548
▁રસ્તા	-10.8549
▁ઘટકો	-10.8552
▁ફેરફાર	-10.8553
ನಗರ	-10.8553
ാറില്ല	-10.8554
ഷന	-10.8554
ર્જ	-10.8555
▁राजा	-10.8558
▁मीटर	-10.8558
ಪರ	-10.8558
▁ನಿತ್ಯ	-10.8559
▁ಹೊರಟ	-10.8561
▁മൃഗ	-10.8561
वंत	-10.8561
വാര	-10.8562
▁आतापर्यंत	-10.8563
▁തമിഴ്	-10.8563
▁आत्म	-10.8564
▁ಕಾರಣಕ್ಕೆ	-10.8564
▁മുന്പ്	-10.8565
प्ल	-10.8566
▁घो	-10.8566
ദേ	-10.8569
▁ಆಯೋಜಿಸ	-10.8572
▁औद्योगिक	-10.8574
▁मार्गदर्शन	-10.8575
▁ગા	-10.858
▁ನಟಿಸ	-10.8581
▁पूजा	-10.8585
ಪಡ	-10.8585
▁खरे	-10.8586
me	-10.8586
▁પરિ	-10.8587
▁പുറത്തുവന്ന	-10.8589
▁इमारत	-10.8589
▁ऊ	-10.8589
▁आधीच	-10.8589
ડ્ર	-10.859
▁ഉറപ്പാക്ക	-10.8591
▁હવા	-10.8592
▁पैसा	-10.8596
▁സമ്മേളന	-10.8596
▁करण्याच्या	-10.8597
ാന്ത	-10.8597
▁રાખી	-10.8597
▁मिळव	-10.8598
▁ഹരി	-10.8599
▁मनो	-10.86
ंगे	-10.86
ಯಾಗಿದ್ದ	-10.8601
ദെ	-10.8602
▁ഓടി	-10.8603
▁പെണ്കുട്ടി	-10.8603
▁सोपे	-10.8604
▁എട്ടു	-10.8605
▁ಹೇಳಿದ	-10.8605
▁ಬದುಕು	-10.8606
▁ಬಂಧಿಸ	-10.8607
▁കെട്ടി	-10.8607
പ്പെട്ടത്	-10.8608
▁आयुष्य	-10.8608
മാക്കിയ	-10.8609
▁भि	-10.8609
▁सुरेश	-10.8611
▁ക്യാമ്പ	-10.8615
▁പരിശോധിച്ച	-10.8617
▁ಜಾಗೃತಿ	-10.8619
▁ಕುತೂಹಲ	-10.8621
▁અવાજ	-10.8621
▁ಲಕ್ಷಣಗಳು	-10.8622
વ્ય	-10.8622
▁घेऊ	-10.8623
▁കറുത്ത	-10.8624
▁सम्मेलन	-10.8626
ंसाठी	-10.8627
ରି	-10.8628
▁परिस्थितीत	-10.8628
▁बढ़ा	-10.8633
▁शुक्रवारी	-10.8633
▁ಕೆಂಪು	-10.8633
शु	-10.8634
▁सांगत	-10.8634
▁ठाण्यात	-10.8635
▁ಶಿಬಿರ	-10.8638
▁വെടി	-10.8638
▁സ്വാഭാവിക	-10.864
▁അവസാനിപ്പിക്ക	-10.8641
▁उचल	-10.8643
▁ಮಾರುಕಟ್ಟೆಯಲ್ಲಿ	-10.8643
▁ಬದಲು	-10.8643
▁കുട്ടികള്	-10.8645
▁ടിവി	-10.8645
▁സൂപ്പർ	-10.8645
▁ખાનગી	-10.8646
▁युती	-10.8647
ംബ	-10.8647
▁हक्क	-10.8647
യാക്കി	-10.8648
▁फैसले	-10.8648
▁ನೋಟ	-10.8649
▁കുഞ്ഞു	-10.8649
▁ಆಕೆ	-10.8649
▁साबित	-10.865
ಗಳಲ್ಲೂ	-10.8651
▁स्वयं	-10.8653
▁അമിത	-10.8655
▁वृत्त	-10.8655
▁ಇಂಡಿಯಾ	-10.8656
▁याद	-10.8657
ನಲ್ಲಿರುವ	-10.8658
▁ಸೇರಿಸಿ	-10.8658
▁फ़	-10.866
▁અંતિમ	-10.866
ങ്ങളില	-10.8661
▁पथक	-10.8664
ോൺ	-10.8665
▁પ્રાથમિક	-10.8665
▁કેન્સર	-10.8665
प्प	-10.8666
નાથ	-10.8667
▁खेळाडू	-10.8667
▁നിയന്ത്രിക്ക	-10.8667
▁हिंदू	-10.8668
▁ഇന്നും	-10.867
▁इतना	-10.8672
▁സര്	-10.8676
▁co	-10.8676
▁സൗഹൃദ	-10.8676
▁परियोजना	-10.8677
▁હૃદય	-10.8677
▁સાધન	-10.8681
▁അപ	-10.8681
▁കഴിയാത്ത	-10.8681
दीप	-10.8683
▁कार्यकारी	-10.8684
▁ಪಟ್ಟಣ	-10.8685
ಿದ್ದಾಳೆ	-10.8688
▁ನಾಗರಿಕ	-10.8691
▁निवेश	-10.8691
▁സര്ക്കാര	-10.8692
ाट	-10.8693
▁हिंदी	-10.8693
▁કોંગ્રેસના	-10.8695
▁नाईक	-10.8695
▁മാർ	-10.8699
▁ഇന്ന	-10.8699
▁સ્ત્રીઓ	-10.8699
ುತ್ತೆ	-10.8699
▁दम	-10.87
▁प्रकरणी	-10.8706
▁મિશ્રણ	-10.8706
▁ವಿಸ್ತರಿಸ	-10.8706
▁शनिवारी	-10.8709
▁ડૉક્ટર	-10.871
▁വാങ്ങി	-10.871
ರಂ	-10.8711
▁ತನಕ	-10.8713
▁ಬೊ	-10.8716
▁ಮಹತ್ವ	-10.8718
കളുടെയും	-10.872
▁മുതല	-10.872
▁ಮಾಡಿದಾಗ	-10.872
बाई	-10.872
▁જવાબદારી	-10.8722
▁स्टेट	-10.8722
ીસ	-10.8722
▁ವೇಗ	-10.8723
▁ചിത്രങ്ങള്	-10.8724
മന്	-10.8725
▁കരുത്ത	-10.8725
▁ഇടുക്കി	-10.8726
▁ವಿಶ್ವವಿದ್ಯಾಲಯ	-10.8727
▁സൂക്ഷിക്ക	-10.8727
ಪರ್	-10.8728
്വ	-10.8729
▁നടത്താന്	-10.873
ेगी	-10.873
▁કરેલ	-10.8732
▁વિવાદ	-10.8732
▁ಮನಸ್ಸು	-10.8732
▁स्थल	-10.8734
▁തമ്മില്	-10.8735
▁મોદીએ	-10.8735
ങ്ങളായ	-10.8735
▁തെളിവ	-10.8735
ಮೊ	-10.8735
▁ಕಲ್ಪಿಸ	-10.8736
മൊ	-10.8737
▁തുല്യ	-10.8738
▁ശനിയാഴ്ച	-10.8739
▁मना	-10.874
▁ಕ್ರಿಯೆ	-10.8743
▁गावात	-10.8744
▁શ્રેણી	-10.8744
▁पाठव	-10.8744
▁पुत्र	-10.8746
ಪಟ್ಟ	-10.8747
▁ചി	-10.875
▁മകന്	-10.875
▁ആദിവാസി	-10.8753
ಟೇ	-10.8753
െങ്കിൽ	-10.8753
▁വെള്ളിയാഴ്ച	-10.8755
▁ಪಡಿಸ	-10.8758
▁यंदा	-10.8758
▁മുതിര്ന്ന	-10.8759
▁പ്രസംഗ	-10.876
▁ईरान	-10.8761
കന്	-10.8763
▁शैक्षणिक	-10.8764
▁परेशान	-10.8765
▁ಫಾ	-10.8767
▁തമിഴ്നാട്	-10.8768
▁ಬೇಸರ	-10.8772
യെക്കുറിച്ച്	-10.8772
▁વાતચીત	-10.8774
ಪದ	-10.8775
ಿಂದಲೇ	-10.8776
▁ಸಂಭವಿಸ	-10.8776
▁അതിനാല്	-10.8776
ीर	-10.8778
▁चेयरमैन	-10.8779
▁मान्यता	-10.8779
यन	-10.8782
त्	-10.8783
▁नेशनल	-10.8784
▁പദ	-10.8784
▁ચીન	-10.8785
▁മധ്യ	-10.8785
▁लागते	-10.8785
▁उल्लेख	-10.8789
▁ಏನೂ	-10.8789
▁ಕಾರಣವಾಗುತ್ತದೆ	-10.8789
▁നിൽക്ക	-10.8789
▁വിര	-10.8791
▁उत्साह	-10.8791
▁રેલવે	-10.8792
▁ಬೇಗ	-10.8794
▁अखिलेश	-10.8796
▁വിലയിരുത്ത	-10.8796
▁ಮಧ್ಯಮ	-10.8797
डो	-10.8797
▁देवी	-10.8797
ತೀ	-10.8799
▁મકાન	-10.88
▁ಔಷಧಿ	-10.88
▁અમેરિકા	-10.88
▁ಅಮೆರಿಕ	-10.8802
▁शंकर	-10.8804
▁ನಿರ್ಣಯ	-10.8804
▁ಸಕ್ರಿಯ	-10.8804
मल	-10.8806
▁લીધી	-10.8807
▁ಬೆಳಗ್ಗೆ	-10.8809
▁ರಾಜಕಾರಣ	-10.8811
▁ವಿಧ	-10.8811
▁खाते	-10.8811
▁यांच्यावर	-10.8814
ॉन	-10.8815
▁ರಮೇಶ್	-10.8815
ചെയ്യ	-10.8816
▁ഉണ്ണി	-10.8817
▁ദുരിതാശ്വാസ	-10.8819
▁കക്ഷി	-10.8819
▁सेंटर	-10.882
യോഗ	-10.8821
▁ಮುಖ್ಯವಾಗಿ	-10.8822
▁മേൽ	-10.8824
▁बै	-10.8825
▁राव	-10.8825
▁कृष्ण	-10.8826
രീതി	-10.8827
▁नीचे	-10.8828
▁മേഖലയിലെ	-10.8829
▁समजून	-10.883
▁ആളുകള്	-10.8834
▁കണ്ടെത്താൻ	-10.8834
▁दुर्लक्ष	-10.8834
▁गुप्ता	-10.8834
▁ಉತ್ಪನ್ನಗಳು	-10.8835
▁તદ્દન	-10.8837
▁रू	-10.8837
ಕ್ರಮ	-10.8838
▁लिमिटेड	-10.8839
▁फरक	-10.8841
▁मॉडेल	-10.8842
▁भाजपच्या	-10.8842
▁आवास	-10.8843
▁अरविंद	-10.8845
സഭ	-10.8847
▁જટિલ	-10.8852
ശാസ്ത്ര	-10.8852
▁ಫಲ	-10.8855
▁ന്യൂനപക്ഷ	-10.8857
▁മനസ	-10.8859
▁બ્ર	-10.8859
▁ഇത്രയും	-10.8859
▁ചിലപ്പോൾ	-10.886
▁കത്ത	-10.886
▁उदाहरणार्थ	-10.8862
▁ठरव	-10.8863
▁રમ	-10.8864
▁पात्र	-10.8864
ുണ്ടെന്നും	-10.8864
▁ಅಂಕ	-10.8865
▁ತೆರೆದ	-10.8865
▁जेव्हा	-10.8866
ाच	-10.8866
▁रस्ता	-10.8867
▁पोट	-10.8868
ધા	-10.8869
▁वर्णन	-10.8869
▁കൂടിയാണ്	-10.8869
▁તાલુકા	-10.887
▁സുരേഷ്	-10.887
▁चढ	-10.887
▁ಪರಿಚಯಿಸ	-10.8871
▁നേര	-10.8872
▁શિવ	-10.8872
▁തോന്നിയ	-10.8874
▁de	-10.8877
▁നിലവിലുള്ള	-10.8877
മായിരിക്കും	-10.888
▁पकड़	-10.8883
▁ആരാധകര്	-10.8884
▁राणे	-10.8886
▁അതിന	-10.8889
▁चोर	-10.889
▁ઈન્	-10.889
ીકરણ	-10.8892
▁കവി	-10.8893
▁वायरल	-10.8894
ನಹಳ್ಳಿ	-10.8894
▁ഒരാൾ	-10.8895
ധാര	-10.8895
▁बॉक्स	-10.8895
▁ನಾರಾಯಣ	-10.8896
▁चालव	-10.8907
૧	-10.8907
▁उल्लंघन	-10.8907
▁जरूर	-10.8907
ಂತೆಯೇ	-10.8909
ಿಟ್ಟ	-10.891
▁હાલમાં	-10.8911
▁ಪಂದ್ಯದಲ್ಲಿ	-10.8912
▁दखल	-10.8912
वर्त	-10.8913
▁നിർ	-10.8914
▁एक्सप्रेस	-10.8915
▁ताब्यात	-10.8915
▁ಪ್ರಕರಣದ	-10.8915
▁નિયમ	-10.8917
▁એના	-10.8917
▁വിമാനത്താവള	-10.8923
▁ലഭിച്ചു	-10.8923
▁रेल	-10.8925
ia	-10.8929
▁ಚಿತ್ರವನ್ನು	-10.8931
णारी	-10.8933
▁ಆಗುತ್ತದೆ	-10.8933
▁ಕಲಿಸ	-10.8934
▁ഉൾപ്പെടെ	-10.8935
▁ಕಂಪೆನಿ	-10.8936
▁ಎತ್ತ	-10.8936
▁नव्हता	-10.8937
▁ലോക്സഭാ	-10.8938
▁ಭಾಗವಹಿಸ	-10.8939
▁സഹോദരി	-10.8939
▁जनवरी	-10.894
▁ಬಿಜೆಪಿಯ	-10.894
ચાર	-10.8941
▁સુપ્રીમ	-10.8942
▁ಪದರ	-10.8946
ഗെ	-10.8948
ರೊಂದಿಗೆ	-10.8949
ાએ	-10.895
▁അടുത്തിടെ	-10.8953
▁സമ്മാന	-10.8954
दरम्यान	-10.8954
तक	-10.8955
▁ಕಡೆಗೆ	-10.8955
▁સેવાઓ	-10.8956
ಸೋ	-10.8956
तर्फे	-10.8958
▁അനുയോജ്യമായ	-10.8958
▁इलाज	-10.8958
▁पडला	-10.896
▁उनसे	-10.896
▁सर्वोत्तम	-10.896
ുമുണ്ട്	-10.8963
संबंधी	-10.8964
▁વાસ્તવિક	-10.8965
▁യോഗത്തില്	-10.8966
सुद्धा	-10.897
▁അറ	-10.8971
കുട്ടി	-10.8972
▁ഡാറ്റ	-10.8972
▁ചേര്ന്ന്	-10.8974
▁ದೊರೆಯ	-10.8974
്യാ	-10.8976
▁വല	-10.8979
▁ಕೇಂದ್ರದ	-10.898
▁അഞ്ച	-10.8981
ചെ	-10.8981
પૂર્વક	-10.8982
▁എംഎല്എ	-10.8982
▁ಕಾವ್ಯ	-10.8982
▁ഇടതു	-10.8985
▁राजेश	-10.8985
▁തീരുമാനിച്ചു	-10.8985
▁വഹിച്ചു	-10.8986
ೊಡನೆ	-10.899
▁ટો	-10.8991
ഫീ	-10.8991
▁હોસ્પિટલમાં	-10.8992
▁ಚಕ್ರ	-10.8992
▁सहकारी	-10.8992
ാത്മക	-10.8992
▁ಶೂ	-10.8993
എഫ്	-10.9
ക്കൾ	-10.9001
▁શોધવા	-10.9001
▁निघ	-10.9001
▁മാലിന്യ	-10.9002
▁കളിച്ച	-10.9002
sh	-10.9003
▁കഴിഞ്ഞ്	-10.9003
▁वैयक्तिक	-10.9003
രണ	-10.9005
▁ಮಹ	-10.9005
▁കുറയ	-10.9008
റുടെ	-10.901
ेच्या	-10.901
ai	-10.901
▁സഹായത്തോടെ	-10.9011
▁ಮುಖಂಡ	-10.9012
▁ಹೊರತು	-10.9012
▁അയ്യപ്പ	-10.9014
▁വോട്ട്	-10.9014
यी	-10.9016
ുചെയ്യ	-10.9017
▁google	-10.9019
▁ભરવા	-10.9022
▁കണ്ടത്	-10.9024
▁कचरा	-10.9025
▁പ്രവര്ത്തനം	-10.9026
ಯೊ	-10.9028
▁ದೆಹಲಿ	-10.9029
▁घाल	-10.903
▁डिजिटल	-10.9031
▁തമ്മിൽ	-10.9031
▁सुभाष	-10.9032
कुल	-10.9033
▁സിസ്റ്റ	-10.9033
▁നടത്താൻ	-10.9034
▁सोबत	-10.9036
ir	-10.9037
▁പേരെ	-10.9038
▁पहिला	-10.9039
▁ಬ್ರ	-10.904
▁ಮಣಿ	-10.9045
▁ફોટો	-10.9047
▁ತಿಳಿದು	-10.9047
ीसाठी	-10.9048
▁ಕಾರಣವಾಗಿದೆ	-10.9048
▁തൊഴില്	-10.9051
ಳೆಯ	-10.9052
▁કડક	-10.9053
▁ચી	-10.9053
▁സംസ്കാര	-10.9056
ಬಲ್	-10.9057
▁સરકારના	-10.9058
▁चु	-10.9058
▁રેકોર્ડ	-10.906
ലോക	-10.9061
▁क्रमांक	-10.9064
ടു	-10.9065
ടിയ	-10.9066
കൊണ്ടു	-10.9068
▁ഒരാള്	-10.9068
विषयी	-10.9071
▁साजरा	-10.9072
▁ನಿಷೇಧ	-10.9073
▁ಯಾವಾಗ	-10.9074
▁देखकर	-10.9075
▁विद्यार्थ्यां	-10.9076
ಬೇಕಾದರೆ	-10.9077
▁ಸದಾ	-10.9079
മർ	-10.9082
▁અનુ	-10.9083
▁ಗಾತ್ರ	-10.9083
hi	-10.9085
ുപോയ	-10.9086
▁ठेवा	-10.9087
ುದು	-10.9089
de	-10.909
▁ശതമാന	-10.9092
▁ಆರೋಗ್ಯಕರ	-10.9092
▁संसद	-10.9092
▁മുൻപ	-10.9095
्ब	-10.9095
▁വിഷ	-10.9097
▁ക്ലാസ	-10.9097
ൻഡ്	-10.9098
ಹಾರ	-10.9099
ಚರ್	-10.9099
ിയിൽ	-10.91
▁എംഎൽഎ	-10.9101
▁ಅಪಾರ	-10.9101
സിയ	-10.9102
▁ಶುದ್ಧ	-10.9102
▁નહિ	-10.9105
▁कविता	-10.9105
▁बाजूला	-10.9107
▁निधन	-10.9107
▁ಅಪ್	-10.9109
▁ધરી	-10.911
ോടൊപ്പം	-10.9111
▁ಇದರಿಂದಾಗಿ	-10.9111
▁સફેદ	-10.9111
▁ಕರಾವಳಿ	-10.9111
▁તેવા	-10.9111
ಂಕ್	-10.9112
ಪತಿ	-10.9114
ಾರ್	-10.9117
▁ബില്ല	-10.9119
ಮರ	-10.9119
▁ಅವಶ್ಯಕತೆ	-10.912
ಾಂಶ	-10.9121
ട്രി	-10.9121
▁હોવી	-10.9123
▁लें	-10.9123
▁തയ്യാറാക്ക	-10.9123
ർക്ക്	-10.9124
ಾನ	-10.9124
▁വായന	-10.9125
▁झालेले	-10.9126
▁साठी	-10.9126
▁नागपूर	-10.9129
▁कार्यकर्ताओं	-10.913
▁ಪೈ	-10.9131
▁जाय	-10.9131
ल्यावर	-10.9132
യൂ	-10.9132
ेंस	-10.9132
▁ಆಧರಿಸಿ	-10.9132
▁ഹോ	-10.9132
▁ನಿಮಿಷಗಳ	-10.9134
▁ವಿಷಯಗಳನ್ನು	-10.9135
▁ફોર્મ	-10.9135
▁ಇಲ್ಲಿದೆ	-10.9137
▁ಮಂತ್ರಿ	-10.9137
▁തീയതി	-10.9139
▁മേല്	-10.914
പ്പോഴ	-10.9141
ವೈ	-10.9141
▁सफाई	-10.9143
▁ಎಚ್ಚರಿಕೆಯಿಂದ	-10.9143
ज्ञ	-10.9144
▁સ્ક	-10.9144
▁ಅಪಾಯಕಾರಿ	-10.9145
▁ಸಮೀಪದ	-10.9147
▁ಲಕ್ಷಣ	-10.9147
ാപ	-10.9147
▁સેલ	-10.9147
▁നീല	-10.915
▁यांच्यासह	-10.9152
▁પરિસ્થિતિ	-10.9152
▁അല്പം	-10.9154
▁लिंक	-10.9156
▁कृषी	-10.9157
▁തോന്നി	-10.9158
പാട	-10.9158
▁ફા	-10.9159
▁ರಹಸ್ಯ	-10.916
▁രാജി	-10.9164
രാജ്	-10.9164
▁ಆತ್ಮಹತ್ಯೆ	-10.9167
ಗಿರಿ	-10.9171
▁സിനിമയില്	-10.9171
▁ഗോള	-10.9172
▁ഭവന	-10.9173
▁ജനങ്ങളെ	-10.9174
्याच्या	-10.9174
▁वाटते	-10.9175
▁പഞ്ചായത്ത	-10.9175
णार्या	-10.9176
▁ಆಯೋಗ	-10.9176
▁ತರಗತಿ	-10.9177
▁ರಚಿಸಲು	-10.9177
▁મોબાઇલ	-10.9178
ೇಷನ್	-10.9179
▁ಕೆಲವೇ	-10.918
ങ്ങളിലേക്ക്	-10.9181
േല്	-10.9183
ધાર	-10.9183
▁ವಿಧಾನಸಭೆ	-10.9183
▁ಹೆಜ್ಜೆ	-10.9183
ाइन	-10.9183
મુ	-10.9184
ମା	-10.9185
▁ഗുരുതരമായ	-10.9185
▁ಐತಿಹಾಸಿಕ	-10.9186
डय़ा	-10.9186
▁कामकाज	-10.9186
▁पदाधिकारी	-10.9187
▁ಬೀದಿ	-10.919
▁कोणत्या	-10.9191
▁શૈલી	-10.9194
ियत	-10.9194
തുകൊണ്ട്	-10.9195
▁ವ್ಯಾಪಕ	-10.9197
▁પ્રતિબંધ	-10.9198
▁ധരിച്ച	-10.9198
▁परीक्षण	-10.9199
▁पढ़	-10.9199
▁सहभाग	-10.9199
▁ಭಾರಿ	-10.9201
▁ഹർജി	-10.9202
▁નેશનલ	-10.9202
▁ಸಾಮರ್ಥ್ಯವನ್ನು	-10.9202
▁बहु	-10.9202
യില്ലാത്ത	-10.9204
സര	-10.9206
ോസ്	-10.9206
▁झालेली	-10.9206
▁ક્રિકેટ	-10.9207
▁ಸಿದ್ಧತೆ	-10.9207
▁ಅಂದ	-10.9208
vi	-10.9209
▁मुला	-10.9209
കളിലൂടെ	-10.9211
▁ಆಕಾರ	-10.9215
▁സമീപ	-10.9215
▁ಒಂದಾಗಿದೆ	-10.9216
▁बद्दल	-10.922
▁विद्युत	-10.922
▁कमेटी	-10.922
▁दहशतवादी	-10.922
वड	-10.922
▁मास्टर	-10.9221
▁തുടര്ന്നാണ്	-10.9224
▁ଏବ	-10.9225
കരണ	-10.9226
ഠ	-10.9226
▁નાની	-10.9227
ക്വ	-10.923
▁बघ	-10.9231
ക്കുന്നു	-10.9231
▁ತಾಪಮಾನ	-10.9233
ശേഷി	-10.9233
पास	-10.9233
ନା	-10.9234
ತ್ರಿ	-10.9234
▁വിചാരണ	-10.9235
വൽ	-10.9237
▁ആന്റണി	-10.9238
▁मेरे	-10.9239
▁રૂમ	-10.9239
▁ಸುಧಾರಣೆ	-10.9241
▁ಸಂಗ್ರಹಿಸ	-10.9241
▁ફળ	-10.9242
▁കഴിച്ച	-10.9242
▁ಒಳಗೊಂಡ	-10.9242
वारी	-10.9242
▁मतदारसंघ	-10.9242
▁ಪ್ರೇಮ	-10.9243
▁પદ	-10.9243
ಲೊ	-10.9244
▁ಗಮನಿಸ	-10.9245
▁ഭരണഘടന	-10.9246
ബർ	-10.9249
▁व्यवस्थापन	-10.925
▁നൽകിയത്	-10.925
टल	-10.925
di	-10.9251
▁ಹುಡುಗ	-10.9254
▁വളർച്ച	-10.9254
▁જુ	-10.9257
▁पकड	-10.926
▁ಅಧ್ಯಕ್ಷತೆ	-10.9261
ಫಾ	-10.9261
▁अरुण	-10.9262
▁आंबेडकर	-10.9264
▁गोवा	-10.9265
▁ട്രംപ്	-10.9266
▁സ്ത്രീകൾ	-10.9267
▁കിടക്കുന്ന	-10.927
तू	-10.927
▁വിജയ്	-10.9271
▁લોકોએ	-10.9271
ter	-10.9272
ದಿಂದಾಗಿ	-10.9273
▁ઉપસ્થિત	-10.9275
▁ಮೋ	-10.9275
▁ફર	-10.9277
▁ಭದ್ರತಾ	-10.9278
▁പെരു	-10.9278
ନ୍	-10.9278
▁ചെയ്യണം	-10.928
▁धन्यवाद	-10.928
▁ವಾದ	-10.9281
▁മത്സരിക്ക	-10.9282
ગ્	-10.9285
ാലോചന	-10.9285
▁ಮಾಡುತ್ತಿದ್ದ	-10.9285
ങ്ങിയ	-10.9285
▁ಕಲಾವಿದ	-10.9287
▁वर्ल्ड	-10.9288
ടുക്ക	-10.9288
▁ऐप	-10.9289
▁മന്ത്രാലയം	-10.929
्त	-10.9291
ण्य	-10.9294
മയ	-10.9294
▁મારા	-10.9294
▁विवाह	-10.9296
रक्षक	-10.9298
▁वाय	-10.9299
कला	-10.93
મર	-10.9301
▁ક્યારેય	-10.9304
વાન	-10.9305
▁ಮಾತ	-10.9306
▁अम	-10.9306
▁എംപി	-10.9307
▁ಪ್ರಕರಣದಲ್ಲಿ	-10.9307
വല്	-10.9308
ാണിത്	-10.931
▁અમિત	-10.931
▁लिखा	-10.9312
▁ಎಂದೂ	-10.9314
ियम	-10.9314
ಮಾಡಿ	-10.9315
▁બદલી	-10.9315
ുണ്ടെങ്കിലും	-10.9316
ायचा	-10.9318
ഫല	-10.9319
▁ಹೆಚ್ಚಾಗ	-10.9321
▁પીએમ	-10.9321
▁કી	-10.9321
▁सुर	-10.9323
▁આપવાની	-10.9324
ಟಿಕ್	-10.9325
▁ഡയറക്ടര്	-10.9327
▁तैनात	-10.9327
▁ഗർഭ	-10.9328
▁સર્વિસ	-10.9328
જિ	-10.9328
▁സംഘടിപ്പിക്ക	-10.9329
રેટ	-10.9329
▁ಎಂಬುದರ	-10.933
ाइज	-10.933
▁വീണ	-10.9334
▁ಅಕ್ಷರ	-10.9334
▁आकर्षक	-10.9335
▁प्राधिकरण	-10.9335
▁वर्षीय	-10.9337
ാനി	-10.9337
▁कदाचित	-10.934
ವಿಲ್ಲದ	-10.9341
્સના	-10.9342
▁നടത്തും	-10.9343
▁किशोर	-10.9343
▁പ്രത്യേകത	-10.9344
▁ವಿತರಣೆ	-10.9346
उंड	-10.9346
▁केलेली	-10.9346
▁ನಿರ್ವಹಿಸಲು	-10.9346
▁સંશોધન	-10.9346
▁ग्र	-10.9349
▁અધિકાર	-10.9351
▁કોર્ટ	-10.9351
▁सारे	-10.9353
ेगा	-10.9354
▁समाचार	-10.9356
▁ಬೈಕ್	-10.9356
▁അഭിനയിച്ച	-10.9356
▁उत्कृष्ट	-10.9359
▁दुसरा	-10.936
ധി	-10.9361
▁सोडून	-10.9362
▁ಹರ	-10.9362
પોર્ટ	-10.9364
▁ಪರ್	-10.9364
▁મફત	-10.9367
▁कमजोर	-10.9369
to	-10.937
▁ശ്രമിക്കുന്ന	-10.9372
▁നിരന്തരം	-10.9372
▁ಪಡ	-10.9373
▁ഓട്ടോ	-10.9375
▁वेगवेगळ्या	-10.9378
ಹೆ	-10.9378
▁ઉદ્યોગ	-10.9378
ജ്ജ	-10.9379
▁പരിചയ	-10.9379
▁കൂട്ടായ്മ	-10.938
▁ಕಲ	-10.9381
▁ଏକ	-10.9381
▁ಅಗತ್ಯವಿರುವ	-10.9383
▁ಬಿಟ್ಟ	-10.9384
ലൊ	-10.9385
▁പരീക്ഷണ	-10.9387
▁ಕಿವಿ	-10.9388
▁ಉಗ್ರ	-10.9392
▁ഇതാണ്	-10.9392
▁അത്ഭുത	-10.9395
▁ಸರ	-10.9396
ിലേക്കുള്ള	-10.9399
ಟಿಂಗ್	-10.94
ट्स	-10.9401
ಿಸಿದ್ದಾರೆ	-10.9401
ാർത്ഥ	-10.9402
▁ಎಣ್ಣೆ	-10.9404
bi	-10.9404
▁છોડી	-10.9405
▁माय	-10.9407
▁ವಿತರಿಸ	-10.9408
▁ಭವಿಷ್ಯದ	-10.9411
▁ವಚನ	-10.9412
▁होणे	-10.9417
▁ക്യാ	-10.9418
▁ಪೂರಕ	-10.9419
▁ಮತ್ತೊಮ್ಮೆ	-10.942
▁കുത്തി	-10.942
▁അവള്	-10.9422
▁महोत्सव	-10.9423
ષ્ટ	-10.9423
▁ವಿದೇಶಿ	-10.9424
▁વિગતો	-10.9424
▁ആവ	-10.9425
▁चोरी	-10.9425
ക്കുക	-10.9427
▁चंद	-10.9428
ാസ	-10.943
▁આવવા	-10.943
▁तू	-10.9431
▁ചേർന്ന	-10.9435
▁ದೀರ್ಘ	-10.9435
▁ಹಾಡು	-10.9436
▁नव्हती	-10.9436
▁ആയിരിക്കും	-10.9436
ಖಂಡ	-10.9436
▁રાખવામાં	-10.9437
▁म्हणत	-10.9437
▁ഇന്ത്യയിൽ	-10.9437
▁എട്ട്	-10.9438
▁ആവശ്യമില്ല	-10.9439
ક્ષણ	-10.944
▁ರಾಶಿ	-10.944
▁अडचणी	-10.944
▁ಲೋಕಸಭೆ	-10.9441
▁શકશે	-10.9442
▁ತಯಾರಿಸ	-10.9442
▁ಕೀ	-10.9444
▁ವಿವರಿಸ	-10.9445
▁ಪ್ರಾಣಿ	-10.9445
▁ಹೆಸರಿನಲ್ಲಿ	-10.9446
si	-10.9446
▁વિશ્વાસ	-10.9447
▁കാര	-10.9448
लिया	-10.9448
▁ഉള്പ്പെടെയുള്ള	-10.9448
▁ലോകത്തിലെ	-10.9449
▁शारीरिक	-10.9449
▁સમર્થન	-10.9451
▁સ્ટ	-10.9451
खे	-10.9451
▁സ്ഥലത്ത്	-10.9454
▁വരുന്നു	-10.9456
▁ಖರ್ಚು	-10.9456
▁કસરત	-10.9457
▁ഉപകരണം	-10.9458
▁घेण्यासाठी	-10.9458
▁छोड़	-10.9458
▁संघटना	-10.9459
▁ગુજરાતના	-10.9459
▁ಇವು	-10.946
ുമെല്ലാം	-10.946
▁આશા	-10.946
▁येत्या	-10.9461
▁याचे	-10.9463
▁ಚಿತ್ರೀಕರಣ	-10.9465
വയ	-10.9466
▁ಮೃತಪಟ್ಟ	-10.9467
ഘട്ട	-10.9471
▁ಇತರರು	-10.9471
▁പുരുഷ	-10.9472
▁വീട്ട	-10.9472
യ്ക്കെതിരെ	-10.9472
രായി	-10.9473
▁സർ	-10.9474
▁गाठ	-10.9474
▁ಎರಡ	-10.9474
▁सगळे	-10.9476
▁ಪ್ರತಿಭೆ	-10.9476
▁नियुक्त	-10.9476
फर	-10.9479
न्त	-10.948
साहेब	-10.9481
▁પોતે	-10.9482
രിച്ച	-10.9482
▁പുരസ്കാരം	-10.9483
▁ഇടതുപക്ഷ	-10.9484
▁അന്തിമ	-10.9484
था	-10.9485
व्हा	-10.9485
▁एकच	-10.9485
▁लाव	-10.9487
▁ಅಲ್	-10.9488
മാസ	-10.9488
ഷന്	-10.9488
▁त्यातून	-10.949
क्टर	-10.9491
▁ಬದಲಾಯಿಸ	-10.9492
▁ಆದ್ರೆ	-10.9492
▁ગાંધી	-10.9493
▁തന്ത്ര	-10.9493
▁ನೆಲ	-10.9494
ുന്നതായി	-10.9494
▁അഭിമാന	-10.9494
▁ನಿರ್ದೇಶನ	-10.9494
▁ಪ್ಲಾಸ್ಟಿಕ್	-10.9494
▁आलेले	-10.9495
▁बाबा	-10.9497
ip	-10.9497
▁ખુબ	-10.9498
▁जेवण	-10.9498
▁मानले	-10.95
▁फळ	-10.95
ka	-10.9501
▁આભાર	-10.9502
റ്റു	-10.9502
▁व्यापक	-10.9505
▁पाव	-10.9506
▁മത്സരത്തില്	-10.9507
▁झा	-10.9509
लेट	-10.9511
▁માટેની	-10.9511
સ્ટર	-10.9512
▁दोपहर	-10.9513
▁म्हणजेच	-10.9516
▁मंजूर	-10.9516
▁ಹವಾಮಾನ	-10.9516
▁സ്പ	-10.9517
▁ಪ್ರವೇಶಿಸ	-10.9517
એલ	-10.9517
▁no	-10.9518
▁വ്യക്തമാക്ക	-10.9518
മര	-10.9519
▁रक्षा	-10.9519
▁പുരസ്കാര	-10.9519
▁ಕೊನೆಯಲ್ಲಿ	-10.952
डल	-10.952
ಕೃತ	-10.952
▁മൊബൈൽ	-10.9521
▁ಪ್ರಕೃತಿ	-10.9522
▁ചട്ട	-10.9522
▁सू	-10.9522
▁ഇരട്ട	-10.9523
▁ದಂಪತಿ	-10.9524
▁कंपनियों	-10.9524
▁समुदाय	-10.9524
▁സെന്റ്	-10.9524
▁સત્તા	-10.9527
▁बाजारात	-10.9528
▁ಲಿಂಗ	-10.9532
▁ફી	-10.9533
▁ದುರ್ಬಲ	-10.9533
▁गरजेचे	-10.9535
▁ಉಲ್ಲೇಖಿಸ	-10.9536
▁ઘણો	-10.9537
▁मानवी	-10.9537
ಬಲ	-10.9538
ದಲ್ಲ	-10.9538
▁ಸೆಟ್	-10.9538
▁ઢ	-10.954
▁करनी	-10.9541
▁ನಡೆಸಿದ್ದಾರೆ	-10.9542
▁ಅಪ	-10.9542
രുതെന്ന്	-10.9543
▁ಬದಲಿಸ	-10.9547
▁ಬೇಕು	-10.9547
▁સંખ્યા	-10.9548
▁देखा	-10.955
▁ಎಲ್ಲಿ	-10.955
ક્શન	-10.9551
നിന്നും	-10.9551
िक्स	-10.9554
വര്ഷ	-10.9555
▁परिसरातील	-10.9556
▁सगळ्या	-10.9556
ലിൽ	-10.9556
ുകാർ	-10.9557
▁મળ્યા	-10.9557
▁करणार्या	-10.9559
▁ಪರಿಷತ್	-10.956
▁वर्षात	-10.9561
▁പൂജ	-10.9563
▁તાજેતરમાં	-10.9564
ಸುವ	-10.9564
▁વલણ	-10.9565
▁ಅಷ್ಟ	-10.9568
गन	-10.9569
▁अज	-10.9569
લેટ	-10.9571
സന്	-10.9572
▁പിന്നില്	-10.9572
▁ലളിതമായ	-10.9573
▁ഒന്നര	-10.9574
▁ओवर	-10.9574
▁സംയുക്ത	-10.9575
રિયા	-10.9575
ीवर	-10.9576
ുള്ളൂ	-10.9577
▁उतार	-10.9578
▁माग	-10.9578
▁ठाणे	-10.9578
▁पाहता	-10.9579
▁सां	-10.9579
ിസ്	-10.958
ાતા	-10.9581
▁કચેરી	-10.9583
ಯನ್ನ	-10.9585
▁मुलगी	-10.9586
ക്കെ	-10.9587
▁ગાંધીનગર	-10.9589
पल	-10.959
▁താമസിക്കുന്ന	-10.9591
▁സന്ദേശം	-10.9591
▁વિધાનસભા	-10.9592
ನಂತೆ	-10.9593
▁സര്വകലാശാല	-10.9594
▁വീഴ്ച	-10.9594
▁ಮಾಂಸ	-10.9596
▁ಸುರಕ್ಷಿತ	-10.9598
▁ವಿಧಿಸ	-10.9599
ाइट	-10.96
ലൈ	-10.96
രാജ്യ	-10.96
सार	-10.96
▁ಬಾಯಿ	-10.9601
കാലം	-10.9601
▁ಮರಳಿ	-10.9601
▁नौकरी	-10.9602
രഹിത	-10.9602
▁ડેટા	-10.9602
▁ಆಸ್ಪತ್ರೆಯಲ್ಲಿ	-10.9604
▁બાબતે	-10.9604
▁ಬದಲಾಗಿ	-10.9604
ದೇವ	-10.9604
ap	-10.9604
▁അഭി	-10.9605
▁മാറ്റിയ	-10.9606
▁પાસ	-10.9607
▁આપ્યું	-10.9608
വെക്ക	-10.9609
സ്മ	-10.9609
▁અવ	-10.9609
▁നദി	-10.961
▁ಅದರಲ್ಲೂ	-10.9612
ാനു	-10.9612
▁ಅನುಮತಿಸುತ್ತದೆ	-10.9612
ಜರ್	-10.9612
യേയും	-10.9613
▁കടക്ക	-10.9614
▁ನಿರ್	-10.9614
▁ಗೊತ್ತ	-10.9617
▁ट्र	-10.9617
▁പ്ലാസ്റ്റിക്	-10.9619
▁നേതൃത്വ	-10.9619
▁ಶಿಕ್ಷಕರ	-10.9621
▁ಖಾಲಿ	-10.9621
▁જીવનમાં	-10.9623
ತೋ	-10.9624
▁ಏರ	-10.9626
▁മന്ത്രാലയ	-10.9626
▁स्वामी	-10.9626
▁ದೇವಸ್ಥಾನ	-10.9628
▁मनोरंजन	-10.9629
▁ತರಲು	-10.963
▁થવાની	-10.9635
േൽ	-10.9635
▁दलित	-10.9635
▁ബുദ്ധി	-10.9638
रूप	-10.9639
▁ಅಭಿಮಾನಿಗಳು	-10.964
▁धमकी	-10.964
▁केन्द्र	-10.9641
▁പ്രതികരണ	-10.9642
▁ദേവസ്വം	-10.9643
▁തടസ്സ	-10.9645
ರಂತೆ	-10.9645
▁ಸಮಾರಂಭ	-10.9646
▁सार	-10.9646
▁ક્યારેક	-10.9646
▁സിങ്	-10.9649
▁निवडून	-10.965
ms	-10.9653
▁സമ്മേളനം	-10.9658
▁ശൈലി	-10.9661
▁બજેટ	-10.9662
▁ಜಗ	-10.9663
▁मीडियावर	-10.9663
▁പഠിച്ച	-10.9663
ाब	-10.9667
▁ജീവിക്ക	-10.9667
ાણ	-10.9667
▁മഞ്ജു	-10.9668
▁ಸರ್ಕಾರಕ್ಕೆ	-10.9668
▁അസ	-10.9669
▁प्रकाशित	-10.967
▁ಸಮಯವನ್ನು	-10.9671
കേന്ദ്ര	-10.9672
▁तंत्र	-10.9672
▁નીકળ	-10.9674
▁യുഡിഎഫ്	-10.9674
स्त्र	-10.9677
ക്കല്	-10.9677
▁ಶುಭ	-10.9678
ಸಿಂಗ್	-10.968
▁याला	-10.968
વુ	-10.968
▁ಕಾಲೇಜಿನ	-10.968
ंदर	-10.9683
▁दुष्काळ	-10.9684
▁રાષ્ટ્રપતિ	-10.9684
▁कोणतीही	-10.9686
▁ವಿಸ್ತರಣೆ	-10.9686
▁പ്രാധാന്യം	-10.9687
▁પીડા	-10.9689
▁ಒಳ್ಳೆಯದು	-10.969
▁मनोहर	-10.969
യന്	-10.969
▁बनाई	-10.9693
કરણ	-10.9693
▁വിദഗ്ധ	-10.9694
म्	-10.9694
ವಾರ	-10.9694
▁തൂ	-10.9695
ाइल	-10.9695
ियो	-10.9697
▁അതായത്	-10.9698
ചര	-10.9698
കളായി	-10.9699
પુ	-10.9699
ുപോക	-10.97
पि	-10.9701
िव	-10.9702
സിനെ	-10.9703
▁ತಾಲ್ಲೂಕು	-10.9705
▁ಮುಗಿದ	-10.9707
ಳ್	-10.9708
▁ಪಂಚಾಯತ್	-10.9708
െത്തുന്ന	-10.9708
▁ધન	-10.9709
▁शिफारस	-10.9711
▁चैनल	-10.9711
▁ചാനല	-10.9713
▁दुसर्या	-10.9714
▁ആരംഭിച്ചു	-10.9714
▁સમયથી	-10.9714
ജു	-10.9714
▁ઉમેદવાર	-10.9716
▁सेल	-10.9716
▁दशक	-10.9717
▁नेहमीच	-10.9718
▁બન્યા	-10.9719
▁നടക്കും	-10.972
▁ಮಠದ	-10.9721
ില്ലെങ്കില്	-10.9721
ોર	-10.9721
▁महत्त्वाचे	-10.9721
ണ്ഡ	-10.9724
व्य	-10.9725
୍ୟ	-10.9725
ढ़	-10.9727
▁मान्य	-10.9727
ke	-10.9727
▁આંતરરાષ્ટ્રીય	-10.9727
▁क्षण	-10.9728
▁ക്ലാസ്	-10.9732
▁ತಂದು	-10.9733
▁നിയമസഭ	-10.9734
▁सै	-10.9737
▁સ્ટાફ	-10.9737
▁अच्छे	-10.9738
▁ಮಾರ	-10.9738
▁താല്പര്യ	-10.9739
ല്യ	-10.9739
▁ಅರ್ಹ	-10.9739
▁പേരു	-10.974
▁सवार	-10.9741
इल	-10.9743
കള്ക്കും	-10.9744
▁ഉള്പ്പെടെ	-10.9744
ಮೆಂಟ್	-10.9745
▁ജീവനക്കാര	-10.9746
ଷ	-10.9749
▁छत्तीसगढ़	-10.9749
▁ಸೇವಿಸ	-10.9749
▁ಅಭಿಯಾನ	-10.975
▁थर	-10.975
तं	-10.9751
▁മണിക്കൂറ	-10.9753
▁അരി	-10.9754
▁અંતર્ગત	-10.9755
▁ശസ്ത്രക്രിയ	-10.9755
▁લીધે	-10.9755
▁लड़की	-10.9756
▁बॉलीवुड	-10.9757
▁com	-10.9758
▁തുടക്ക	-10.9759
▁സഹായിക്കും	-10.9759
▁ವರ್ಗದ	-10.976
▁रशियन	-10.976
▁എളുപ്പ	-10.9761
ുകളിലെ	-10.9762
പ്രദേശ	-10.9762
ുമ്പോഴാണ്	-10.9762
▁ગણ	-10.9763
▁સપ્તાહ	-10.9763
ग्न	-10.9765
▁ಪೀಠ	-10.9765
▁ಅಸಾಧ್ಯ	-10.9766
മൂ	-10.9768
્સમાં	-10.9768
▁മറ്റ	-10.9771
▁ભોજન	-10.9771
▁सामन्यात	-10.9772
्यांना	-10.9772
લ્લ	-10.9773
▁ટ્ર	-10.9774
િટી	-10.9774
▁നേതൃത്വത്തിൽ	-10.9775
സല്	-10.9776
▁ഏകദിന	-10.9776
▁असतं	-10.9778
ಲಿರುವ	-10.9779
▁ઇતિહાસ	-10.9779
▁મૂળભૂત	-10.978
▁तार	-10.978
▁നമ്മള്	-10.9781
▁അട	-10.9781
▁આકાર	-10.9783
▁कपडे	-10.9784
▁ऑफर	-10.9785
▁प्रदेशाध्यक्ष	-10.9786
▁फुट	-10.9788
▁ചേ	-10.979
▁ઘટાડવા	-10.9791
പെ	-10.9791
▁ભાર	-10.9792
▁पीछे	-10.9796
▁ഒടുവിൽ	-10.9796
ni	-10.9798
गंज	-10.9798
▁അധ്യക്ഷ	-10.98
▁ഫൈ	-10.98
▁സത്യം	-10.9801
▁വസ്തുക്കൾ	-10.9801
▁video	-10.9802
▁સમયગાળા	-10.9802
▁કહેવાય	-10.9802
ಯಾದರೂ	-10.9803
▁ಚೀನಾ	-10.9806
ळकर	-10.9807
▁ઉંમર	-10.9807
▁അദ്ദേഹത്തിന്	-10.9808
▁पदक	-10.981
▁ಉಸ್ತುವಾರಿ	-10.9813
▁ನೆಲದ	-10.9814
▁विरुद्ध	-10.9815
▁കുടുംബം	-10.9816
▁બનવા	-10.9817
▁ದುಬಾರಿ	-10.9818
▁ഫോണ്	-10.9818
▁ರಜೆ	-10.9819
ിനാണ്	-10.982
▁ಮಿಶ್ರಣ	-10.982
▁દર્શન	-10.9821
▁રીત	-10.9824
▁ಆನಂದ	-10.9825
▁हरकत	-10.9825
ಾತ್ಮಕ	-10.9826
തിരി	-10.9826
പ്പെടുത്തി	-10.9828
ಲ್ಪಡುತ್ತದೆ	-10.9828
▁રન	-10.9829
ांसह	-10.9829
▁ಎತ್ತಿ	-10.9829
▁प्लास्टिक	-10.9829
્લ	-10.9832
▁नाग	-10.9833
▁രവി	-10.9833
િસ્ટ	-10.9834
ಲಿವೆ	-10.9834
ઘા	-10.9836
▁ವರ	-10.9836
નારા	-10.9836
य़ा	-10.9836
ಾದ್ಯಂತ	-10.9837
▁ठिकाण	-10.9839
▁സർക്കാരിന്റെ	-10.9841
ധ്യ	-10.9841
▁उर	-10.9843
▁ഒട്ടേറെ	-10.9846
▁ಪಂಚ	-10.9847
ವಿರ	-10.9847
▁ഫോണ	-10.9847
▁વધ	-10.9847
બો	-10.9849
pe	-10.985
▁ಯುವಕ	-10.985
▁ಅಧಿಕಾರಿಗಳಿಗೆ	-10.9851
ിക്കൽ	-10.9852
ेक	-10.9852
र्ण	-10.9855
▁शेवटी	-10.9855
▁હાઇ	-10.9858
▁सर्	-10.9859
▁ಸ್ನಾನ	-10.986
▁ശ്രീലങ്ക	-10.986
▁ಆವರಣದಲ್ಲಿ	-10.986
▁തെരുവ	-10.9861
▁ಹಾಲು	-10.9862
ಡ್ಡಿ	-10.9862
പ്രവർത്തിക്കുന്ന	-10.9865
િયર	-10.9865
▁പേജ	-10.9865
્ર	-10.9867
ಹೊ	-10.987
▁ഫ്ര	-10.987
પલ	-10.9871
▁ಬಂಡವಾಳ	-10.9871
▁ರಾಸಾಯನಿಕ	-10.9871
▁നിരീക്ഷണ	-10.9872
un	-10.9872
નની	-10.9874
▁ಹಚ್ಚ	-10.9874
▁ತೀರ	-10.9874
▁കൊല	-10.9874
▁സ്കൂള	-10.9875
▁જેઓ	-10.9876
▁രുചി	-10.9876
▁ഇന്നു	-10.9877
ेन्द्र	-10.9878
ાયો	-10.9878
ಬೇ	-10.9879
ाबद्दल	-10.988
▁സംശയം	-10.988
▁ભાવનગર	-10.988
▁किलोमीटर	-10.9882
મ્બ	-10.9882
▁जाम	-10.9882
ણે	-10.9882
▁ಹೊರತುಪಡಿಸಿ	-10.9883
▁माना	-10.9886
ರವರು	-10.9887
▁दिसते	-10.9887
▁રાહુલ	-10.9888
▁અમલ	-10.9888
रत	-10.9889
್ರೆ	-10.9889
▁ഉടനെ	-10.9889
▁ಧನ	-10.9891
एससी	-10.9892
▁कोसळ	-10.9892
പ്പാട	-10.9892
▁ઉપચાર	-10.9894
▁മാര്	-10.9894
▁ರಸ್ತೆಯ	-10.9894
▁ಲೋ	-10.9895
▁કર્મચારી	-10.9896
कृत	-10.9898
▁എന്ത	-10.9898
▁ಕಲಿಯ	-10.9901
▁ಔಟ್	-10.9902
▁സാമ	-10.9903
▁ഒരിക്കൽ	-10.9905
▁समर्थक	-10.9905
ാവശ്യപ്പെട്ട്	-10.9907
▁ನೀಡಿದ್ದ	-10.9907
▁સેના	-10.9908
▁ಮುಖಂಡರು	-10.9909
▁അതിക്രമ	-10.9911
▁आराम	-10.9911
▁कही	-10.9912
▁ખેડૂતો	-10.9912
▁ಚಿನ್ನದ	-10.9912
▁ವಹಿಸಿ	-10.9912
▁അക്ഷര	-10.9915
ಾಡಿ	-10.9917
▁फंड	-10.9917
ലൂ	-10.9918
▁પ્રશ્નો	-10.9918
▁वेगळे	-10.9919
रिक	-10.9919
▁ಅನ್ವಯ	-10.9924
ಭಾಗ	-10.9924
▁पाठ	-10.9925
▁ಎಂದಿದ್ದಾರೆ	-10.9925
▁ഗൗരവ	-10.9927
▁ഇറങ്ങി	-10.9929
▁સંભાળ	-10.9929
▁കോടിയേരി	-10.9929
धन	-10.9931
▁करणारा	-10.9931
▁जगत	-10.9933
▁ശക്തമായി	-10.9933
▁അറിയപ്പെടുന്ന	-10.9933
दास	-10.9936
ાત્મક	-10.9936
▁തിരക്കഥ	-10.9937
▁કમ્પ્યુટર	-10.9938
▁ಉತ್ಪನ್ನಗಳ	-10.9938
▁ആകെ	-10.9939
▁സ്വപ്നം	-10.9939
ಲಾಗುವುದಿಲ್ಲ	-10.994
ഭരണ	-10.994
▁પ્રમાણમાં	-10.9941
ಷಾ	-10.9941
▁સાઇટ	-10.9941
▁ಫೆ	-10.9942
താണെന്ന്	-10.9943
▁ಗೊತ್ತಿಲ್ಲ	-10.9945
▁ಉತ್ಸಾಹ	-10.9946
▁જામનગર	-10.9946
▁સંગીત	-10.9946
ാമെന്ന	-10.9947
▁വൈറസ്	-10.9947
▁അടുപ്പ	-10.9949
▁ആറ	-10.9949
▁પાક	-10.995
म्म	-10.9951
▁मिनट	-10.9952
▁माणूस	-10.9955
ಗೊಳಿಸಿ	-10.9955
▁ધર	-10.9956
ೇಗೌಡ	-10.9957
▁સાબિત	-10.9957
▁हाई	-10.9959
▁ചിന്തിക്ക	-10.996
▁നിർബന്ധ	-10.9962
▁हैदराबाद	-10.9963
▁म्हटलं	-10.9963
▁ചടങ്ങില്	-10.9964
ांकडे	-10.9965
್ತಿ	-10.9966
▁പ്രയാസ	-10.997
▁ദിലീപ്	-10.997
▁ઘણીવાર	-10.997
▁सांगण्यात	-10.9972
▁ವರ್ಣ	-10.9972
▁ನಿಮಿಷ	-10.9974
ക്കിടെ	-10.9979
▁पुरवठा	-10.998
താവ	-10.998
▁തൊഴിലാളി	-10.9982
▁കുട്ടികള	-10.9983
▁गौरव	-10.9985
▁po	-10.9985
▁ಭ್ರಷ್ಟಾಚಾರ	-10.9985
▁നയിച്ച	-10.9986
▁उज	-10.9986
▁ತಜ್ಞರು	-10.9986
▁मुख्यालय	-10.9987
പ്രതി	-10.9987
▁टाळ	-10.9987
▁फिलहाल	-10.9988
▁उत्पादने	-10.999
▁दूसरा	-10.9991
ત્ત	-10.9992
▁ആചാര	-10.9992
▁તાલુકાના	-10.9993
▁મૃત્યુ	-10.9994
▁ಸೂರ್ಯ	-10.9994
▁उत्पाद	-10.9996
▁कौन	-10.9999
▁किंमत	-10.9999
▁बाकी	-11
▁ಮೂವರು	-11
▁ಜೀ	-11.0002
▁പുതു	-11.0002
क्षा	-11.0003
▁સબ	-11.0004
િકલ	-11.0009
▁അവളെ	-11.0009
▁अंक	-11.001
ിലെത്തിയ	-11.0012
પણે	-11.0012
▁ಕ್ರೀಡೆ	-11.0014
▁ലഹരി	-11.0014
ತಿಯ	-11.0014
▁ನೀಡಲಾಗುತ್ತದೆ	-11.0015
▁ತ್ರಿ	-11.0017
▁ಕಸ	-11.002
▁मते	-11.0021
▁ಪಾದ	-11.0022
▁દેવા	-11.0022
ોન	-11.0023
ർണ	-11.0023
▁കമ്പനിയുടെ	-11.0024
മായാണ്	-11.0025
આઈ	-11.0026
▁निजी	-11.0027
▁ಮತ್ತ	-11.0027
റിനെ	-11.0028
▁जिन	-11.0028
ക്കെതിരേ	-11.003
▁വിശ്വസിക്ക	-11.003
▁തി	-11.0032
ുത്ത	-11.0033
ॉट	-11.0037
▁ವಿದ್ಯಾ	-11.0037
▁ಪರ್ಯಾಯ	-11.0037
ઝી	-11.0039
ര്യ	-11.0039
▁ಮೂರ್ತಿ	-11.004
ડુ	-11.0041
▁കാണുന്നത്	-11.0043
▁ಮರಳ	-11.0043
നാട്	-11.0044
▁ભાષા	-11.0045
ત્વ	-11.0047
वें	-11.0048
▁લાગી	-11.0049
▁पाहून	-11.005
കുമാറ	-11.005
▁दररोज	-11.005
ലുകൾ	-11.0051
▁શાળા	-11.0052
ാകട്ടെ	-11.0056
▁મળવા	-11.0056
▁વિશિષ્ટ	-11.0056
ುತ್ತಿದ್ದೇವೆ	-11.0056
വേള	-11.0057
▁म्हण	-11.0058
▁ചുരുക്ക	-11.0059
▁പാര	-11.0061
▁ଏହା	-11.0061
▁യൂ	-11.0061
▁આરામ	-11.0062
▁कार्यकर्ते	-11.0065
▁ഇതിനായി	-11.0066
▁न्यू	-11.0066
ിയ്ക്ക	-11.0068
▁വയ്ക്ക	-11.0068
▁भक्त	-11.0069
▁सहन	-11.0069
ೆಂದರೆ	-11.007
▁हिस्सा	-11.007
ंडी	-11.0071
ಮಯ	-11.0071
തീ	-11.0071
▁बसला	-11.0072
▁ഇപ്പോഴത്തെ	-11.0072
▁जोड़	-11.0073
▁व्य	-11.0077
ापर्यंत	-11.0077
▁સુપર	-11.0077
▁ಜಾಗತಿಕ	-11.0079
▁ફ્લ	-11.0079
▁दगड	-11.0081
▁અહેવાલ	-11.0081
▁વિસ્તારોમાં	-11.0082
▁ജീവന	-11.0082
▁ಗಮನಿಸಿ	-11.0082
▁കേസിലെ	-11.0083
ाड	-11.0083
പതി	-11.0083
▁જવાબદાર	-11.0084
▁फल	-11.0085
▁कृषि	-11.0086
▁આઠ	-11.0086
▁ಗಾಯಗೊಂಡ	-11.0087
▁ಕಾಮ	-11.0087
ഭാഷ	-11.0087
▁ഐക്യ	-11.0089
വിട്ട	-11.0089
▁પૂર	-11.0089
▁ಚರ್ಚಿಸ	-11.0092
▁സാഹചര്യത്തിലാണ്	-11.0092
ದಾನ	-11.0093
▁ഉൾപ്പെടുന്നു	-11.0095
स्ती	-11.0096
▁ಅಂತಿಮವಾಗಿ	-11.0096
▁वर्मा	-11.0096
▁ജനിച്ച	-11.0097
▁മേഖലയിൽ	-11.0098
▁കണ	-11.01
ില്നിന്ന്	-11.01
ിട്ടുണ്ടെന്നും	-11.0101
▁നിർമ്മിച്ച	-11.0101
▁कोणी	-11.0102
▁फरार	-11.0103
▁માનસિક	-11.0104
▁ತೆಗೆದುಕೊಳ್ಳಲು	-11.0106
▁પહેર	-11.0108
ಯಂ	-11.0109
▁ತೊಡಗ	-11.011
▁तमाम	-11.011
▁വള	-11.0115
▁ಕಳೆದುಕೊಳ್ಳ	-11.0115
ടിച്ച	-11.0115
ಾನ್	-11.0116
उन	-11.0116
▁അവന്	-11.0116
ાદ	-11.0118
▁अगस्त	-11.012
▁पातळीवर	-11.0121
▁ಪ್ರಾರಂಭ	-11.0122
▁പോലീസ	-11.0122
▁हार	-11.0122
र्व	-11.0124
▁ಕತ್ತರಿಸಿ	-11.0126
▁ലേ	-11.0127
▁ಬಾರ್	-11.0128
▁ರೂಪಾಯಿ	-11.0128
ष्ठ	-11.0129
▁કંઈક	-11.0129
ಉ	-11.0129
ഖ്യ	-11.013
ന്മാരുടെ	-11.013
▁എയര്	-11.0132
િડ	-11.0135
▁ವಿಚಾರದಲ್ಲಿ	-11.0135
લાલ	-11.0135
ുമുള്ള	-11.0136
▁se	-11.0136
ंडे	-11.0138
▁फ्ल	-11.0138
▁പ്രധാനമാണ്	-11.014
में	-11.0141
▁ವೆ	-11.0142
ವಾಗಿಲ್ಲ	-11.0142
▁વય	-11.0144
▁झालेला	-11.0145
▁वाजता	-11.0145
ോപ	-11.0146
മാർക്ക്	-11.0146
▁सहायता	-11.0147
▁खुश	-11.0149
▁ಸೇ	-11.0151
▁സംഭവിക്ക	-11.0153
▁പ്രഖ്യാപിച്ചു	-11.0155
▁കടന്ന	-11.0155
▁मुंबईतील	-11.0156
സൂ	-11.0156
▁ഘടകങ്ങൾ	-11.0157
▁સભ્ય	-11.0158
▁മനുഷ്യാവകാശ	-11.0159
ುವವರು	-11.0159
▁ದಿನಾಂಕ	-11.0159
▁सुधारणा	-11.0159
▁ಗುಣಮಟ್ಟ	-11.0159
शिवाय	-11.016
▁ಪೂರೈಸ	-11.016
▁ഇത്തരത്തില്	-11.0161
▁ઓપરેશન	-11.0161
▁പങ്കാളി	-11.0163
▁ઉલ્લેખનીય	-11.0164
▁ജീവിതത്തിൽ	-11.0165
▁विधि	-11.0165
▁പ്രദേശത്ത്	-11.0166
▁ઓફિસ	-11.0166
▁തയ്യാറാക്കിയ	-11.0168
▁रहती	-11.017
▁सुनिश्चित	-11.017
▁തെറ്റായ	-11.0171
चक	-11.0171
▁ಮೂಲಗಳು	-11.0172
▁അടിസ്ഥാനമാക്കി	-11.0173
▁നിര്	-11.0175
ളള	-11.0177
▁एसटी	-11.0178
പേര	-11.0178
सीन	-11.0178
▁ಶ್ರಮ	-11.0178
ഗി	-11.0178
षा	-11.018
ोस	-11.018
▁ನಿರಾಕರಿಸ	-11.0181
बंदी	-11.0182
▁त्यांच्यावर	-11.0182
▁मनोज	-11.0183
▁ഡൽഹി	-11.0187
▁ಸೃಷ್ಟಿ	-11.0187
▁ಹಿನ್ನೆಲೆ	-11.0187
▁ವ್ಯಾ	-11.0189
હો	-11.0189
▁സംഘര്ഷ	-11.019
▁अकाउंट	-11.019
▁ಶುಲ್ಕ	-11.019
▁घेतल्या	-11.0195
▁ಟ	-11.0195
▁വില്ല	-11.0195
ിപ്പിച്ചു	-11.02
▁ಶೋ	-11.0202
ાયેલ	-11.0203
▁ഓൺലൈൻ	-11.0204
ce	-11.0205
▁મુદ્દે	-11.0207
▁ફોર	-11.0207
▁જાણકારી	-11.0208
▁പ്രവര്ത്തിച്ച	-11.0211
▁મળ્યો	-11.0211
▁थक	-11.0211
▁ममता	-11.0211
ക്കുകയും	-11.0212
▁ಹಬ್ಬದ	-11.0212
▁ಉಳಿಯ	-11.0213
▁നോക്കിയ	-11.0214
सल	-11.0214
▁ಸ್ಥಳಗಳಲ್ಲಿ	-11.0215
ನಿಕ್	-11.0216
ಕ್ಷಣ	-11.0216
ायचं	-11.0216
▁ಮನುಷ್ಯನ	-11.0218
▁സ്ത്രീകള്	-11.0218
▁ഓട	-11.0218
▁मतदारसंघात	-11.0218
ರದ	-11.0218
ക്കിട	-11.0219
▁ಬೆಂಬಲಿಸ	-11.022
અર	-11.0221
▁खाद्य	-11.0222
▁ચેક	-11.0223
▁ತೀರ್ಮಾನ	-11.0223
▁ಮಿತಿ	-11.0225
▁ಸೂ	-11.0226
▁കോടതിയിൽ	-11.0227
▁सुनावणी	-11.0227
▁मेट्रो	-11.0227
▁രാഷ്ട്രപതി	-11.0228
▁ಟಾ	-11.0229
▁पाने	-11.023
▁കൊണ്ടാണ്	-11.023
▁ಇಬ್ಬರ	-11.0231
▁चिंता	-11.0231
ವೊ	-11.0232
▁प्रवक्ता	-11.0233
▁એકબીજા	-11.0233
▁ಪಟ್ಟಿಯಲ್ಲಿ	-11.0235
▁ಪ್ರಾದೇಶಿಕ	-11.0236
▁पर्यंत	-11.0236
▁छोटे	-11.0238
▁ಗ್ರಾ	-11.0241
तरी	-11.0241
▁കയ്യ	-11.0243
്പ	-11.0243
▁सन	-11.0243
മാരായ	-11.0244
ोज	-11.0247
▁जनते	-11.0247
▁रोख	-11.0248
▁ഓർമ്മ	-11.0248
വാല	-11.0248
▁સાફ	-11.025
▁वारंवार	-11.025
ki	-11.025
▁ಹಸಿ	-11.0253
▁ಶಿವಮೊಗ್ಗ	-11.0253
ക്കുവേണ്ടി	-11.0256
हू	-11.026
ધુ	-11.0261
ിക്കും	-11.0261
ંધ	-11.0262
▁പ്രതിനിധി	-11.0262
▁വിഷയത്തിൽ	-11.0263
മുണ്ടാക	-11.0263
▁ಕಾರ್ಯಕ್ರಮವನ್ನು	-11.0266
▁प्रदर्शित	-11.0268
▁ಕೊಲ್ಲ	-11.0268
ദര്	-11.0269
▁ಖುಷಿ	-11.0269
▁ഇതിനിടെ	-11.0271
▁निवडणुकीच्या	-11.0273
▁उत्तराखंड	-11.0274
▁കുഞ്ഞ	-11.0274
▁പകര	-11.0279
▁તાપમાન	-11.0279
▁નિયમિત	-11.028
▁दृश्य	-11.0282
▁ആകുന്നു	-11.0282
▁परंपरा	-11.0282
▁ಆದರ್ಶ	-11.0282
▁औरंगाबाद	-11.0282
ಿರಲಿ	-11.0282
बु	-11.0283
മാണെന്ന	-11.0286
ರೆಯ	-11.0286
ಚಾರ	-11.0287
ंबा	-11.0288
ത്തേ	-11.0289
▁ಹೊತ್ತ	-11.0291
▁પુ	-11.0292
▁ಮಾತ್ರವಲ್ಲ	-11.0293
▁बाजू	-11.0294
▁ഡോക്ടർ	-11.0294
ko	-11.0295
▁मिलेगा	-11.0295
▁સુરક્ષિત	-11.0297
▁ವ್ಯಾಪ್ತಿಯಲ್ಲಿ	-11.0297
▁ദാ	-11.0303
▁ಪ್ರಶ್ನೆಗೆ	-11.0303
▁വയസ	-11.0304
▁ಇರಿಸ	-11.0305
▁ಹಾಗು	-11.0307
▁जोशी	-11.0308
▁ಸಮಾನ	-11.0309
गिरी	-11.031
▁സംസാരിച്ച	-11.0311
▁ചായ	-11.0311
▁ಕ್ಲಬ್	-11.0312
▁ശേഷി	-11.0313
ീകരണ	-11.0314
▁दिस	-11.0314
ദാന	-11.0314
▁ആകാശ	-11.0314
▁ಅಳ	-11.0315
▁കാലാവസ്ഥ	-11.0315
▁പറ്റ	-11.0317
▁सांस्कृतिक	-11.0317
▁पाहायला	-11.0317
▁ಪ್ರಾಣ	-11.0321
ುವಂತಿಲ್ಲ	-11.0322
ಗರ್	-11.0323
▁ചോദിക്ക	-11.0324
▁मार्केट	-11.0324
▁भागातील	-11.0324
▁शायद	-11.0326
രാവ	-11.0327
ev	-11.0328
▁कॉंग्रेस	-11.0328
▁બિલ	-11.0329
▁പരിസര	-11.0329
▁ಸುಳ್ಳು	-11.0331
▁दत्त	-11.0331
▁ಬಳಸಿಕೊಳ್ಳ	-11.0331
▁અચાનક	-11.0332
▁अनुकूल	-11.0332
ગઢ	-11.0334
्रो	-11.0335
▁വക	-11.0339
▁ನಿಧಾನವಾಗಿ	-11.0339
ിയാണ്	-11.0339
ಂಚ	-11.034
▁സ്ഥാനാർത്ഥി	-11.034
कन	-11.0341
्हे	-11.0342
▁ಮಾಡಿದ್ದರು	-11.0342
▁ವೇಗವಾಗಿ	-11.0343
▁കാണിച്ച	-11.0343
▁ശാന്ത	-11.0343
▁पाळ	-11.0344
ആർ	-11.0344
▁ಶಾಂತ	-11.0345
▁कब	-11.0345
▁ರೈತರಿಗೆ	-11.0345
▁લોકોની	-11.0347
▁വിതരണ	-11.0349
દો	-11.0351
▁ನೆರವು	-11.0354
▁ಜಾಲ	-11.0355
ിഷ്ട	-11.0357
▁जगातील	-11.0359
▁വിഷമ	-11.0359
ದ್ಯ	-11.0359
▁पेपर	-11.036
▁घुस	-11.0361
्ह	-11.0362
▁സ്ഥാനാര്ത്ഥി	-11.0364
રૂપ	-11.0365
▁വിദ്യാര്ത്ഥി	-11.0366
▁ವೈದ್ಯ	-11.0366
▁കുട്ടിയുടെ	-11.0366
▁ಅವಧಿ	-11.0367
▁नोट	-11.0369
▁ટ્રાફિક	-11.0369
▁മന്ത്രിസഭ	-11.037
▁શોધી	-11.037
ಲಾಗ	-11.0371
લુ	-11.0371
ನಾಳ	-11.0372
▁sa	-11.0373
▁परिषदेत	-11.0374
ab	-11.0376
▁ಇಂಟರ್ನೆಟ್	-11.0378
▁ഉറപ്പുവരുത്ത	-11.0378
▁പ്രത്യേകം	-11.0378
ബെ	-11.0379
▁દેખાય	-11.0379
▁ಪದೇ	-11.038
▁लढ	-11.0382
▁टिकट	-11.0382
▁ମଧ୍ୟ	-11.0383
▁ಛ	-11.0383
▁ಸಿಹಿ	-11.0384
▁રાષ્ટ્ર	-11.0386
▁ವಿದೇಶ	-11.0388
▁നീര	-11.0389
▁ഇത്ര	-11.039
શ્રી	-11.0391
▁പ്രവേശനം	-11.0392
ाक	-11.0392
▁ಲೇಖಕ	-11.0393
ಮೂರ್ತಿ	-11.0394
▁कशी	-11.0394
व्ही	-11.0395
▁હેતુ	-11.0396
▁യോഗ്യത	-11.0397
▁कोणताही	-11.0398
▁ഷൂ	-11.0398
▁पाल	-11.04
्ट	-11.04
▁हवामान	-11.04
▁ಹೊಟ್ಟೆ	-11.0401
▁ശബ്ദം	-11.0402
▁ಮೃತ	-11.0405
▁പിള്ള	-11.0406
▁ಹಾಸನ	-11.0406
▁ಕಣ್ಣ	-11.0408
ദര്ശന	-11.0408
ೀರ್	-11.0409
▁लड़	-11.0411
▁સ્ત્રી	-11.0412
ರಾಗಿದ್ದ	-11.0412
भाव	-11.0414
ul	-11.0416
▁വളര്ച്ച	-11.0417
▁રાખીને	-11.0417
ര്ക്ക്	-11.0418
▁जरी	-11.042
વડ	-11.0422
▁വരുമാന	-11.0422
▁to	-11.0423
वरुन	-11.0424
ापूर	-11.0425
▁જનતા	-11.0426
▁લોન	-11.0426
ಿಸಲಾಗಿದೆ	-11.0428
▁राऊत	-11.0428
ಿಯನ್ನು	-11.043
ಾಸ್	-11.0431
ವಾದರೂ	-11.0432
▁ಶ್ರೇಷ್ಠ	-11.0434
ഞ്ജ	-11.0434
▁दुसरीकडे	-11.0435
mp	-11.0435
ಫರ್	-11.0436
▁सहकार्य	-11.0436
▁സമാ	-11.0437
ಲ್ಲೆ	-11.0437
▁પુર	-11.0438
▁खालील	-11.0439
▁हेच	-11.0439
▁ಹಣ್ಣು	-11.0441
ಿಕೊಳ್ಳಲು	-11.0442
▁सिटी	-11.0442
▁ब्लॉग	-11.0443
ರ್ಟ್	-11.0446
▁ലീഗ	-11.0447
▁സിപിഎമ്മ	-11.0448
▁ಬ್ರಹ್ಮ	-11.0448
കൾക്കും	-11.0448
▁ಕೃತ್ಯ	-11.0449
▁ઓનલાઇન	-11.0449
ेर	-11.045
▁કાશ્મીર	-11.045
ുവെന്നും	-11.045
യാണ	-11.045
സമിതി	-11.0451
રની	-11.0451
▁સજા	-11.0451
ുടെയും	-11.0452
▁बचत	-11.0452
▁રોક	-11.0453
▁ജനകീയ	-11.0455
▁ಅವುಗಳು	-11.0456
▁असो	-11.0457
ಟ್ರಿ	-11.0457
▁એવો	-11.0457
▁നിമിഷ	-11.0457
▁ಮಾಡುವಾಗ	-11.0458
▁વ્યાપક	-11.0458
▁ફ્ર	-11.0459
સમ	-11.0459
हम	-11.0461
ಳಿಯ	-11.0462
▁ചിലര്	-11.0463
ೆಗೆ	-11.0466
साथ	-11.0466
ांग	-11.0466
▁ಉದ್	-11.0467
ಫೆ	-11.0467
▁મૂકી	-11.0468
▁ಹೂಡಿಕೆ	-11.0468
િક્સ	-11.047
▁ಅನ	-11.047
▁એરપોર્ટ	-11.047
▁ന്യൂഡൽഹി	-11.0472
▁संगणक	-11.0472
▁सैनिक	-11.0473
▁ઉપયોગમાં	-11.0474
▁ಜಾನಪದ	-11.0475
▁अधिकृत	-11.0476
ുണ്ടാകുന്ന	-11.0476
▁विशेषज्ञ	-11.0477
▁સંગઠન	-11.0478
▁ಜಗತ್ತಿನ	-11.0478
▁पड़ता	-11.0478
▁यानंतर	-11.0478
▁मात	-11.0479
नर	-11.0482
्री	-11.0482
▁നേതാക്കൾ	-11.0484
▁सल्ला	-11.0484
▁തെരഞ്ഞെടുക്ക	-11.0485
▁താത്പര്യ	-11.0486
രേഖ	-11.0486
▁ഉറപ്പു	-11.0486
ೆಂದು	-11.0486
कोट	-11.0487
▁लॉन्च	-11.0487
▁ಕಾರ್ಮಿಕ	-11.0487
▁നടൻ	-11.049
▁आकाश	-11.049
▁വിജയിച്ച	-11.049
▁ಉದ್ದೇಶದಿಂದ	-11.049
▁പോളി	-11.0492
▁ಪೂರೈಕೆ	-11.0492
വാഹ	-11.0493
रस	-11.0493
▁कार्यवाही	-11.0493
▁આજ	-11.0493
▁ठेवण्यात	-11.0494
▁സമര്പ്പിക്ക	-11.0496
▁ഭരണം	-11.0496
▁थंड	-11.0496
ക്കുട്ടി	-11.0498
▁काढले	-11.0499
▁निर्धारित	-11.0499
▁ವಿಷಯಗಳ	-11.0501
▁आं	-11.0501
દીપ	-11.0501
▁ನಾಶ	-11.0501
▁પરિણામો	-11.0502
▁दिखा	-11.0503
▁सदस्यों	-11.0504
▁ವಾಯು	-11.0504
▁എക്സ്	-11.0505
ದಿನ	-11.0505
▁രചന	-11.0505
▁ડા	-11.0506
▁ഇക്കാര്യത്തില്	-11.0507
da	-11.051
▁થોડી	-11.0511
▁ಯೋಜನೆಯನ್ನು	-11.0511
▁हेतु	-11.0511
ದತ್ತ	-11.0514
▁ವಿಮರ್ಶೆಗಳು	-11.0514
▁ആരംഭിക്ക	-11.0515
▁बच्चन	-11.0517
▁સ્વાસ્થ્ય	-11.0517
മാണ	-11.0517
▁वास्तविक	-11.0518
▁ഇടം	-11.0519
ಗಾರರು	-11.052
▁വെളിപ്പെടുത്ത	-11.052
ક્ટ	-11.0525
ry	-11.0525
▁ಕಾರಣವಾಗಬಹುದು	-11.0525
▁ತಡೆ	-11.0528
ಲಿನ	-11.0529
▁जवळजवळ	-11.0529
▁നഷ്ടപ്പെട	-11.0529
ುತ್ತಿದ್ದಂತೆ	-11.0529
co	-11.0529
▁വ്യത്യസ്തമായ	-11.053
▁മെച്ചപ്പെടുത്ത	-11.0531
मुक्त	-11.0531
▁അയ	-11.0533
ઠા	-11.0533
▁പൊടി	-11.0534
▁ഗു	-11.0535
▁മുന്പ	-11.0537
▁भव्य	-11.0537
ക്കള	-11.0538
▁മുത്ത	-11.0539
ിലോ	-11.0539
▁നിരക്ക്	-11.054
ാനാകില്ല	-11.0541
▁तकनीक	-11.0541
▁वाढव	-11.0542
▁वेब	-11.0544
▁મારફતે	-11.0545
▁പറ്റിയ	-11.0545
▁അയാള്	-11.0546
▁एअर	-11.0547
▁અંતર	-11.0547
▁ಸಂವಿಧಾನ	-11.0549
▁मिळाला	-11.0549
▁ರೈಲ್ವೆ	-11.0549
▁സ്കൂളുകള	-11.0549
▁મતદાન	-11.0549
▁तोंड	-11.055
ಗಣ	-11.055
▁રાજય	-11.055
▁ಹಾರ	-11.0551
▁ഉറപ്പ	-11.0551
▁ಪಕ್ಷಗಳ	-11.0551
▁नेताओं	-11.0551
टिंग	-11.0551
▁ವಿಷಯವನ್ನು	-11.0552
▁ಮಲ	-11.0552
▁करण्या	-11.0554
▁നോ	-11.0557
▁റീ	-11.0557
▁പതിവ	-11.056
▁കടല	-11.0561
▁उद्देश्य	-11.0561
▁સૂર્ય	-11.0561
▁ಶಾಲೆಯಲ್ಲಿ	-11.0562
▁અમારી	-11.0562
▁പ്രവർത്തകർ	-11.0562
▁ಮಾಡಲಾಯಿತು	-11.0563
▁മരിച്ചത്	-11.0566
▁ಸತ್ತ	-11.0567
▁the	-11.0567
▁ഇറങ്ങിയ	-11.0572
▁કાર્યક્રમો	-11.0572
ೀರ	-11.0573
▁વાતાવરણ	-11.0573
▁માગ	-11.0573
▁अपील	-11.0576
▁संतोष	-11.0576
▁ತೆಗೆದುಹಾಕ	-11.0577
ക്ടറ	-11.058
▁താഴ	-11.058
ുകയെന്ന	-11.0582
▁മണിക്കൂർ	-11.0582
▁रणनीति	-11.0582
▁माहीत	-11.0585
ಬರ್	-11.0585
▁എതിരാളി	-11.0585
ಿಸುವುದು	-11.0586
▁ഫ്ല	-11.059
▁ಶವ	-11.059
▁भुगतान	-11.0591
▁ಗರಿಷ್ಠ	-11.0591
▁യൂണിവേഴ്സിറ്റി	-11.0591
ണോ	-11.0592
▁വളര്ത്ത	-11.0592
▁ಹೀಗ	-11.0593
▁सुद्धा	-11.0594
▁मुलगा	-11.0594
▁പറയാൻ	-11.0596
▁પર્યાવરણ	-11.0597
ગ્ર	-11.0597
ദ്ദ	-11.0597
▁ഉണ്ടാക്കിയ	-11.0597
▁മധുര	-11.0597
▁ಶಾಖ	-11.0597
▁લાગણી	-11.0598
▁ದೇವರು	-11.0598
▁સ્વાદ	-11.0599
▁ಕ್ರಿ	-11.0599
▁ಮೆರವಣಿಗೆ	-11.06
▁मॉडल	-11.06
ഈ	-11.0601
▁ಮನೋ	-11.0601
ક્	-11.0602
▁ಹೆಸರಿನ	-11.0603
▁പെട്ടെന്ന്	-11.0603
▁सपा	-11.0605
श्री	-11.0607
ക്റ്റ	-11.0608
▁विरोधक	-11.0608
▁വിദ്യ	-11.0608
▁ಬಸವ	-11.0608
▁ಸಂಸ್ಥೆಗಳ	-11.0609
वळ	-11.0609
▁ಪಡೆಯಬಹುದು	-11.0609
▁રેડ	-11.061
ઇસ	-11.0611
▁തു	-11.0611
ಾಂಗ	-11.0611
▁ઉપકરણો	-11.0612
▁जबरदस्त	-11.0612
ುವುದರಲ್ಲಿ	-11.0614
▁कोर	-11.0614
▁खि	-11.0615
▁നയിക്ക	-11.0615
ುತ್ತಾಳೆ	-11.0619
▁അടിസ്ഥാനത്തിൽ	-11.0619
▁અન	-11.0619
ರಿಂಗ್	-11.0621
▁ജാഗ്രത	-11.0621
▁ಮಾಲೀಕರು	-11.0622
▁ಬಿಗಿ	-11.0623
▁മഹാരാഷ്ട്ര	-11.0623
▁മുള	-11.0625
▁സൂപ്പര്	-11.0627
▁ഓഫിസ	-11.063
▁धक्का	-11.063
▁പോവ	-11.0631
▁સ્ટાર	-11.0632
▁નિર્માણ	-11.0632
▁ಹೆದ್ದಾರಿ	-11.0633
▁ಮಾಡುತ್ತಿರುವ	-11.0635
▁ഗുരുതര	-11.0636
ga	-11.0636
▁તૈયારી	-11.0637
▁ಲೆ	-11.0637
ચી	-11.0638
mo	-11.0639
ಿಕಾ	-11.0644
തായാണ്	-11.0646
ಕ್ಸಿ	-11.0646
▁ಉದ್ಘಾಟಿಸಿ	-11.0646
काल	-11.0648
▁പുസ്തകം	-11.0649
▁જેની	-11.065
▁ಇಟ್ಟ	-11.065
ટક	-11.0651
▁એપ	-11.0652
▁महापालिके	-11.0653
▁ಬಲವಾದ	-11.0653
ીઝ	-11.0656
▁ആവശ്യമുള്ള	-11.0657
અપ	-11.066
▁പ്രവേശിക്ക	-11.0661
▁पडली	-11.0661
▁ಕಂಪನಿಯ	-11.0664
▁മകൻ	-11.0667
▁വിശേഷ	-11.0667
▁સુવિધા	-11.0669
▁पती	-11.067
ak	-11.067
▁ಹಿತ	-11.0673
▁ದೃಷ್ಟಿ	-11.0673
भी	-11.0676
യാള	-11.0677
▁पेक्षा	-11.0678
സല	-11.0679
▁ग्रहण	-11.0681
ांशी	-11.0682
▁કરાર	-11.0682
▁ನಡೆದು	-11.0683
ಟೊ	-11.0683
ँग	-11.0686
▁സന്തോഷം	-11.0686
▁संसाधन	-11.0687
▁ಇದ್ದು	-11.0687
▁યોગ	-11.0687
▁इंटर	-11.0689
▁ಕುರಿತ	-11.069
▁वाईट	-11.069
र्त	-11.0691
▁പിന്നില	-11.0691
શ્ર	-11.0693
▁ಘನ	-11.0693
▁വർദ്ധിപ്പിക്ക	-11.0693
▁ഗ്രന്ഥ	-11.0694
್ತ	-11.0695
▁തൃ	-11.0695
ટિ	-11.0696
▁સરકારની	-11.0697
▁चव	-11.0698
▁ફિ	-11.0699
▁ಖಾನ್	-11.07
ല്ലേ	-11.0701
▁પુસ્તક	-11.0701
പൂര്	-11.0701
▁જૂથ	-11.0703
▁रखना	-11.0704
▁ಮೊಟ್ಟೆ	-11.0705
▁സ്റ്റോ	-11.0706
▁हाउस	-11.0706
▁ചേർന്ന്	-11.0707
ઓએ	-11.0708
ുള്ളത്	-11.0709
ಸಿಸ್	-11.0711
▁सुमारास	-11.0711
▁ಜಂಟಿ	-11.0713
▁हमारा	-11.0713
▁आभार	-11.0716
▁പ്ലേ	-11.0716
▁દર્દીઓ	-11.0718
▁ಒದಗಿಸುವ	-11.0719
▁നയിക്കുന്ന	-11.0719
ત્	-11.072
ാനന്ദ	-11.0721
ിനെതിരായ	-11.0722
▁താ	-11.0723
പ്പെടും	-11.0723
▁ಮಾರ್ಗದರ್ಶನ	-11.0724
▁नकारात्मक	-11.0724
▁निवेदन	-11.0724
▁कोकण	-11.0724
ಸಲು	-11.0726
લર	-11.0726
▁ટેકનોલોજી	-11.0726
ക്കൊണ്ട	-11.0728
▁ವ್ಯಕ್ತಿತ್ವ	-11.0728
▁ഉത്സവ	-11.0729
▁ആവശ്യപ്പെട	-11.073
’’	-11.073
▁ऑटो	-11.073
▁आग्रह	-11.073
▁जमिनी	-11.0732
▁ದಪ್ಪ	-11.0732
▁ಜೋಡಿ	-11.0732
▁ಅಭಿವೃದ್ಧಿಗೆ	-11.0733
▁लिहि	-11.0733
▁കേൾക്ക	-11.0733
▁बह	-11.0734
▁പ്രതികളെ	-11.0734
ಗೊಳಿಸುತ್ತದೆ	-11.0735
▁ചെയര്മാന്	-11.0736
▁खात्री	-11.0736
മാന്	-11.0736
▁तभी	-11.0739
▁લીધા	-11.0739
▁കുറവ്	-11.0739
ನಾಮ	-11.0739
ચા	-11.0739
▁चांगली	-11.0744
▁ટોચ	-11.0744
ಖ್	-11.0745
തന	-11.0745
▁રાહ	-11.0745
ut	-11.0746
ക്കൊണ്ട്	-11.0746
▁വശ	-11.0746
▁ભવ્ય	-11.0748
▁वय	-11.0748
▁ಸಾವು	-11.075
▁પાવર	-11.0751
▁बहुमत	-11.0751
▁प्रारंभ	-11.0752
▁ബിജു	-11.0752
▁વેબસાઇટ	-11.0754
ಭಾ	-11.0757
▁സൂ	-11.0758
▁लोकल	-11.0759
▁સ્થળે	-11.076
▁संभावना	-11.076
▁കേള്ക്ക	-11.076
યોગ	-11.0762
▁ಕಚೇರಿಯಲ್ಲಿ	-11.0763
▁നിരാശ	-11.0763
▁गति	-11.0764
കുമാർ	-11.0765
▁पालिका	-11.0766
▁ಆಶ್ಚರ್ಯ	-11.0768
▁നാമ	-11.0769
▁എന്നായിരുന്നു	-11.077
ರಾವ	-11.0771
▁દો	-11.0771
▁ಪರ್ವತ	-11.0775
▁घेता	-11.0775
▁ठरले	-11.0776
▁യുവാവ്	-11.0777
▁सत	-11.0777
▁गुन्हे	-11.0778
▁न्यायाधीश	-11.0778
▁ബ്രിട്ടീഷ്	-11.0778
▁વર્લ્ડ	-11.0778
▁મિત્રો	-11.078
▁તારીખ	-11.0781
▁स्वातंत्र्य	-11.0781
▁આઉટ	-11.0783
െടുപ്പ	-11.0785
▁मिशन	-11.0786
▁ನುಡಿ	-11.0787
▁मारहाण	-11.0787
▁ವರ್ತನೆ	-11.0787
▁मल	-11.0788
ಗಳಿಗಿಂತ	-11.0788
▁കുറിച്ച	-11.0791
ോൾ	-11.0791
▁ಕಲ್ಪನೆ	-11.0793
ಕ್ಟರ್	-11.0793
ഞ്ഞ്	-11.0794
ಚ್ಚಿ	-11.0794
▁ರಾಜಧಾನಿ	-11.0796
▁ಸೊ	-11.0798
▁ಮೂ	-11.0798
▁तलाश	-11.0799
▁അങ്ങ	-11.0799
લ્ટ	-11.0799
▁കത്ത്	-11.08
▁घालून	-11.0801
റിഞ്ഞ	-11.0803
ಾನು	-11.0807
ಸೈ	-11.0808
നേതൃത്വത്തിലുള്ള	-11.0808
ಯನ್	-11.0809
ಿರುತ್ತವೆ	-11.0809
▁नसेल	-11.0809
▁ഉപേക്ഷിക്ക	-11.0812
ದಲ್ಲಿನ	-11.0813
▁ಫಲಕ	-11.0813
സ്യ	-11.0814
▁ಜಿಲ್ಲಾಡಳಿತ	-11.0815
▁तक्रारी	-11.0815
▁ಪಾಲಿಕೆ	-11.0818
▁संदीप	-11.0819
▁ರೋಗಿಯ	-11.082
▁निरीक्षण	-11.0821
▁നോവല	-11.0822
ेक्स	-11.0822
ರಾದರು	-11.0823
▁ಪಡೆದುಕೊಂಡ	-11.0823
▁पहिली	-11.0824
▁सीबीआई	-11.0824
▁ಜನವರಿ	-11.0825
▁ഭാഗത്ത്	-11.0825
ക്കുറിച്ചുള്ള	-11.0825
▁पदों	-11.0825
▁ಸ್ವತಂತ್ರ	-11.0827
▁રક્ત	-11.0827
▁લાવવા	-11.0829
▁ಮುಂದ	-11.083
િશ	-11.0831
▁നിർമ്മാണ	-11.0832
▁ನಿನ್ನೆ	-11.0833
▁ചാര	-11.0833
▁ગણવામાં	-11.0834
ുണ്ടായിരുന്ന	-11.0834
▁પૂછ	-11.0834
▁തേട	-11.0836
▁श्रेणी	-11.0836
▁കാലാവധി	-11.0836
▁ತಿಳಿಯಲು	-11.0836
▁ಇಲ್ಲದಿದ್ದರೆ	-11.0838
▁सौंदर्य	-11.0839
स्ट्र	-11.084
▁આપ્યા	-11.084
▁आश्चर्य	-11.0842
▁भाजपने	-11.0843
▁ವಸ್ತುಗಳು	-11.0843
▁પ્રવાસીઓ	-11.0843
▁ഗ്ര	-11.0844
▁ಬಸವರಾಜ	-11.0845
▁വേ	-11.0845
▁કલા	-11.0847
▁ಕೋರ	-11.0849
▁ബുധനാഴ്ച	-11.0849
▁पहा	-11.0849
▁ವ್ಯಾಪ್ತಿಯ	-11.085
▁नको	-11.085
▁ಹೋಗಲು	-11.0851
▁हाती	-11.0852
▁પરીક્ષણ	-11.0853
▁રાખો	-11.0853
രിക	-11.0854
▁ओढ	-11.0854
▁ઇન્ટરનેટ	-11.0854
बोध	-11.0855
्वा	-11.0857
▁चौहान	-11.0858
ot	-11.0858
ಮನಿ	-11.0859
ಪಲ್	-11.0859
വുമ	-11.086
काळ	-11.0861
▁किरण	-11.0861
▁ಪ್ರಸಾರ	-11.0862
▁ಮುಟ್ಟ	-11.0863
नाम	-11.0863
▁ಇದಲ್ಲದೆ	-11.0864
ಿನಿ	-11.0866
ડિ	-11.0868
▁സിദ്ധ	-11.0868
▁ತಿರುಗ	-11.0869
▁ಅನನ್ಯ	-11.0869
ग्रा	-11.0872
▁ಪುರುಷ	-11.0872
▁न्यूज	-11.0873
▁അന്യ	-11.0874
▁बल्लेबाज	-11.0875
▁ಸಿದ್ಧಾಂತ	-11.0876
ವಿಲ್ಲದೆ	-11.0876
▁धोनी	-11.0878
ಿದ್ದೀರಿ	-11.0878
▁અનુકૂળ	-11.0879
േന്ദ്ര	-11.0881
▁പ്രോ	-11.0882
▁ത്രി	-11.0882
▁പ്രക്ഷോഭ	-11.0884
बरोबरच	-11.0884
▁कर्णधार	-11.0885
▁ಚಿತ್ರಗಳನ್ನು	-11.0886
▁यानी	-11.0887
▁ಕ್ಷೇತ್ರಗಳಲ್ಲಿ	-11.0888
▁ಸ್ಟ	-11.0889
▁बरेच	-11.089
▁കഴിഞ്ഞില്ല	-11.0891
▁ನೀಡಿದ್ದರು	-11.0892
▁തീവ്രവാദ	-11.0892
▁ആഴ	-11.0892
ડર	-11.0892
▁ഇയാൾ	-11.0893
सारखा	-11.0893
▁ವಸಂತ	-11.0895
▁ആഗ്രഹ	-11.0896
માર	-11.0897
ેન્ટ	-11.0897
▁वीर	-11.0899
ബര്	-11.0899
▁દૂધ	-11.09
▁એકદમ	-11.0901
▁ಬಯಸಿದರೆ	-11.0901
ve	-11.0901
ೇಶನ್	-11.0902
▁നോട്ടീസ്	-11.0902
▁ಅತಿಥಿ	-11.0902
▁જ્ઞાન	-11.0903
ത്താ	-11.0904
▁എളുപ്പത്തിൽ	-11.0905
▁બળ	-11.0907
▁വേഗത	-11.0907
▁നേരത്തേ	-11.091
▁ബാബു	-11.091
▁फसल	-11.0911
▁ആളുകളെ	-11.0912
▁भविष्यात	-11.0913
ാംഗ	-11.0915
▁वास्तव	-11.0915
▁अज्ञात	-11.0916
▁ചിത്രത്തിൽ	-11.0916
ബ്ബ	-11.0917
ಿಸಿಕೊಂಡ	-11.0918
▁संस्थे	-11.0919
▁മോഡി	-11.0919
ಚೆ	-11.092
ಲೆಟ್	-11.0923
ଥିବା	-11.0924
▁മൈ	-11.0924
▁ಇನ್ನ	-11.0925
ലൈറ്റ	-11.0926
▁ಹಕ್ಕಿ	-11.0927
▁धडक	-11.0928
▁કપૂર	-11.0929
હે	-11.0931
▁സംഭവത്തിൽ	-11.0932
▁ಸ್ಮಾರಕ	-11.0932
▁എതിരെ	-11.0933
▁करु	-11.0934
ಬಿಟ್ಟ	-11.0935
▁വികാര	-11.0935
ഴ്സ	-11.0937
▁जिसका	-11.0938
જુ	-11.0938
▁विशाल	-11.0938
▁दिखाई	-11.0938
▁जंगल	-11.0938
▁गेम	-11.0938
▁प्यार	-11.094
▁अभिनय	-11.0941
▁ബാറ്റ	-11.0941
▁പൊലീസ	-11.0943
मेल	-11.0944
▁ಪರಿಶೀಲಿಸಿ	-11.0944
▁സുഹൃത്ത	-11.0944
▁પડકાર	-11.0947
ಂಡೆ	-11.0948
▁तोड	-11.0948
▁डॉलर	-11.0949
▁ब्रा	-11.0952
वै	-11.0952
ಂಭ	-11.0953
‘	-11.0954
▁നിര്മാണ	-11.0955
▁മറക്ക	-11.0957
▁ca	-11.0958
▁दुपारी	-11.0958
▁सूत्र	-11.0958
ಮಂ	-11.0959
▁ನೆರ	-11.0959
▁ಧನಾತ್ಮಕ	-11.0959
▁મોટો	-11.096
മുണ്ടാക്ക	-11.0961
െടുത്ത്	-11.0961
▁खर	-11.0962
▁വാര്ത്തകള്	-11.0962
ಿಯಲ್ಲಿ	-11.0963
▁व्यायाम	-11.0964
▁ચિત્ર	-11.0964
▁प्ले	-11.0965
▁ഉൽപ്പന്നങ്ങൾ	-11.0966
▁राहील	-11.0966
▁me	-11.0967
▁મુક	-11.0967
▁પ્રભાવ	-11.0967
▁ನೋ	-11.0967
▁വര്ഷത്തെ	-11.0967
▁ಸಹಜ	-11.097
▁സൗജന്യ	-11.097
വര്ഷം	-11.0972
▁री	-11.0975
વાઈ	-11.0976
विण्यात	-11.0978
▁ಪವಿತ್ರ	-11.0978
▁महत्त्व	-11.0978
കട	-11.0979
लय	-11.098
▁പിതാവ്	-11.0981
▁അടങ്ങിയ	-11.0981
▁ಇದಕ್ಕಾಗಿ	-11.0981
ുടേയും	-11.0981
ಮೈ	-11.0982
▁ജീവ	-11.0983
ಢ	-11.0984
▁ಸಮಾರಂಭದಲ್ಲಿ	-11.0985
ಸಾರ	-11.0985
മാൻ	-11.0985
ಿರುತ್ತಾರೆ	-11.0987
▁समाविष्ट	-11.0987
▁ಸಮಯದ	-11.0988
▁आइ	-11.0988
▁जगात	-11.099
▁बद	-11.0991
▁അക്കൗണ്ട	-11.0992
▁कृती	-11.0993
▁पवित्र	-11.0993
▁टेबल	-11.0994
▁ರಸ್ತೆಯಲ್ಲಿ	-11.0995
તમ	-11.0995
▁ತಿ	-11.0995
▁കുറിപ്പ	-11.0996
▁അറിയിച്ചത്	-11.0997
▁ആശംസ	-11.1
▁ಇಂಗ್ಲಿಷ್	-11.1
▁ಮಾಡಿಕೊಡ	-11.1003
▁कठोर	-11.1003
लू	-11.1003
ಂಪ್	-11.1005
▁હોમ	-11.1006
▁ഹോട്ടൽ	-11.1006
▁ನಗರಸಭೆ	-11.1006
▁ಸೇವನೆ	-11.1009
ജീവിത	-11.1009
▁നിര്ത്തി	-11.1009
▁കൊച്ചു	-11.1013
ുകയാണെന്നും	-11.1013
ಕ್ರ	-11.1014
ശക്തി	-11.1014
▁દસ	-11.1018
▁અલ	-11.1019
▁ଗ	-11.1019
▁ഒഴിവ	-11.1022
ീസ	-11.1024
▁ರೆಡ್ಡಿ	-11.1024
▁कान	-11.1024
▁ಪಾನೀಯ	-11.1025
▁आजही	-11.1025
▁પાત્ર	-11.1026
▁സന്	-11.1028
ାର	-11.1029
▁ಮರಳು	-11.1032
ದನ್ನು	-11.1033
▁ವಿಷಯದ	-11.1033
▁കാര്യമായ	-11.1035
▁ಅವಶ್ಯಕ	-11.1037
ist	-11.1038
થા	-11.1038
▁ಅವರೇ	-11.1039
▁സ്ഥാനാര്ഥി	-11.104
ವ್ಯ	-11.1041
ಕಾರ್	-11.1041
ಚರ	-11.1041
ಷ್ಠ	-11.1042
▁टो	-11.1042
ುತ್ತಿರಲಿಲ್ಲ	-11.1042
▁അടിസ്ഥാനത്തില്	-11.1043
फी	-11.1043
▁ಶೈಲಿ	-11.1046
തേ	-11.1046
▁असला	-11.1048
▁मध्यम	-11.1048
▁ચંદ્ર	-11.1048
per	-11.1049
पुरी	-11.1051
▁તેનું	-11.1052
സേന	-11.1052
▁ಉದ್ಯಮಿ	-11.1053
▁ಬಳಕೆಯ	-11.1054
▁म्हणूनच	-11.1054
ದಿದ್ದರೂ	-11.1054
ಸ್ಟಿ	-11.1055
തിന	-11.1055
▁क्यों	-11.1055
▁ಸಾರ್ವಜನಿಕರು	-11.1056
▁भीती	-11.1057
▁കര്ശന	-11.1058
ಟಲ್	-11.1058
▁लगाई	-11.1058
▁ऑगस्ट	-11.1059
▁चेन्नई	-11.1059
യെല്ലാം	-11.1059
▁સ્થાપિત	-11.1059
▁ಮೂತ್ರ	-11.106
▁महेश	-11.106
▁डाव	-11.106
പ്പോഴും	-11.1061
▁ಸವಾಲು	-11.1061
▁चो	-11.1063
▁सदन	-11.1064
▁ಗ್ರಾಹಕ	-11.1064
વત	-11.1065
▁ದಾಖಲಾಗ	-11.1065
▁कसोटी	-11.1065
▁ചൊ	-11.1066
▁नागरिकांना	-11.1066
▁ಕ್ರಮಗಳನ್ನು	-11.1066
▁प्रेस	-11.1069
ांमुळे	-11.1069
▁വ്യാപകമായി	-11.107
▁വിമാനം	-11.1071
▁ಬೆಟ್ಟ	-11.1072
ರುತ್ತದೆ	-11.1073
ेक्ट	-11.1073
▁चेक	-11.1073
ಪಾದ	-11.1074
▁होम	-11.1075
▁ಅಗಲ	-11.1077
▁ಬಂದ್	-11.1077
▁ಸ್ನೇಹಿತ	-11.1078
പ്ല	-11.1078
▁മൂല	-11.1078
▁प्राणी	-11.1079
▁संस्कृती	-11.1081
▁ഖാ	-11.1081
▁સંયુક્ત	-11.1081
റ്റര്	-11.1081
▁मं	-11.1082
േറിയ	-11.1082
▁ಮಂದಿರ	-11.1083
▁नवा	-11.1083
▁प्रशासनाने	-11.1083
वं	-11.1086
▁પ્રોગ્રામ	-11.1087
▁ಅಂಶಗಳು	-11.1089
▁കാലഘട്ട	-11.1089
▁വരെയുള്ള	-11.109
പ്പള്ളി	-11.1092
▁પરિણામે	-11.1092
▁आकर्षित	-11.1093
રને	-11.1095
ಣ್ಯ	-11.1095
कम	-11.1098
▁ಮಹಿಳೆಯರಿಗೆ	-11.1098
▁सेवन	-11.11
ಿಕೆಯ	-11.11
▁દારૂ	-11.11
ಾನಂದ	-11.1101
माल	-11.1101
▁ಕೌಶಲ್ಯ	-11.1102
▁केल्यास	-11.1104
▁pa	-11.1104
ಲ್ಡ್	-11.1104
▁ഉദ്യോഗസ്ഥർ	-11.1104
▁દર્દી	-11.1104
mi	-11.1105
▁ಮಾದರಿಯ	-11.1105
▁ഉപയോഗിക്കുന്നത്	-11.1105
▁मृतदेह	-11.1106
▁ಪರಿಪೂರ್ಣ	-11.1106
ീൻ	-11.1107
▁ಬಿಲ್	-11.1107
▁അളവ	-11.1107
▁आलेली	-11.111
▁बिग	-11.1111
દ્	-11.1113
▁പൗര	-11.1116
શીલ	-11.1118
▁കണക്ക	-11.1119
पत	-11.112
▁फटका	-11.112
▁കൊള്ള	-11.1122
▁പരാജയ	-11.1123
ಬಿಡ	-11.1123
▁ബജറ്റ്	-11.1124
▁હકારાત્મક	-11.1128
▁അധ്യക്ഷന്	-11.1131
▁स्मार्ट	-11.1131
ങ്ങൾക്കും	-11.1131
▁शिखर	-11.1132
▁પૈસા	-11.1134
▁ગરીબ	-11.1134
▁പിന്നിൽ	-11.1136
▁ടെസ്റ്റ്	-11.1138
▁પાલન	-11.1138
यां	-11.1138
മുറ	-11.1138
▁ഭരണഘടനാ	-11.1139
▁ಪೋಸ್ಟ್	-11.1142
▁त्याचबरोबर	-11.1142
▁वित्तीय	-11.1142
▁ಸಾಧ್ಯವಾಗ	-11.1143
▁ಆರೈಕೆ	-11.1144
▁એફ	-11.1144
▁घंटे	-11.1145
▁സെന്ററ	-11.1146
▁मुलांना	-11.1146
▁પગલાં	-11.1146
▁സീറ്റ	-11.1147
▁അന്വേഷിച്ച	-11.1147
▁काहीतरी	-11.1147
▁കോണ്ഗ്രസ	-11.1148
▁कशा	-11.115
▁ગેસ	-11.115
ദേശ	-11.115
▁നീങ്ങ	-11.115
▁ഫണ്ട്	-11.1151
▁ટેક	-11.1152
▁ನೀರಿನಲ್ಲಿ	-11.1153
▁നല്ലത്	-11.1153
વલ	-11.1153
ുകയുണ്ടായി	-11.1154
▁ಕೇರಳ	-11.1155
▁ಸಾವಿನ	-11.1155
ഹിത	-11.1155
ನಿಯಾ	-11.1163
▁શબ્દો	-11.1163
▁കലാപ	-11.1165
પુરા	-11.1166
▁तातडीने	-11.1167
▁കന	-11.1168
▁നെഞ്ച	-11.1169
▁બનશે	-11.1169
आप	-11.1169
▁ശശി	-11.117
▁മരിക്ക	-11.117
▁അടിയന്തര	-11.1173
▁संकल्प	-11.1174
▁ಸ್ತ್ರೀ	-11.1175
▁ಸ್ಥಾನವನ್ನು	-11.1175
▁માસ	-11.1175
▁ಸ್ಪಂದಿಸ	-11.1175
▁നല്കുന്നത്	-11.1176
▁സ്ക	-11.1176
▁કુમાર	-11.1177
ci	-11.1178
▁ಬಹಿರಂಗ	-11.1179
▁ಸಮರ್ಥ	-11.1179
ഡിയ	-11.118
▁समाजवादी	-11.118
ದಲ್ಲಿದ್ದ	-11.1181
ાન	-11.1182
തെന്നു	-11.1182
▁പ്രിയങ്ക	-11.1182
മ്പ്	-11.1183
▁સંગ્રહ	-11.1184
▁പല്ല	-11.1185
▁ഒപ്പ	-11.1186
सारखी	-11.1187
▁ಲೆಕ್ಕಾಚಾರ	-11.1188
▁ಅರಿವು	-11.1189
करी	-11.1191
▁ಸಾಹಸ	-11.1191
ॉय	-11.1192
▁शादी	-11.1192
▁എന്തുകൊണ്ട്	-11.1193
▁प्रताप	-11.1195
▁ಇದ್ದಾರೆ	-11.1195
േണ്ടതാണ്	-11.1196
ಯಿಂದಾಗಿ	-11.1196
શિ	-11.1198
▁रशिया	-11.1198
▁गुरुवारी	-11.1198
▁ಸೌಕರ್ಯ	-11.1201
▁पोल	-11.1201
സംഘ	-11.1202
કારો	-11.1204
▁ಬಾಹ್ಯ	-11.1204
▁ಅಭಿ	-11.1206
खर	-11.1207
▁टक्कर	-11.1207
ര്ത്തി	-11.1208
▁ହ	-11.1208
▁ಗೆಲುವು	-11.1211
▁ಸಮಸ್ಯೆಗಳು	-11.1211
▁મિનિટ	-11.1213
▁ಎಂದಿಗೂ	-11.1215
▁अॅप	-11.1215
▁ಗ್ರಾಹಕರ	-11.1216
▁ಪರಿಗಣಿಸಿ	-11.1219
▁പ്രൊ	-11.122
▁डिजाइन	-11.122
▁यादी	-11.1221
▁लाग	-11.1221
▁ಭಟ್	-11.1223
▁ತುರ್ತು	-11.1223
କା	-11.1223
ഞ്ചി	-11.1224
▁ശി	-11.1225
▁ഡയ	-11.1226
ലില്	-11.1227
▁બદલવા	-11.1228
▁നിത്യ	-11.1231
▁સંસ્થાઓ	-11.1234
▁મિત્ર	-11.1236
▁सर्वसामान्य	-11.1236
મેટ	-11.1237
▁തിരുത്ത	-11.1237
▁ಮಲಗ	-11.1238
▁ജൈവ	-11.1239
▁उभार	-11.124
▁ಸಮೀಕ್ಷೆ	-11.1242
पूर्व	-11.1243
▁कलम	-11.1245
ಿಕೊಳ್ಳುವ	-11.1246
ಪೊ	-11.1247
ാനായ	-11.1247
▁ತಮಗೆ	-11.1247
▁उड	-11.1248
िकल	-11.1249
ക്കാലം	-11.1251
▁ഫെബ്രുവരി	-11.1252
▁મોટાભાગના	-11.1252
પ્સ	-11.1254
▁ದಳ	-11.1254
▁खे	-11.1255
▁एसपी	-11.1255
▁ಸಂಬಂಧಪಟ್ಟ	-11.1256
▁അജ	-11.1256
▁ബാധ്യത	-11.1258
▁പരിശീലക	-11.1258
▁वोट	-11.1259
್ಮ	-11.126
▁ಪ್ರೀತಿಸ	-11.1261
▁ತೆಗೆದುಕೊಳ್ಳುವ	-11.1262
▁દંડ	-11.1262
ങ്ങളെല്ലാം	-11.1262
▁વાયરલ	-11.1263
हु	-11.1263
ര്ണ	-11.1264
▁હોવું	-11.1264
ദീ	-11.1266
ಂತಿ	-11.1266
▁अर	-11.1267
बळ	-11.1267
▁ಕಾವೇರಿ	-11.1268
▁हस्ते	-11.1268
▁स्ट्र	-11.1269
▁ઘટનાઓ	-11.1269
▁അറസ്റ്റിലായ	-11.1271
▁प्रमाणपत्र	-11.1272
▁ಹಾಸ್ಯ	-11.1274
डू	-11.1274
▁राष्ट्रवादीचे	-11.1277
▁ಮಗನ	-11.1278
▁ತೆಗೆದುಕೊಂಡು	-11.1279
▁સાંસદ	-11.1281
▁മാധ്യമങ്ങള്	-11.1282
प्त	-11.1284
▁हाय	-11.1284
▁देण्याची	-11.1285
തായ	-11.1285
▁സൈന്യം	-11.1287
▁કપડાં	-11.1288
▁ತರುವ	-11.1289
▁ಹೇಳಲು	-11.1289
▁എന്നിവരാണ്	-11.129
▁ಸುರಕ್ಷತೆ	-11.129
▁शिवसेनेचे	-11.1291
▁ಮೀಟರ್	-11.1292
പുത്ര	-11.1292
▁ಸೂಪರ್	-11.1293
मू	-11.1296
▁વિદેશ	-11.1297
▁ಯಾರಾದರೂ	-11.1297
▁વર્ષના	-11.1298
▁ಇಂಧನ	-11.13
▁ജീവന്	-11.1305
▁સ્ટોર	-11.1306
હર	-11.1307
▁फै	-11.1308
हरा	-11.1308
▁मुलां	-11.1309
▁सोलापूर	-11.1309
शिप	-11.1312
ത്തിലായിരുന്നു	-11.1312
സൺ	-11.1314
▁ધરવામાં	-11.1314
ന്ഡ	-11.1314
▁തുടരുന്ന	-11.1316
▁ಆಟೋ	-11.1316
ൊഴ	-11.1316
▁ഓര്മ്മ	-11.1316
▁ನೆನಪ	-11.1318
ಡೊ	-11.1319
▁રાજ્યના	-11.1319
▁જનરલ	-11.1319
▁યાદી	-11.1321
▁वर्षा	-11.1321
▁ચેરમેન	-11.1322
▁ವಿಶ್ರಾಂತಿ	-11.1322
▁വേഗം	-11.1322
▁गूगल	-11.1325
ಧ್ಯ	-11.133
त्त	-11.133
पू	-11.133
▁പദ്ധതിയുടെ	-11.1332
▁उदय	-11.1334
▁തെളിയിക്ക	-11.1334
▁અઠવાડિયા	-11.1335
▁लंबे	-11.1335
▁ഗാ	-11.1338
▁ದೊರಕ	-11.1339
▁ലാഭ	-11.1339
വെന്ന്	-11.1339
▁പിന്നാലെയാണ്	-11.134
બંધ	-11.1341
▁രൂക്ഷ	-11.1342
▁ಮರಣ	-11.1344
▁तत्व	-11.1345
▁ಟೀ	-11.1345
▁કરાવવા	-11.1346
▁വയല	-11.1346
▁ಆರಂಭವಾಗ	-11.1348
▁തോട്ട	-11.1348
▁ಮುಂದುವರಿಸ	-11.1349
▁પકડ	-11.1349
ಶನ್	-11.1349
ഗണ	-11.1349
ಕಾಯಿ	-11.135
▁സീറ്റ്	-11.135
▁प्रवाह	-11.135
▁સમાપ્ત	-11.1351
പോല	-11.1351
ാനാകും	-11.1352
▁ಅಲಂಕಾರ	-11.1354
▁ಶೌಚಾಲಯ	-11.1354
▁പാഠ	-11.1355
▁साय	-11.1356
പേ	-11.1357
ಲಾಗದ	-11.1357
ನಾಥ್	-11.1357
▁पाहिले	-11.1358
▁ಹಾಸಿಗೆ	-11.1358
പറഞ്ഞ	-11.1358
▁कार्यालयात	-11.1359
▁नाराज	-11.136
▁ಧಾರವಾಡ	-11.1361
▁मजदूर	-11.1361
▁जुन्या	-11.1361
ગલ	-11.1361
ಂಧ	-11.1363
▁അനുഭവം	-11.1363
▁જિલ્લાના	-11.1363
▁പരിഗണന	-11.1363
ાને	-11.1364
▁यूनियन	-11.1364
ಗಳಂತೆ	-11.1364
▁ಸಮಾಜದಲ್ಲಿ	-11.1365
▁ഭക്ഷ്യ	-11.1367
▁ಕಳೆಯ	-11.1368
▁ആശയം	-11.1368
▁ಆಗಿರುವ	-11.1368
શાસ્ત્ર	-11.137
ಕೆಟ್	-11.1371
▁ಭೂಮಿಯ	-11.1372
▁ಶಿಕ್ಷಕರು	-11.1374
▁ಮಧ್ಯಾಹ್ನ	-11.1374
▁ജില്ലയില്	-11.1375
നായിരുന്നു	-11.1376
▁ಅನ್ವಯಿಸ	-11.1376
▁ಅಭಿವೃದ್ಧಿಪಡಿಸ	-11.1378
ಬಂದ	-11.1378
▁चित्रपटात	-11.1379
▁യൂത്ത്	-11.1379
ിയോ	-11.138
▁ಬೆದರಿಕೆ	-11.138
ಿರುವುದನ್ನು	-11.1383
▁उपायुक्त	-11.1383
▁ഏതാണ്ട്	-11.1383
▁മാർഗ	-11.1385
ിയില്	-11.1385
▁സംരക്ഷണം	-11.1385
▁कथित	-11.1387
▁નુકશાન	-11.1387
▁चेहरा	-11.1388
ಾಗುವ	-11.1388
▁ತ್ವರಿತವಾಗಿ	-11.1389
▁चले	-11.139
▁അസ്	-11.1391
▁ആഗ്രഹം	-11.1392
▁केल्याने	-11.1392
▁कहानी	-11.1392
▁ಖರೀದಿಸಲು	-11.1393
ેન્દ્ર	-11.1395
वाई	-11.1396
▁ഉദ്ഘാടന	-11.1396
▁સમીક્ષાઓ	-11.1397
▁आदित्य	-11.1398
▁ചോദ്യത്തിന്	-11.1399
ಯಲ್ಲೇ	-11.14
▁टैक्स	-11.14
▁सावंत	-11.1401
▁ബിജെപിയുടെ	-11.1401
र्द	-11.1401
▁ತಿದ್ದುಪಡಿ	-11.1403
▁ಬಳ್ಳಾರಿ	-11.1403
▁तहसीलदार	-11.1403
▁राजीव	-11.1404
▁फे	-11.1404
▁ಸಂಖ್ಯೆಯಲ್ಲಿ	-11.1404
▁ಕಾಣುತ್ತದೆ	-11.1405
पैकी	-11.1406
▁കത്തി	-11.1407
▁इच्छुक	-11.1409
▁നായ	-11.141
▁മോഡല	-11.141
▁ತಕ್ಷಣವೇ	-11.1411
▁ഉണ്ടാകും	-11.1411
ಚಂದ್ರ	-11.1415
▁इंग्लंड	-11.1416
▁താന	-11.1416
ഭൂമി	-11.1417
▁ഏജന്സി	-11.1418
▁ಮೆಚ್ಚುಗೆ	-11.1419
▁എന്നിരുന്നാലും	-11.1419
મણ	-11.142
▁भाजपला	-11.142
▁यूपी	-11.1421
മുഖ്യമന്ത്രിയുടെ	-11.1422
▁സാക്ഷി	-11.1422
▁നശിപ്പിക്ക	-11.1422
▁ದಿನಾಚರಣೆ	-11.1423
▁മോശം	-11.1424
▁പ്രാ	-11.1426
▁ಗಮನಕ್ಕೆ	-11.1427
▁ಅವನಿಗೆ	-11.1429
▁പ്രസിദ്ധീകരിച്ച	-11.1429
▁नकार	-11.1429
▁ಪಡೆ	-11.1429
▁ಸುಖ	-11.143
लाई	-11.1432
लिन	-11.1432
▁याप्रकरणी	-11.1434
▁પ્રારંભ	-11.1437
ಪ್ತ	-11.144
▁ಬೆಂಗಳೂರಿನಲ್ಲಿ	-11.1441
ಯುಕ್ತ	-11.1444
ക്കൂ	-11.1448
▁આંદોલન	-11.1448
▁तत्त्व	-11.1448
फाय	-11.145
▁સેન્ટર	-11.1451
▁അക	-11.1452
▁व्हायरल	-11.1452
▁ફંડ	-11.1452
डर	-11.1453
ೀಕರಿಸ	-11.1453
तच	-11.1453
નલ	-11.1454
फ्ट	-11.1454
ബിൾ	-11.1454
▁ലോകത്ത്	-11.1455
▁ಅತೀ	-11.1456
ಯನ್ನೇ	-11.1456
▁പ്ല	-11.1456
▁ബോര്ഡ്	-11.1456
▁आठव	-11.1457
ಿದು	-11.1457
▁ജീവിക്കുന്ന	-11.1457
▁ಸೇತುವೆ	-11.1458
▁കോടതിയെ	-11.1459
▁हिंदुस्थान	-11.146
ട്രോ	-11.1461
▁अनुदान	-11.1462
▁ಎಚ್ಚರ	-11.1463
▁വിപ്ലവ	-11.1465
▁അതുകൊണ്ടു	-11.1465
▁കാണാതായ	-11.1466
ೆಂಬ	-11.1467
ડીયા	-11.1468
▁યાત્રા	-11.1468
▁ಹುಡುಗಿ	-11.1468
▁ಕರ್ನಾಟಕದಲ್ಲಿ	-11.1469
▁बच	-11.1469
झर	-11.147
▁വിദേശകാര്യ	-11.1471
പിച്ച	-11.1472
▁ಅಧ್ಯಕ್ಷೆ	-11.1474
▁ತಪ್ಪಿಸಲು	-11.1474
▁ಭಾರತಕ್ಕೆ	-11.1474
ഫ്റ്റ	-11.1475
▁ಪಾತ್ರವನ್ನು	-11.1475
▁काट	-11.1475
યું	-11.1476
ોટ	-11.1478
ന്തി	-11.1478
▁മോദിയുടെ	-11.1478
▁ठेवून	-11.1479
▁प्रिय	-11.1481
▁ઇન્ડિયા	-11.1482
▁क्रम	-11.1482
▁പ്രേമ	-11.1483
▁સભા	-11.1483
▁ಹುಬ್ಬಳ್ಳಿ	-11.1484
▁ನಿಖರವಾಗಿ	-11.1485
▁ಏರಿಕೆ	-11.1485
▁सम्	-11.1487
▁દિ	-11.1487
▁ક્લ	-11.1487
▁वर्ण	-11.1487
▁രോഗി	-11.1487
▁रुप	-11.1488
▁ಲ್ಯಾ	-11.1489
▁મહત્વ	-11.1492
്ക്കും	-11.1493
ासमोर	-11.1494
▁ಪ್ರಶ್ನಿಸ	-11.1494
▁ગામના	-11.1496
▁विद्यार्थ्यांना	-11.1496
ಗೊಂಡು	-11.1497
▁അവലോകനങ്ങൾ	-11.1497
▁निर	-11.1497
▁വിശ്വാസം	-11.1499
▁ಕೈಯಲ್ಲಿ	-11.15
▁वैज्ञानिक	-11.15
ps	-11.1501
▁ಆಮ್ಲ	-11.1502
▁പോകുന്നത്	-11.1502
▁ब्रेक	-11.1502
▁ಮಹಾನ್	-11.1502
▁બચાવ	-11.1505
▁બાંધકામ	-11.1507
▁आपने	-11.1507
▁ಆಯುಕ್ತ	-11.1508
लाय	-11.1508
▁कडक	-11.1509
▁അസുഖ	-11.151
्टर	-11.1512
ଛନ୍ତି	-11.1513
▁મગજ	-11.1514
▁ഇതിന	-11.1514
▁ಖಚಿತ	-11.1514
▁ನಾಳೆ	-11.1514
ಗ್ರಹ	-11.1516
ാകെ	-11.1516
▁નકારાત્મક	-11.1517
▁ഏഴ	-11.1518
▁ആക്രമിക്ക	-11.1519
▁अड	-11.1519
ત્ય	-11.152
▁യാ	-11.152
ಡೋ	-11.152
▁दृष्टीने	-11.152
▁भोजन	-11.1522
▁ಪುರುಷರ	-11.1524
ത്താണ്	-11.1525
ेला	-11.1525
▁ಹೆದರ	-11.1526
▁ऑक्टोबर	-11.1527
▁बारिश	-11.1527
▁സഭാ	-11.1528
▁हूं	-11.1528
വര്ഗ	-11.153
▁मिले	-11.153
▁वंचित	-11.153
▁છબી	-11.153
▁ചിത്രത്തിലെ	-11.153
▁चर्च	-11.1531
दो	-11.1532
▁તફાવત	-11.1537
ચલ	-11.1537
▁മത്സ്യ	-11.1538
▁മോഡൽ	-11.154
▁सागर	-11.1541
▁ಮೃದು	-11.1543
▁കീഴിൽ	-11.1544
ಪಟ	-11.1544
▁ವಾಸ್ತವ	-11.1545
▁ആത്മീയ	-11.1547
▁ഓഹരി	-11.1547
▁പിൻ	-11.1547
▁अखिल	-11.1548
▁യന്ത്ര	-11.1548
ക്യ	-11.1549
▁ತಳಿ	-11.155
ര്ട്ട	-11.1551
വിവര	-11.1552
▁अत्याचार	-11.1553
ോളജി	-11.1554
um	-11.1554
▁औ	-11.1555
▁സ്ഥിര	-11.1555
ଲା	-11.1555
ಮಂಡಲ	-11.1559
▁काहीही	-11.156
▁ಹೂವು	-11.156
sa	-11.156
▁കുറിച്ചുള്ള	-11.1561
കൊടുക്ക	-11.1562
▁നരേന്ദ്രമോദി	-11.1562
▁ದೈನಂದಿನ	-11.1563
▁खून	-11.1565
▁उद्या	-11.1565
▁ಪ್ರತಿನಿಧಿ	-11.1567
▁ಮತದಾರರ	-11.1567
▁ଶ	-11.1567
▁തെരഞ്ഞെടുപ്പ	-11.1567
▁നിഷേധിച്ച	-11.1569
▁പറയാന്	-11.1569
▁ಅಂತಾರಾಷ್ಟ್ರೀಯ	-11.1569
▁પદ્ધતિઓ	-11.157
▁ബൈക്ക	-11.157
મુખ	-11.1571
ାନ	-11.1572
ടക്കമുള്ള	-11.1572
▁ಡೈ	-11.1572
ಲಿನ್	-11.1574
ಯಾಗುತ್ತದೆ	-11.1574
▁ഉമ്മ	-11.1574
നിയമ	-11.1575
▁ശേഖരിക്ക	-11.1575
▁സ്റ്റേഡിയ	-11.1576
▁फर	-11.1576
കൃത	-11.1577
▁રહેલી	-11.1577
ସି	-11.1578
ाइक	-11.1579
ിക്ക്	-11.1581
▁പുറത്തുവിട്ട	-11.1582
▁महाग	-11.1582
▁जैसी	-11.1583
പുരം	-11.1585
▁ಜೋಡಿಸ	-11.1585
▁പണിയ	-11.1586
കക്ഷി	-11.1587
ವಿಗೆ	-11.1588
▁क्रीडा	-11.1589
▁വേഗത്തിൽ	-11.1589
▁നിലനിര്ത്ത	-11.159
▁ಜಯಂತಿ	-11.159
▁पाए	-11.1591
୍ୟା	-11.1592
▁કારણો	-11.1592
▁അംഗീകരിച്ച	-11.1595
▁ആരാധകർ	-11.1595
▁धक्कादायक	-11.1596
▁रेड	-11.1598
ഷീ	-11.1599
ബോധം	-11.1599
▁ಉಪಯೋಗಿಸ	-11.1599
कों	-11.1602
▁ಅಮ	-11.1604
▁പറ്റി	-11.1604
▁മറിച്ച്	-11.1605
▁ହୋଇ	-11.1605
▁मृत	-11.1606
▁ತೆಗೆದು	-11.1606
▁തിരിച്ചറിഞ്ഞ	-11.1607
▁अर्	-11.1607
ड्ड	-11.1608
▁जुड़े	-11.1609
▁रै	-11.161
▁ನಮ್ಮನ್ನು	-11.1611
▁ಅರಮನೆ	-11.1613
ജന്	-11.1613
▁ചിലർ	-11.1614
▁शैली	-11.1614
▁खु	-11.1615
▁ಆಲೋಚನೆ	-11.1616
▁ದುರಂತ	-11.1616
▁ಕೆಲಸಕ್ಕೆ	-11.1617
▁ತೀರ್ಪು	-11.1619
▁छत्रपती	-11.1619
▁ಸಾಕ್ಷಿ	-11.162
▁પ્લાન્ટ	-11.162
▁ತನ್ನದೇ	-11.162
ac	-11.1621
▁കട്ട	-11.1622
▁ಅಲೆ	-11.1622
▁ವಶಕ್ಕೆ	-11.1622
▁फोड	-11.1622
▁કોટ	-11.1623
▁ಅವರೊಂದಿಗೆ	-11.1623
po	-11.1624
▁ಮಾಡಿದ್ದು	-11.1625
▁ವೀಡಿಯೊ	-11.1626
▁അവന	-11.1627
▁ശ്രമിക്കുക	-11.1627
▁ചെയ്യാം	-11.1628
▁ವೆಬ್	-11.1628
നിധി	-11.1628
भाग	-11.1632
▁प्रतियोगिता	-11.1632
ുന്നതെന്ന്	-11.1634
െടുത്തു	-11.1634
▁संदर्भ	-11.1634
▁പ്രധാനമായും	-11.1635
▁आदित्यनाथ	-11.1636
▁ദില്ലി	-11.1639
▁ಮಲ್ಲ	-11.164
▁पान	-11.1641
▁ഇരിക്ക	-11.1643
▁ವಿಳಂಬ	-11.1645
▁जस	-11.1646
▁ഉണ്ടാകുന്ന	-11.1647
▁યુવતી	-11.1647
▁સમુદ્ર	-11.1649
▁ಪ್ರವೃತ್ತಿ	-11.1649
▁സഹായിക്കുന്നു	-11.165
▁ಪ್ರಮಾಣವನ್ನು	-11.165
▁असम	-11.1651
▁ഇസ്ലാമിക	-11.1652
▁ವಿಭಾಗದಲ್ಲಿ	-11.1652
પૂર્ણ	-11.1653
▁ಸೂರ್ಯನ	-11.1653
ന്മാര	-11.1654
▁ಅಂಥ	-11.1654
▁पक्षाचे	-11.1655
વર્ત	-11.1655
जनक	-11.1656
▁ગામે	-11.1658
▁ಅಂಗವಾಗಿ	-11.1658
▁ಆಸಕ್ತಿದಾಯಕ	-11.166
ବା	-11.1661
▁ತೆರೆ	-11.1661
▁ಆಧಾರ	-11.1661
▁तुलना	-11.1662
▁सम्मानित	-11.1662
▁ಶಕ್ತಿಯನ್ನು	-11.1664
ാരി	-11.1664
ગન	-11.1665
താണെന്നും	-11.1665
▁ಕಾದಂಬರಿ	-11.1665
▁ચિંતા	-11.1665
▁मानक	-11.1668
ശ്രീ	-11.1668
▁करायचे	-11.167
▁अल्	-11.1673
▁ब्लॉक	-11.1678
बन	-11.1678
▁ഗവര്ണര്	-11.1679
▁सभापती	-11.1679
▁अन्	-11.168
▁મોડેલ	-11.1681
▁રોગો	-11.1681
▁ಸಾಕು	-11.1681
▁नोंदणी	-11.1684
▁കുട്ടിയെ	-11.1684
▁റിപ്പോര്ട്ടുകള്	-11.1684
▁नक्कीच	-11.1685
ಲಾರ	-11.1685
▁बेळगाव	-11.1685
ർമാർ	-11.1686
▁झु	-11.1687
▁ಸರಬರಾಜು	-11.1687
▁സ്ത്രീകളുടെ	-11.1687
തിനാലാണ്	-11.1687
▁സ്ത്രീകളെ	-11.169
▁മാത്യു	-11.169
▁अन्यथा	-11.169
क्षण	-11.1691
ारा	-11.1691
▁ഉള്	-11.1692
▁हातात	-11.1693
▁छात्रों	-11.1693
▁ಸಮೂಹ	-11.1693
വാന	-11.1693
ങ്ങളുണ്ട്	-11.1694
▁बोट	-11.1694
▁ಒಟ್ಟಾರೆ	-11.1695
▁केलेला	-11.1698
▁ചെലവ്	-11.1698
▁ನಕಲಿ	-11.1699
ടെക്	-11.17
▁ಏಕೈಕ	-11.1702
ചന്ദ്ര	-11.1702
ೂರ್	-11.1702
▁उचित	-11.1703
▁അനധികൃത	-11.1703
▁വെച്ചു	-11.1705
▁സ്വദേശിയായ	-11.1705
▁संपादक	-11.1705
▁નાણાકીય	-11.1705
ുവിന്റെ	-11.1706
▁दुख	-11.1706
▁ಧರ್ಮದ	-11.1708
▁झारखंड	-11.1709
▁ಆಗಾಗ್ಗೆ	-11.1709
വീണ	-11.1709
ಶಕ್ತಿ	-11.1711
▁पृथ्वी	-11.1712
▁ಕೇಳಿದ	-11.1712
ળે	-11.1712
▁સહ	-11.1712
▁लावून	-11.1713
സ്റ്റി	-11.1713
▁ದರ್ಶನ್	-11.1713
▁ಮಳಿಗೆ	-11.1713
स्म	-11.1713
▁आल्यानंतर	-11.1713
▁पीठ	-11.1714
▁ಮುಂದುವರಿದ	-11.1714
▁ಮೊದಲೇ	-11.1715
▁सेक्टर	-11.1717
▁ವೈಜ್ಞಾನಿಕ	-11.1717
▁ತಡೆಯ	-11.1717
ാനെത്തിയ	-11.1718
▁ಹೈಕೋರ್ಟ್	-11.1719
ാളി	-11.172
▁તબીબી	-11.172
▁ಯಶಸ್ವಿಯಾಗಿ	-11.1721
▁ગતિ	-11.1722
നാള	-11.1722
▁വസ്ത്രം	-11.1722
▁തിര	-11.1723
▁હોટેલ	-11.1723
▁जेथे	-11.1723
ുകൊണ്ടിരിക്കുന്ന	-11.1723
ाधिकारी	-11.1724
▁रखते	-11.1724
▁हवी	-11.1725
▁ಹಿಮ	-11.1726
ल्यास	-11.1729
▁माझा	-11.173
▁ईश्वर	-11.1732
▁ತೆರಳಿ	-11.1732
▁આર્ટ	-11.1733
റൂ	-11.1734
▁ಸಮೀಪ	-11.1734
▁ಕೊಡುವ	-11.1736
▁હવામાન	-11.1736
▁चाहता	-11.1736
प्रमुख	-11.1737
▁ಸೇನಾ	-11.1737
▁समस्याओं	-11.1737
▁आल्याने	-11.1737
्द	-11.1738
▁അച്ച	-11.1739
▁കപ്പല	-11.1742
ന്സ	-11.1742
ાશે	-11.1743
▁സമാന	-11.1744
▁જઇ	-11.1744
▁स्थानक	-11.1745
▁कोलकाता	-11.1746
▁ಹೆಚ್ಚಿಸಲು	-11.1746
▁बेहतरीन	-11.1747
▁കൊറിയ	-11.1748
▁याच्या	-11.1749
▁विश्लेषण	-11.1749
▁तारीख	-11.1749
▁പീഡിപ്പിച്ച	-11.1749
ക്കാട്	-11.1749
▁ಕತೆ	-11.175
▁ತಿಳಿಸಿದೆ	-11.175
ಗುಣ	-11.1751
▁മുതിർന്ന	-11.1751
▁गंगा	-11.1753
▁പ്രഖ്യാപനം	-11.1753
▁ಸೋಂಕು	-11.1754
ಸ್ಕ್	-11.1755
▁ഇടപാട	-11.1755
▁कारोबार	-11.1755
ാലയ	-11.1756
▁ಕಾಡು	-11.1756
▁हटा	-11.1756
ಾಗಲೇ	-11.1758
किंग	-11.1758
▁दिग्गज	-11.1759
▁અભિયાન	-11.1759
▁ಉಪ್ಪು	-11.176
വൃത്തി	-11.176
▁ಖರೀದಿಸ	-11.1761
ಿದ್ದೆ	-11.1761
▁संविधान	-11.1762
▁on	-11.1763
▁ಎರಡನೆಯ	-11.1763
▁પશ્ચિમ	-11.1765
ाकर	-11.1765
▁આદર્શ	-11.1766
ಣಿಯ	-11.1766
▁അന്ത	-11.1766
ಗನ್	-11.1767
ുകയില്ല	-11.1767
▁अपहरण	-11.1769
▁ನೌಕರರ	-11.177
പ്പൊ	-11.177
▁ഷി	-11.1771
▁ഹു	-11.1773
▁നേതാക്കള	-11.1774
▁दौर	-11.1777
ಸೀ	-11.1777
▁ಸ್ಥಾನಕ್ಕೆ	-11.178
▁નિર્	-11.1781
▁પ્રવૃત્તિ	-11.1781
▁असूनही	-11.1784
ವೊಂದು	-11.1784
ଚ	-11.1784
▁ಪ್ರಿಯ	-11.1786
मंडळ	-11.1786
्टी	-11.1786
▁लष्कर	-11.1787
વાનું	-11.1788
▁ગાય	-11.1789
മാണു	-11.1789
▁गठन	-11.1789
▁धवन	-11.179
▁ಕಾರ್ಮಿಕರ	-11.1791
▁પાડે	-11.1791
▁മിനി	-11.1791
▁പത	-11.1792
▁हालत	-11.1793
ंबर	-11.1795
▁ગ્રાહકો	-11.1796
▁വ്യാഴാഴ്ച	-11.1796
रों	-11.1796
▁अमिताभ	-11.1796
നാശ	-11.1797
▁व्या	-11.1798
व्हर	-11.1798
▁झाल्याचे	-11.1799
क्शन	-11.1799
▁ಅಕಾಡೆಮಿ	-11.1799
ിലായിരുന്നു	-11.1799
▁ವರ್ತಿಸ	-11.18
▁રાખ	-11.1801
▁गुंतवणूक	-11.1802
बंध	-11.1802
▁സൗ	-11.1807
ുമില്ല	-11.1807
''	-11.1809
છા	-11.181
▁કયા	-11.1811
▁ലയ	-11.1812
▁പുറത്തിറങ്ങിയ	-11.1812
▁ಬದುಕಿನ	-11.1814
▁कुं	-11.1816
▁आदिवासी	-11.1817
▁ગૃહ	-11.1817
ुआ	-11.1818
▁जयपुर	-11.1819
▁ಸೇರ್ಪಡೆ	-11.1821
▁ಹೊಂದಿಲ್ಲ	-11.1822
▁ಜನತೆ	-11.1823
▁ಗ್ರಾಹಕರು	-11.1824
സ്ഥല	-11.1826
▁പതിപ്പ	-11.1826
ाइड	-11.1826
▁छान	-11.1826
▁कंप्यूटर	-11.1826
ൊന്ന	-11.1828
▁गीत	-11.1828
▁साकार	-11.1829
▁മുല	-11.1829
▁അതിനിടെ	-11.183
കൂട	-11.183
▁അറ്റ	-11.1832
▁જતાં	-11.1833
▁લેખક	-11.1834
▁ഇടവേള	-11.1834
▁दुर्	-11.1835
▁હોઇ	-11.1835
▁लगाकर	-11.1836
कू	-11.1836
ca	-11.1837
▁दोस्त	-11.1838
▁ಸೆಳೆಯ	-11.1839
▁લોકસભા	-11.184
▁आक्रमक	-11.184
▁संवेदनशील	-11.184
▁ನಿಧನ	-11.1841
▁ಯೋಜನೆಗಳನ್ನು	-11.1842
ಿತ್ತ	-11.1843
കൊടുത്ത	-11.1844
▁लेखन	-11.1844
▁ભૂ	-11.1845
ानंद	-11.1845
ಕಲ	-11.1845
മൂല	-11.1847
▁तुरंत	-11.1847
▁താപനില	-11.1847
ವರೇ	-11.1847
ચે	-11.1849
ँड	-11.1849
▁नेत्यां	-11.1853
▁વિદ્યાર્થી	-11.1853
्याला	-11.1854
▁બાળકોને	-11.1855
▁આકર્ષક	-11.1857
▁બ્રાન્ડ	-11.1857
▁સમૂહ	-11.1857
▁गुर	-11.1858
വിള	-11.1858
റായി	-11.1858
ചെയ്ത	-11.1861
ಗ್ನ	-11.1861
▁ಪಕ್ಷಗಳು	-11.1861
▁പാരമ്പര്യ	-11.1862
▁ચેપ	-11.1862
▁सामान	-11.1863
▁આંખ	-11.1864
നിറ	-11.1866
▁ಬಾಡಿಗೆ	-11.1867
▁ലോകകപ്പ്	-11.1869
▁ಧನ್ಯವಾದಗಳು	-11.187
പത്ര	-11.187
ದಂತಹ	-11.1871
▁കാട്ട	-11.1872
▁ശിശു	-11.1872
▁एकदम	-11.1873
▁രാജ്	-11.1873
▁नो	-11.1874
▁सातारा	-11.1874
▁ಕಾರ್ಯಕರ್ತರ	-11.1875
▁મળતી	-11.1875
▁രൂപത്തിൽ	-11.1875
▁માંથી	-11.1876
▁असतानाच	-11.1877
ರ್ವ	-11.1878
▁ಪ್ರತಿದಿನ	-11.1879
▁પાર્ક	-11.188
▁പ്രചരിപ്പിക്ക	-11.1881
ാവശ്യ	-11.1881
ಥಾ	-11.1883
રજ	-11.1883
▁बर्	-11.1884
▁അലങ്കാര	-11.1884
ನ್ನೆ	-11.1885
▁फॉर	-11.1885
ट्या	-11.1886
▁സമീപിക്ക	-11.1889
ನ್ಯಾ	-11.1889
बद्ध	-11.189
ർമ്മ	-11.189
▁पहुंची	-11.1891
ವಾಗಿದ್ದ	-11.1891
▁गोड	-11.1891
സിലെ	-11.1892
▁നിര്ദ്ദേശ	-11.1893
▁ಆಕರ್ಷಣೆ	-11.1894
▁સંઘ	-11.1895
्याने	-11.1896
▁തടസ	-11.1897
▁दरवर्षी	-11.1898
▁मुलाकात	-11.1898
▁પૈકી	-11.1898
▁ઇચ્છા	-11.1898
▁ગ્રાહક	-11.1899
▁ಹಾಕಿದ	-11.1899
▁ക്രിസ്	-11.1899
▁क्षेत्रातील	-11.19
▁मिळते	-11.19
▁સર્જ	-11.1901
▁पाऊल	-11.1901
ನಲ್	-11.1902
▁भीतर	-11.1902
पक	-11.1905
बि	-11.1906
▁पहल	-11.1906
▁स्ल	-11.1906
▁ಅಮೆರಿಕದ	-11.1909
ാടി	-11.191
▁कू	-11.1912
▁നന്മ	-11.1912
ોનું	-11.1913
▁हजर	-11.1913
യെടുക്ക	-11.1914
ર્વ	-11.1914
▁थीं	-11.1914
ગામ	-11.1915
▁ಟೆ	-11.1916
क्क	-11.1917
▁ಕಣ್ಣಿನ	-11.1918
▁ಕಂಡುಕೊಳ್ಳ	-11.1918
▁ಚುನಾವಣೆಗೆ	-11.1918
▁ધમકી	-11.1918
▁પરિવર્તન	-11.1918
▁സംസാരിച്ചു	-11.1918
▁ಹಂಚಿಕೆ	-11.1919
▁ಹರಿಯ	-11.1923
ಟೆಕ್	-11.1923
pa	-11.1923
▁ಸಮ್ಮೇಳನ	-11.1924
ಸೂ	-11.1926
▁હાઈ	-11.1927
ट्ट	-11.1927
▁રદ	-11.1928
ાતી	-11.1928
ര്മ്മ	-11.193
▁തണുത്ത	-11.1932
▁ഉറപ്പ്	-11.1933
▁വരുത്തിയ	-11.1934
▁ಭಾ	-11.1935
▁ആന്റി	-11.1936
▁ജനം	-11.1938
▁दुर्घटना	-11.1938
▁വരിക	-11.1939
▁കേന്ദ്രമന്ത്രി	-11.1939
▁അതീവ	-11.1939
ില്ലെന്നാണ്	-11.194
નના	-11.1941
▁ഏറ്റെടുത്ത	-11.1943
▁തുടരുന്നു	-11.1945
▁ഇന്ധന	-11.1945
▁പ്രചാരണം	-11.1947
ment	-11.1949
ക്രി	-11.1951
▁आयात	-11.1952
▁ವಾರ್ಷಿಕ	-11.1952
▁ಪ್ರೀತಿಯ	-11.1952
▁തേടിയ	-11.1952
▁തുറന്ന്	-11.1952
ര്ട്ട്	-11.1953
वेल	-11.1954
▁એચ	-11.1955
▁ज्व	-11.1956
▁ಬೆಳಕು	-11.1956
▁ऑल	-11.1957
സില	-11.1958
▁ಎಫ್	-11.1959
▁ಕಾಣಿಸ	-11.1959
▁പുക	-11.196
▁ચાલ	-11.196
▁કાગળ	-11.1962
▁ದ್ವೀಪ	-11.1964
ಗೊಂಡಿದೆ	-11.1964
▁ഒടുവില്	-11.1965
▁ധനമന്ത്രി	-11.1966
▁शुभ	-11.1967
मिर	-11.1968
▁വികസനം	-11.1968
▁ಕೋಶ	-11.1969
▁नष्ट	-11.197
▁ഫയൽ	-11.197
ുമ്പോഴ	-11.1971
പ്പെടുത്തുന്ന	-11.1971
ക്കർ	-11.1971
▁कोड	-11.1972
വരില്	-11.1974
▁ഇടത്	-11.1975
▁ಮಹಿಳೆಯ	-11.1975
▁ചിത്രമാണ്	-11.1976
▁ದೂರದ	-11.1978
▁പിന്	-11.1978
▁मुर	-11.1979
▁രക്ഷ	-11.1979
▁पेज	-11.1979
▁ನೆರೆ	-11.1983
സ്ക്	-11.1984
▁രക്ഷപ്പെട	-11.1985
കൂട്ടിച്ചേര്ത്തു	-11.1987
▁ಉಡುಪು	-11.1987
ಯೆಂದು	-11.1988
▁vi	-11.1991
ുമെന്നു	-11.1994
▁પ્રારંભિક	-11.1995
▁ಅವರಿಂದ	-11.1995
▁હાઉસ	-11.1995
▁મંત્રાલય	-11.1996
▁മക്കള	-11.1996
ಧಾರ	-11.1997
▁સજ્જ	-11.1998
▁ചൈനീസ്	-11.1998
ള്ളി	-11.1998
▁വിദ്യാർത്ഥി	-11.1999
▁ವಾಪಸ್	-11.2
▁वालों	-11.2001
▁ಪರಿಕಲ್ಪನೆ	-11.2001
▁കണക്കാക്ക	-11.2001
्यांच्या	-11.2002
▁മാര്ഗ	-11.2002
▁ನೋಡಿಕೊಳ್ಳ	-11.2002
र्ग	-11.2003
▁અત્યાર	-11.2003
ऊन	-11.2003
▁ಸಿಡಿ	-11.2003
▁अतिक्रमण	-11.2004
▁चांगल्या	-11.2004
▁ಗ್ರಾಹಕರಿಗೆ	-11.2004
▁પહેલી	-11.2005
्याची	-11.201
ട്ടു	-11.2011
▁सांगली	-11.2011
▁എക്സ	-11.2011
▁മത്സരത്തിൽ	-11.2014
▁ಗಂಭೀರವಾಗಿ	-11.2017
▁मुश्किल	-11.2017
▁ट्रम्प	-11.2018
▁ಸೆರೆ	-11.2018
▁લગાવ	-11.2019
▁ഭൂരിപക്ഷ	-11.2019
वाला	-11.2021
▁ಸುಪ್ರೀಂ	-11.2021
ଭ	-11.2021
▁શરતો	-11.2022
േണ്ടതില്ല	-11.2023
▁ಎದುರಾಗ	-11.2023
▁ഈടാക്ക	-11.2023
▁ದೃಷ್ಟಿಯಿಂದ	-11.2024
▁गौरतलब	-11.2028
ತೇ	-11.2028
ಹೀ	-11.203
ഷ്ഠ	-11.203
▁ಅನಿಲ	-11.203
▁തര്ക്ക	-11.2032
मिन	-11.2033
ിൽനിന്ന്	-11.2033
▁સરસ	-11.2033
फो	-11.2036
ಾಲಯ	-11.2037
पूर्वी	-11.2037
▁ಕಾರ್ಯಗಳನ್ನು	-11.2038
▁ಆನೆ	-11.2038
▁ನೀರಾವರಿ	-11.2038
▁મુક્ત	-11.2039
▁रहेगी	-11.2041
▁સ્પર્ધા	-11.2042
▁ವಾಸ	-11.2042
ിയിട്ടുണ്ട്	-11.2042
▁तत्कालीन	-11.2042
▁ક્લિક	-11.2043
▁ભારતની	-11.2043
▁उधर	-11.2043
▁सज्ज	-11.2043
യാക്കിയ	-11.2044
▁വാങ്ങാൻ	-11.2044
▁ಕಾಂ	-11.2044
▁വർഷത്തെ	-11.2046
▁વધે	-11.205
▁प्रसंग	-11.205
કેટ	-11.205
▁നാട്ടുകാര്	-11.2054
▁હાર્દિક	-11.2055
▁ജമ്മു	-11.2056
▁ಸ್ನೇಹಿತರ	-11.2056
▁കെട്ട	-11.2057
▁സിനിമയിലെ	-11.2057
▁વાહનો	-11.2058
▁അടയ്ക്ക	-11.2059
▁प्रवासी	-11.2059
▁प्राचीन	-11.2059
▁ಶಾಶ್ವತ	-11.2059
▁आख	-11.206
▁मंगल	-11.2062
▁बहन	-11.2062
▁કોર્ટે	-11.2063
ಪಡಿಸಿ	-11.2064
पट्टी	-11.2065
▁സ്ഫോടന	-11.2065
▁സമീപിച്ച	-11.2066
▁കേസെടുത്ത	-11.2066
▁അധ	-11.2066
ಭಿ	-11.2069
▁जिसकी	-11.2069
▁डर	-11.2069
▁ജോസ്	-11.2071
▁ನೋಡಿದ	-11.2073
▁ടീ	-11.2073
▁ഇംഗ്ലീഷ്	-11.2073
▁ಕಂ	-11.2075
▁કાર્યો	-11.2075
മര്	-11.2075
▁മണ്ഡലം	-11.2077
▁മനോഹര	-11.2079
વેર	-11.2079
▁विद्या	-11.208
രാണ്	-11.208
▁राबव	-11.2081
▁देण्याचा	-11.2084
▁रण	-11.2086
द्ध	-11.2086
▁ફાઇલ	-11.2087
▁एप	-11.2089
पीएस	-11.209
▁സഹായിക്കുന്ന	-11.209
▁माध्यमिक	-11.2092
ങ്ങളായി	-11.2092
▁मेरी	-11.2093
▁રાત્રે	-11.2094
▁દેશની	-11.2095
▁बैठ	-11.2095
▁फ्र	-11.2096
▁એને	-11.2096
ચો	-11.2096
ർമ	-11.2096
▁ഗോവ	-11.2098
▁നിര്ത്ത	-11.21
ಣ್	-11.21
▁उनको	-11.21
▁ટ્રસ્ટ	-11.21
▁आढावा	-11.21
മ്മി	-11.2101
ರಿಸ	-11.2102
▁वापरून	-11.2102
▁व्ही	-11.2103
ીલ	-11.2104
▁રશિયા	-11.2104
▁कुठे	-11.2104
▁शिकार	-11.2105
op	-11.211
कारक	-11.211
▁नक्की	-11.2111
▁સંભવિત	-11.2111
ടേ	-11.2114
ાંક	-11.2116
ગત	-11.2116
▁ಭಿನ್ನ	-11.2118
▁ദിവസത്തെ	-11.212
▁त्रि	-11.2121
▁ಅಧಿಕಾರಕ್ಕೆ	-11.2121
▁ക്രിക്കറ്റ	-11.2122
▁पाकिस्तानी	-11.2122
▁अनुमति	-11.2123
▁रुग्णालय	-11.2123
ുന്നതെന്നും	-11.2124
െടുക്കുന്ന	-11.2125
ರಾಗಿರುವ	-11.2125
▁ಎಂಟು	-11.2126
▁उम्र	-11.2126
र्ष	-11.2127
ಯಾಗಿತ್ತು	-11.2127
ಂಗಿ	-11.2128
▁പിന്നീട	-11.2129
പ്പെടുകയും	-11.2129
▁आते	-11.2129
ಂಬೆ	-11.2132
▁माणसा	-11.2133
ઓનો	-11.2134
▁ಜಲಾಶಯ	-11.2135
▁ઉત્સાહ	-11.2135
▁ನೈಜ	-11.2136
▁વિકલ્પો	-11.2137
▁ബോര്ഡ	-11.2139
യിലായിരുന്നു	-11.2139
▁तनाव	-11.2139
▁સુવિધાઓ	-11.2139
पॉ	-11.2139
▁ಪದಕ	-11.214
मंद	-11.2141
▁ദ്വീപ	-11.2142
▁ಆಗಮಿಸ	-11.2142
▁प्रकारचे	-11.2142
▁જયારે	-11.2142
▁വധശിക്ഷ	-11.2142
▁ಶುರು	-11.2143
▁ലോക്സഭ	-11.2144
▁तसंच	-11.2145
▁પંચ	-11.2146
▁झाल्यास	-11.2147
▁ശേഖരിച്ച	-11.2147
▁पवन	-11.2148
▁ಹಿಂದುಳಿದ	-11.2149
▁वर्षांपासून	-11.215
▁एकमेकां	-11.215
▁दायर	-11.215
ുണ്ടാക	-11.215
▁sh	-11.2152
▁ಇತ್ತ	-11.2152
દાન	-11.2154
▁જમા	-11.2155
ಜ್ಜ	-11.2157
▁धोका	-11.2158
ಕದ	-11.2159
▁ആളുകള	-11.2159
▁ફાયર	-11.216
▁ಜಗಳ	-11.2161
മിക	-11.2161
▁ಬಂದಿದ್ದ	-11.2161
▁അഭിനയിക്ക	-11.2163
▁മെച്ചപ്പെട്ട	-11.2163
▁ಅಲರ್ಜಿ	-11.2163
▁തടഞ്ഞ	-11.2163
ഗു	-11.2163
▁മൊബൈല്	-11.2164
▁െൻറ	-11.2164
दारी	-11.2165
▁വാഴ	-11.2165
हित	-11.2166
യാണോ	-11.2166
▁पहिले	-11.2167
▁चंद्रकांत	-11.2167
▁कार्यक्रमात	-11.2167
▁तुम	-11.2168
ുകയാണെന്ന്	-11.2168
▁શરૂઆતમાં	-11.2168
▁गेट	-11.217
▁ಸಹಕಾರಿ	-11.2173
▁ವೈಶಿಷ್ಟ್ಯ	-11.2173
सिंग	-11.2175
वानी	-11.2176
▁വാഹനങ്ങള്	-11.2179
▁ഉൾപ്പെടുത്ത	-11.2181
▁ಆಪ್	-11.2181
▁ಭಾಗವಾಗಿ	-11.2183
▁સ્ક્રીન	-11.2183
▁પાછા	-11.2185
▁સરકારને	-11.2185
▁अडक	-11.2186
ಮತ	-11.2186
▁റിപ്പോർട്ട	-11.2186
शाही	-11.2187
▁സവിശേഷത	-11.2189
▁ರೋಗದ	-11.219
▁പ്രീ	-11.2191
ಗೂಡ	-11.2191
▁रिकॉर्ड	-11.2192
सूर	-11.2195
बुल	-11.2195
▁पहुंचा	-11.2195
▁प्रत्यक्षात	-11.2195
▁മീറ്റ	-11.2197
▁थोडे	-11.2198
ರೈ	-11.2199
ದಲ್ಲಿಯೇ	-11.22
ಿಯಾಗಿ	-11.2201
▁વિચારો	-11.2201
▁കഷ്ട	-11.2202
▁അന്നത്തെ	-11.2202
പരിശോധന	-11.2202
തരം	-11.2202
▁വാര്ത്താ	-11.2203
▁ಮಗುವಿಗೆ	-11.2206
▁മാനേജ്മെന്റ്	-11.2206
ശ്വ	-11.2206
▁पल	-11.2207
▁ಶ್ರ	-11.2208
▁विभागाने	-11.2208
▁બરાબર	-11.2209
ીમાં	-11.221
ರೋಗ	-11.221
▁ಮೊದಲಾದ	-11.2212
▁ಸ್ಪೀಕರ್	-11.2212
ಿಯರು	-11.2213
ോള്	-11.2214
▁റാലി	-11.2214
▁ಖ್ಯಾತ	-11.2215
▁ટીવી	-11.2215
▁വരുമാനം	-11.2215
▁शराब	-11.2216
लैंड	-11.2217
▁ಕೋಣೆ	-11.2217
▁മരുന്നുകൾ	-11.2217
ate	-11.2217
▁કોર્ટમાં	-11.2218
▁ભી	-11.2218
ಮಾನ್	-11.2218
ുണ്ടാവ	-11.2219
▁इनके	-11.2219
पदी	-11.222
ಶು	-11.2221
▁ഉപയോഗിക്കുക	-11.2221
ರಸ	-11.2222
▁करणारी	-11.2222
▁തകര്ന്ന	-11.2223
▁ભય	-11.2223
പൂർ	-11.2224
▁महिन्या	-11.2224
▁रस्त्या	-11.2225
▁നാഗ	-11.2225
▁अक्सर	-11.2226
▁છૂટ	-11.2227
▁ಉಲ್ಲೇಖ	-11.2228
ફો	-11.223
▁ಅಂಶಗಳ	-11.223
▁વિદેશી	-11.223
▁એટલા	-11.2231
▁मार्गावर	-11.2231
▁ರಾಜ್	-11.2232
തട	-11.2233
▁ಸಿಬಿಐ	-11.2234
ગુ	-11.2234
ಕುಲ	-11.2235
▁दर्जा	-11.2236
ദാസ്	-11.2237
▁കോളജ്	-11.2237
ಳಿಗೆ	-11.2237
▁ઓપન	-11.2237
ിലേറെ	-11.2239
▁പങ്കു	-11.2239
▁જિલ્લામાં	-11.2239
▁കമ്മറ്റി	-11.2239
ेरी	-11.224
▁ಬಾಗಿಲು	-11.2241
▁പോകാൻ	-11.2241
▁સંખ્યામાં	-11.2242
▁ജീവനക്കാര്	-11.2242
▁ಆಪ್ತ	-11.2243
▁ಮರೆಯ	-11.2244
▁लागतो	-11.2247
▁नवंबर	-11.2248
जात	-11.2249
▁अतिथि	-11.2249
▁മെട്രോ	-11.2249
▁राजेंद्र	-11.2249
▁गैस	-11.225
▁विपक्ष	-11.2251
▁ಆಭರಣ	-11.2251
▁ದೌರ್ಜನ್ಯ	-11.2251
▁ಸುದ್ದಿಗೋಷ್ಠಿ	-11.2251
▁बेस्ट	-11.2252
नल	-11.2253
▁ಅಮಿತ್	-11.2255
▁ಕಮಲ	-11.2256
ಾದರೆ	-11.2256
खाली	-11.2259
▁रहेंगे	-11.226
▁आस	-11.226
▁ठरणार	-11.2261
▁ಮಾಡಿಕೊಂಡು	-11.2261
▁शुद्ध	-11.2261
▁अपडेट	-11.2262
▁കൊണ്ടുപോക	-11.2262
▁ചടങ്ങ	-11.2264
▁કરતો	-11.2264
▁ચહેરા	-11.2265
▁સારો	-11.2266
▁लागल्या	-11.2268
▁വളർത്ത	-11.2269
▁ಶಾಸನ	-11.227
മറ	-11.227
▁ಉಪಕರಣ	-11.227
▁आणले	-11.2272
േഷന	-11.2272
▁आतंकवाद	-11.2275
▁ખુશ	-11.2275
▁ಕೊನೆ	-11.2275
▁બેઠકમાં	-11.2279
▁वाघ	-11.2279
▁മാറ്റങ്ങൾ	-11.2279
▁चै	-11.2282
കുല	-11.2282
▁મુસ્લિમ	-11.2283
▁गोंधळ	-11.2283
▁निर्यात	-11.2284
യുളള	-11.2286
▁ದೊರೆತ	-11.2288
▁യുഎഇ	-11.229
▁ഉണ്ടെങ്കിൽ	-11.229
▁પોતાને	-11.229
▁ഡയറക്ടറ	-11.2293
▁ഡിസൈൻ	-11.2293
▁പിറന്ന	-11.2294
▁વર્ણન	-11.2294
▁ચૂકવણી	-11.2294
▁ಹೇಳಿದೆ	-11.2294
ल्याचे	-11.2294
▁ದಾಖಲೆಗಳನ್ನು	-11.2294
▁रच	-11.2295
ടാ	-11.2295
ेस्ट	-11.2296
जय	-11.2298
▁કાર્યક્રમમાં	-11.23
▁ಧೈರ್ಯ	-11.2301
▁സമർപ്പിച്ച	-11.2301
ಿಡ	-11.2301
▁सच	-11.2301
▁मोज	-11.2301
▁ತಾಯಿಯ	-11.2302
ഗിരി	-11.2303
നിന്നുള്ള	-11.2303
▁ઉપાય	-11.2304
▁പേരും	-11.2307
ಯಾಯಿತು	-11.2307
▁ಪಾಲ್ಗೊಳ್ಳ	-11.2307
നുമായ	-11.2308
ಚಿತ್ರ	-11.2309
▁ಸಾರ್ವಜನಿಕರ	-11.2309
एमसी	-11.231
એન	-11.2311
ಾಸ	-11.2312
▁ഇഷ്ടപ്പെടുന്ന	-11.2312
▁नसून	-11.2312
നൂ	-11.2313
▁आकर	-11.2314
▁તેનાથી	-11.2314
▁ಆಗಸ್ಟ್	-11.2315
▁हट	-11.2315
▁शीर्ष	-11.2317
िये	-11.2322
ರವರ	-11.2322
્ચર	-11.2324
सोबतच	-11.2324
▁प्रमाणावर	-11.2325
ವಾಗಬಹುದು	-11.2325
▁ಚಲಾಯಿಸ	-11.2325
▁തോന്നുന്നു	-11.2327
▁माने	-11.2327
स्थान	-11.2328
▁होटल	-11.2328
▁ಪ್ರವಾಸಿಗರು	-11.2328
▁માન	-11.2328
▁മോഹന്ലാല്	-11.2328
▁ಹುಟ್ಟ	-11.2329
▁સલમાન	-11.2329
▁മേള	-11.2329
ीच	-11.233
▁ഭരണകൂട	-11.2332
▁ಸ್ನಾಯು	-11.2333
▁തുടങ്ങിയത്	-11.2334
▁રમતો	-11.2334
ഭാവ	-11.2335
▁સેક્સ	-11.2335
ദേവ	-11.2335
▁കുമാര്	-11.2335
▁ആന്ഡ്	-11.2335
થો	-11.2337
▁ದೇಹದಲ್ಲಿ	-11.2337
ಾಗಿದ್ದು	-11.2337
▁അതോറിറ്റി	-11.234
▁രാജ്യാന്തര	-11.234
ज्ञान	-11.234
▁अर्जुन	-11.2342
▁आर्	-11.2343
▁ಸ್ಥಿತಿಯಲ್ಲಿ	-11.2343
▁ചൊവ്വാഴ്ച	-11.2343
▁ನೀಡುವಂತೆ	-11.2344
▁ബഹു	-11.2345
▁સાવ	-11.2345
▁ಇರುವುದು	-11.2345
▁તણાવ	-11.2347
▁આરામદાયક	-11.2347
ುವಿಕೆಯ	-11.2347
▁स्वरूपात	-11.2348
चित	-11.2348
▁કરશો	-11.2348
ಕ್ಟ್	-11.2349
▁ತುದಿ	-11.235
▁ಭಾಷೆಯ	-11.2351
▁પ્રવૃત્તિઓ	-11.2352
ांतील	-11.2352
▁ഹി	-11.2353
▁પકડી	-11.2353
▁ನಿಂತು	-11.2354
▁ചെയ്തിട്ടുണ്ട്	-11.2354
▁ಪಾಕಿಸ್ತಾನದ	-11.2357
झी	-11.2357
▁विद्यमान	-11.2357
ાલ	-11.2358
▁મધ્યમ	-11.2358
▁नावे	-11.2358
▁ഭാവ	-11.236
કામ	-11.2362
സേ	-11.2363
▁ലേഖന	-11.2363
▁ಪಡೆದರು	-11.2363
▁ശക്ത	-11.2363
ശ്ശേരി	-11.2364
▁പലിശ	-11.2368
▁एयरपोर्ट	-11.2368
▁നിർത്തി	-11.2368
▁pm	-11.2368
▁मलिक	-11.2369
▁પ્રમાણ	-11.2369
▁સમાજના	-11.237
വെന്നും	-11.2371
▁ನಾಡ	-11.2371
ಫ್ಟ್	-11.2372
▁തടഞ്ഞു	-11.2372
സിഡ	-11.2374
હુ	-11.2375
બ્ર	-11.2375
▁गडकरी	-11.2375
▁ധോണി	-11.2375
▁दोषी	-11.2375
▁വണ്ടി	-11.2377
▁അനന്ത	-11.2377
▁പരാജയപ്പെട്ട	-11.2377
▁ತೋಟ	-11.2377
▁चिन्ह	-11.2378
वाय	-11.2379
▁ಕಾಫಿ	-11.2379
बाग	-11.238
▁रवि	-11.238
▁રાજ્યમાં	-11.238
▁वळ	-11.2382
▁गणपती	-11.2382
▁बरोबर	-11.2383
▁പേരാണ്	-11.2384
▁വയനാട്	-11.2385
▁કેસમાં	-11.2385
पुरा	-11.2385
ഫാ	-11.2386
▁लक्ष्मी	-11.2387
ിറങ്ങി	-11.2388
▁फायदे	-11.2389
▁മലയാളം	-11.239
▁ಒತ್ತು	-11.239
▁വേറെ	-11.2391
▁જવાનો	-11.2391
▁ചെയ്യപ്പെട്ട	-11.2392
▁ಯಶಸ್ಸು	-11.2393
തിരുവനന്തപുരത്ത്	-11.2394
▁અભાવ	-11.2395
पति	-11.2395
▁सोप	-11.2395
▁સમિતિ	-11.2395
▁പതിവ്	-11.2396
▁येतील	-11.2396
▁ആവേശ	-11.2396
କ୍ଷ	-11.2396
▁ಉತ್ತಮವಾಗಿ	-11.2397
▁പ്രോത്സാഹിപ്പി	-11.2397
▁സർവകലാശാല	-11.2397
▁पोहच	-11.2398
▁മെയ്	-11.2398
▁पाण्या	-11.2398
बंद	-11.24
▁સમક્ષ	-11.2401
▁કરેલા	-11.2402
▁സാധിക്കും	-11.2402
▁जबाबदार	-11.2402
▁അല്ലെങ്കില്	-11.2405
▁ಕೌ	-11.2405
ମି	-11.2405
▁ચાર્જ	-11.2407
▁ಉದ್ಯಾನ	-11.2408
▁कोरिया	-11.2408
▁ಮಹಾನಗರ	-11.2409
▁നിര്ദേശ	-11.241
അഭിപ്രായപ്പെട്ടു	-11.241
▁कलेक्टर	-11.2411
▁സ്വഭാവം	-11.2411
▁സാധാരണക്കാര	-11.2413
್ತಾ	-11.2413
ಾಲ	-11.2414
▁संग्रह	-11.2414
▁कार्यकर्त्यां	-11.2415
▁കണ്ണൂർ	-11.2416
▁പത്ത	-11.2417
धान	-11.2417
▁मां	-11.242
▁સ્ટે	-11.242
▁कमाल	-11.242
पात	-11.242
▁प्रकारची	-11.2421
▁ಮಾಡಿಲ್ಲ	-11.2421
▁ખરીદ	-11.2421
▁പാവ	-11.2421
▁പാക്കിസ്ഥാന	-11.2422
▁ನಿಯಮಗಳನ್ನು	-11.2424
▁દેશો	-11.2425
▁दीड	-11.2425
ദ്ധ്യ	-11.2425
▁सर्वेक्षण	-11.2425
▁तालुक्यात	-11.2425
▁ಅದೃಷ್ಟ	-11.2426
യുടേയും	-11.2426
▁അയാളുടെ	-11.2427
▁എല്ലാവർക്കും	-11.2427
▁വയറ	-11.2427
▁विदेशी	-11.2428
ive	-11.2428
ीं	-11.2428
▁ಟ್ಯಾ	-11.243
पूर्वक	-11.2431
વીર	-11.2433
▁यापूर्वी	-11.2433
▁ಪಾಲಿಸ	-11.2434
▁ಪ್ರಾಣಿಗಳ	-11.2435
മിന	-11.2435
▁ಮಂಡಿಸ	-11.2435
▁તત્વો	-11.2436
ha	-11.244
കീഴ	-11.2441
▁ಇರುವುದಿಲ್ಲ	-11.2443
▁എന്നിവരുടെ	-11.2444
विले	-11.2445
▁लगेच	-11.2445
ൂറ	-11.2446
▁દોરી	-11.2446
▁പ്രൊഫ	-11.2446
▁ಸಮಾವೇಶ	-11.2447
▁इंजिन	-11.2447
▁ટેબલ	-11.2447
▁ಪ್ರತೀ	-11.2448
▁വായിച്ച	-11.2448
▁വേണമെന്ന	-11.2449
▁നിശ്ചയിച്ച	-11.245
▁कपिल	-11.2451
▁ಹಾಕಲು	-11.2451
▁കഴിവ	-11.2452
▁പ്രമേയ	-11.2453
▁പ്രി	-11.2454
ത്തിൻറെ	-11.2455
പറയ	-11.2456
વાના	-11.2456
▁പ്രായോഗിക	-11.2456
ಾವತಿ	-11.2457
ावत	-11.2457
▁ഇറങ്ങ	-11.2459
ാണെങ്കിൽ	-11.246
▁ನೆಟ್ವರ್ಕ್	-11.2461
ವೀ	-11.2462
▁ಆಗುವ	-11.2463
▁ಹೆಚ್ಚಿಸುತ್ತದೆ	-11.2464
▁ನಿಧಿ	-11.2464
▁ಆಯ್ಕೆಯನ್ನು	-11.2465
ಯುವ	-11.2465
▁तलाव	-11.2466
ಟೈ	-11.2466
ನಾಯಕ	-11.2467
▁ಸಮಸ್ಯೆಗಳ	-11.2471
ഒരു	-11.2471
▁मार्क	-11.2474
लिक	-11.2475
यात	-11.2475
ુર	-11.2476
▁टप्प्यात	-11.2476
▁ಕುಳಿತು	-11.2476
▁ಪ್ರಾರ್ಥನೆ	-11.2476
▁एकत्रित	-11.2476
▁प्रेरणा	-11.2476
▁ವ್ಯಕ್ತಿಗಳು	-11.2478
▁രാസ	-11.2478
िग	-11.2479
ീര്	-11.2479
▁महाराष्ट्रातील	-11.2481
महा	-11.2482
▁ಆರಾಮದಾಯಕ	-11.2483
▁महिले	-11.2484
▁માનવામાં	-11.2484
ിലെത്തി	-11.2484
▁શરીરમાં	-11.2485
ിയാ	-11.2485
മോചന	-11.2487
▁मंडळी	-11.2488
ಲಿಗೆ	-11.2488
ഭക്ത	-11.2489
▁പ്രവർത്തിച്ച	-11.249
▁എന്നിങ്ങനെ	-11.249
▁ಲಭ್ಯವಿದೆ	-11.249
▁कालावधी	-11.2491
▁സഭയുടെ	-11.2492
ഫെ	-11.2493
▁અંદાજ	-11.2494
[...]
