<pad>	0
<s>	0
</s>	0
<unk>	0
<mask>	0
.	-3.08388
▁	-3.3798
,	-3.66817
▁છે	-4.60629
0	-4.72679
1	-4.77854
2	-5.0532
।	-5.14635
▁के	-5.24208
▁ಮತ್ತು	-5.32812
▁है	-5.37674
▁અને	-5.3835
▁में	-5.56101
-	-5.61116
9	-5.71866
▁(	-5.71931
)	-5.78306
5	-5.83392
▁માટે	-5.84553
ની	-5.88746
▁की	-5.89779
▁और	-5.91952
3	-5.93051
માં	-5.96361
?	-5.97029
▁કે	-5.98941
ના	-6.02396
4	-6.039
▁તે	-6.04135
▁एक	-6.07928
8	-6.09814
▁से	-6.11281
ને	-6.11296
▁આ	-6.12378
."	-6.18683
▁એક	-6.21578
6	-6.223
▁को	-6.22639
▁हैं	-6.2587
7	-6.26956
▁"	-6.27765
▁का	-6.28154
▁""	-6.32751
▁आहे	-6.33079
▁ಈ	-6.34259
▁"""	-6.3608
▁ഒരു	-6.39718
▁ನೀವು	-6.45262
▁लिए	-6.48472
ಗಳು	-6.50443
▁-	-6.5413
""	-6.56122
▁તમે	-6.56291
નો	-6.56848
ದ	-6.5823
▁પર	-6.62204
▁ಇದು	-6.65561
▁નથી	-6.65786
▁ಎಂದು	-6.68354
▁ಒಂದು	-6.6918
▁नहीं	-6.71359
▁જે	-6.72023
▁पर	-6.72233
▁।	-6.76204
▁કરી	-6.76258
ಗಳನ್ನು	-6.7657
▁પણ	-6.78854
ം	-6.7923
▁સાથે	-6.81852
▁कि	-6.82176
▁ಅಥವಾ	-6.82875
:	-6.89123
▁ಅವರು	-6.90964
ಗಳ	-6.92862
▁या	-6.95712
▁यह	-6.97612
്	-6.97982
▁आणि	-6.98686
ನ	-6.99396
▁જ	-6.99703
ಯ	-6.99835
▁ನಿಮ್ಮ	-7.01051
▁અથવા	-7.01172
▁ഈ	-7.0212
નું	-7.02429
▁'	-7.03766
થી	-7.04651
▁છો	-7.04776
ವನ್ನು	-7.08284
ಗೆ	-7.08942
▁શકે	-7.10024
▁ने	-7.12062
▁એ	-7.12951
▁ನಾನು	-7.13432
'	-7.15089
ും	-7.17687
▁કરવા	-7.19588
▁રીતે	-7.19954
▁જો	-7.2125
▁વધુ	-7.22944
▁હતી	-7.2317
▁नाही	-7.23503
▁કરે	-7.24089
ವು	-7.2409
▁ಆದರೆ	-7.24252
▁भी	-7.2429
▁करने	-7.24367
▁ഞാൻ	-7.24503
!	-7.24922
▁તો	-7.2655
;	-7.29051
ಸ್	-7.29758
ी	-7.29775
ों	-7.29941
▁आप	-7.30143
▁તમારા	-7.31876
ો	-7.33087
ରେ	-7.33543
▁तो	-7.33999
▁किया	-7.35142
ರ	-7.35579
▁कर	-7.3579
ର	-7.38588
▁આવે	-7.39868
▁પરંતુ	-7.44021
▁કરવામાં	-7.44468
એ	-7.44826
▁जो	-7.45334
▁હોય	-7.45507
च	-7.45638
▁था	-7.46806
▁ഇത്	-7.46917
▁साथ	-7.4838
ു	-7.49202
▁હતું	-7.50085
▁हो	-7.50531
▁દ્વારા	-7.52018
▁હતા	-7.52596
ದಲ್ಲಿ	-7.52839
▁તેઓ	-7.536
ಕ್ಕೆ	-7.53674
▁ನಾವು	-7.54623
ಯನ್ನು	-7.54971
▁इस	-7.55946
▁मी	-7.57096
▁હતો	-7.57206
▁કોઈ	-7.58083
▁ಅನ್ನು	-7.58447
ಗಳಲ್ಲಿ	-7.59538
▁તરીકે	-7.60463
ે	-7.61084
ിൽ	-7.62124
▁ही	-7.62558
ી	-7.63861
▁ಹೆಚ್ಚು	-7.6461
▁मैं	-7.64883
▁क्या	-7.65419
%	-7.66039
।"	-7.66223
ಿ	-7.67113
▁ಬಗ್ಗೆ	-7.67208
▁ನಂತರ	-7.67478
ಲು	-7.68297
യും	-7.68325
▁ઉપયોગ	-7.68368
▁ન	-7.68579
ा	-7.68636
त	-7.68795
▁अपने	-7.6892
▁गया	-7.69244
▁ಅವರ	-7.69408
े	-7.69452
▁നിങ്ങൾ	-7.69852
▁അത്	-7.70174
ಃ	-7.70961
ത്	-7.72525
▁હું	-7.73888
ರು	-7.74045
ला	-7.74769
▁કરો	-7.74975
▁ಮೇಲೆ	-7.75464
▁શકો	-7.75882
र	-7.76274
▁ಅದು	-7.76796
▁ಯಾವುದೇ	-7.76823
ാൻ	-7.77644
▁તેના	-7.78108
ನಲ್ಲಿ	-7.78425
न	-7.7998
▁ते	-7.8025
▁તમારી	-7.80336
▁સુધી	-7.80831
വും	-7.81
▁आहेत	-7.8136
▁અન્ય	-7.8142
ುವ	-7.81467
ಗಳಿಗೆ	-7.8197
▁ಆ	-7.82799
▁रूप	-7.83106
ൽ	-7.83423
▁શું	-7.83826
ः	-7.8432
▁જ્યારે	-7.84578
ುತ್ತದೆ	-7.85082
ാണ്	-7.85413
▁ಕೆಲವು	-7.85539
▁તમને	-7.85616
્સ	-7.85922
▁अधिक	-7.86105
▁થાય	-7.86471
▁પછી	-7.86605
▁આવી	-7.87011
▁લોકો	-7.87464
▁ನನ್ನ	-7.88193
▁માં	-7.88581
▁कुछ	-7.8891
स	-7.89221
▁બે	-7.89338
▁ರಲ್ಲಿ	-7.896
ുന്നു	-7.89694
▁તેમના	-7.89897
▁સૌથી	-7.90097
▁നിങ്ങളുടെ	-7.90284
ता	-7.90618
ने	-7.90897
▁ಎಲ್ಲಾ	-7.92093
ર	-7.92253
▁ആ	-7.92461
▁કામ	-7.93267
▁तक	-7.94332
▁ಮಾಡಲು	-7.94989
മാണ്	-7.95045
क	-7.95052
▁?	-7.95254
च्या	-7.95314
▁નહીં	-7.95601
▁हे	-7.95684
ಯು	-7.95788
യിൽ	-7.96106
▁ಮೊದಲ	-7.96845
ल	-7.97076
▁ನಮ್ಮ	-7.97585
ಿದೆ	-7.98413
▁ತಮ್ಮ	-7.98646
ി	-7.98652
ક	-7.99816
ವಾಗಿ	-7.99856
▁ಮೂಲಕ	-7.99866
സ്	-7.99891
▁वह	-7.99934
▁कहा	-8.00482
?"	-8.00647
ು	-8.0097
ವಾಗಿದೆ	-8.00976
ಯಲ್ಲಿ	-8.0121
യുടെ	-8.01521
▁हम	-8.01557
▁જરૂર	-8.01685
લ	-8.02198
▁સમય	-8.02484
▁તેને	-8.02576
▁અમે	-8.03239
▁सकते	-8.03799
କୁ	-8.03851
ન	-8.04881
▁काम	-8.04884
▁ತನ್ನ	-8.05517
ઓ	-8.05592
ങ്ങൾ	-8.06655
તા	-8.06849
▁જોઈએ	-8.07542
▁मला	-8.08315
ത്തിൽ	-8.09255
ക്ക്	-8.09536
യാണ്	-8.09785
▁ಹೊಸ	-8.09929
▁ખૂબ	-8.10206
▁करते	-8.10447
ही	-8.10642
▁કારણ	-8.11384
▁સામાન્ય	-8.11964
▁ಎರಡು	-8.12124
▁ସେ	-8.12716
▁होता	-8.12762
▁ಕೆಲಸ	-8.12857
▁सकता	-8.13001
▁करना	-8.13183
▁सबसे	-8.13459
ं	-8.1376
▁ಅ	-8.13949
▁ಇತರ	-8.14478
▁ರ	-8.14623
▁എന്റെ	-8.1466
▁ಹೆಚ್ಚಿನ	-8.14961
▁ଏହି	-8.1499
▁થઈ	-8.15429
▁होते	-8.15595
ದಿಂದ	-8.16395
▁करता	-8.16719
▁ಅದನ್ನು	-8.171
ना	-8.17609
▁$	-8.17632
▁അവർ	-8.18353
▁समय	-8.18362
▁लेकिन	-8.18583
ുകൾ	-8.18645
▁आपको	-8.18829
s	-8.18956
▁પ્રથમ	-8.19296
▁ನಿಮಗೆ	-8.19562
ಬಹುದು	-8.1969
▁વર્ષ	-8.19817
ची	-8.1994
ാ	-8.20454
▁/	-8.2109
▁करें	-8.21252
चा	-8.22282
▁ഏറ്റവും	-8.22384
ൻ	-8.22413
ात	-8.22667
ઃ	-8.22974
ില്ല	-8.2309
▁वे	-8.23383
▁बहुत	-8.24271
ುವುದು	-8.24304
▁आपण	-8.25089
▁जा	-8.25167
ં	-8.2525
▁તેની	-8.25694
▁തന്നെ	-8.26166
ಟ್	-8.26857
ത്തിന്റെ	-8.27187
▁मुझे	-8.2748
ർ	-8.28166
▁എല്ലാ	-8.28943
▁કેટલાક	-8.29126
▁માત્ર	-8.29231
चे	-8.29261
▁रहा	-8.29605
▁ପାଇଁ	-8.29837
्स	-8.2987
▁भारत	-8.29886
ನ್	-8.30076
▁न	-8.30541
▁कम	-8.30622
▁कोई	-8.30658
▁ಕಡಿಮೆ	-8.30691
▁છું	-8.30931
▁काही	-8.31078
▁પાસે	-8.31214
മ	-8.31226
▁വളരെ	-8.31341
ಕ	-8.31564
સ	-8.31729
ുന്ന	-8.31806
▁વિશે	-8.32103
▁તેમને	-8.32364
▁നിങ്ങൾക്ക്	-8.32401
െ	-8.32485
▁ಸಹ	-8.32584
ಲ್	-8.3268
▁എന്ന	-8.32742
▁ના	-8.32826
▁पहले	-8.32895
▁रहे	-8.32922
▁ಹಾಗೂ	-8.33763
▁ઘણા	-8.33951
ോ	-8.33981
માંથી	-8.3421
▁सभी	-8.34444
म	-8.34739
▁દરેક	-8.3506
കൾ	-8.35165
▁ഞങ്ങൾ	-8.35298
▁તેમની	-8.35541
ുന്നത്	-8.35585
▁बाद	-8.35586
▁કરવાની	-8.35614
▁ಪ್ರತಿ	-8.3573
मध्ये	-8.35874
യ	-8.35949
▁ನನಗೆ	-8.36115
ുക	-8.36294
ರಲ್ಲಿ	-8.36391
ിന്റെ	-8.36415
▁ಅದರ	-8.36626
ത	-8.36949
મ	-8.37268
▁ಉತ್ತಮ	-8.37286
▁મને	-8.37732
▁તેમણે	-8.37737
ಬೇಕು	-8.37925
▁શરૂ	-8.3828
ಿದ್ದಾರೆ	-8.38856
▁किसी	-8.39303
ರ್	-8.39519
▁ಅನೇಕ	-8.40006
ವಾದ	-8.40048
▁होती	-8.40106
▁द्वारा	-8.40236
▁അല്ലെങ്കിൽ	-8.40404
▁എന്നാൽ	-8.40539
▁ಇದನ್ನು	-8.42069
▁ત્યારે	-8.42433
▁ಇಲ್ಲ	-8.42716
േ	-8.43016
▁કર્યું	-8.43505
മായി	-8.43731
▁ವರ್ಷ	-8.43815
▁કરીને	-8.44637
▁ଓ	-8.44661
▁दिया	-8.44999
▁എനിക്ക്	-8.45097
▁जाता	-8.45261
▁हा	-8.45609
ली	-8.4563
वर	-8.45722
▁તમામ	-8.45895
▁पण	-8.4607
/	-8.46152
ટ	-8.46295
ാം	-8.46331
▁അ	-8.46422
ഃ	-8.46495
ുകയും	-8.47719
ಲ್ಲಿ	-8.47813
▁છીએ	-8.47843
▁ಹೇಗೆ	-8.48213
▁જેમ	-8.48619
ले	-8.4863
▁ಕೇವಲ	-8.48712
▁ಈಗ	-8.48952
▁ત્યાં	-8.48981
ನ್ನು	-8.48984
▁थी	-8.49358
▁थे	-8.49833
▁રહ્યા	-8.49838
▁ಸಾಮಾನ್ಯವಾಗಿ	-8.50174
▁ଏହା	-8.50264
▁ആണ്	-8.50618
▁શકાય	-8.50857
മായ	-8.50868
▁जब	-8.50875
ા	-8.50894
▁तर	-8.50963
પ	-8.51083
▁साल	-8.51209
വ	-8.51342
▁બધા	-8.51578
▁तरह	-8.51604
▁അദ്ദേഹം	-8.51758
ುತ್ತಾರೆ	-8.5188
▁ಮಾತ್ರ	-8.52635
ಕ್	-8.52638
,""	-8.53
▁ದೊಡ್ಡ	-8.53217
▁उपयोग	-8.5323
▁काय	-8.53239
▁કેવી	-8.53375
▁તમારે	-8.53533
▁നിന്ന്	-8.5356
▁പുതിയ	-8.53604
▁ಅತ್ಯಂತ	-8.53822
ಿತು	-8.54229
▁ಪ್ರಮುಖ	-8.54544
"""	-8.54886
ते	-8.5495
▁હવે	-8.55067
▁കൂടുതൽ	-8.55395
▁ଏବଂ	-8.55547
य	-8.56118
▁बारे	-8.56172
ट	-8.56176
▁ಎಂಬ	-8.56182
▁ಜನರು	-8.56459
▁ಹೊಂದಿದೆ	-8.56551
▁अपनी	-8.5661
ಡ್	-8.56948
▁ಸಹಾಯ	-8.57012
ಾ	-8.57091
▁आज	-8.57095
િંગ	-8.57301
ക്ക	-8.57338
▁કર્યો	-8.5773
▁होगा	-8.57751
▁कारण	-8.57799
▁ಏನು	-8.58178
ನು	-8.5822
ರೆ	-8.5844
▁मध्ये	-8.58451
ರಿ	-8.58598
▁जीवन	-8.58674
ज	-8.58753
प	-8.58802
▁എന്ന്	-8.58885
ത്തെ	-8.58948
ണം	-8.59378
▁ଏକ	-8.59544
▁आपके	-8.59589
▁તેથી	-8.59721
ന	-8.59757
▁പറഞ്ഞു	-8.60061
▁चाहिए	-8.60127
ವಿ	-8.60159
▁કહ્યું	-8.60377
▁देश	-8.60902
▁अब	-8.61085
▁ମୁଁ	-8.61139
▁कैसे	-8.61629
ಮ್	-8.6175
ಾಗ	-8.61814
▁ಆದ್ದರಿಂದ	-8.62147
▁आम्ही	-8.6235
▁આપે	-8.62523
ડ	-8.63535
▁અ	-8.64108
▁വലിയ	-8.64246
▁वर्ष	-8.64663
▁દિવસ	-8.64704
ിലെ	-8.6478
ಸಿ	-8.64832
ಲಿ	-8.64892
व	-8.64982
ಯಿಂದ	-8.65409
▁કરતા	-8.65971
ಗಳಿಂದ	-8.66127
▁કરતાં	-8.66379
▁દરમિયાન	-8.66832
▁હોઈ	-8.66834
ಡಿ	-8.66936
▁ಸುಮಾರು	-8.67251
ೆ	-8.67331
▁ಸಮಯದಲ್ಲಿ	-8.6751
▁इसे	-8.67526
ಗಾಗಿ	-8.67568
▁व	-8.67597
▁ભાગ	-8.68111
▁हूं	-8.68119
▁અલગ	-8.68158
▁दिन	-8.68338
▁अन्य	-8.68404
ക	-8.68703
▁ಇದೆ	-8.68793
▁लोगों	-8.6899
▁अ	-8.69334
▁ಮೂರು	-8.69681
▁ಮಾಡುವ	-8.69917
"	-8.70258
]	-8.70958
ड	-8.72003
യെ	-8.72028
ो	-8.72046
ര	-8.72208
▁कई	-8.72434
▁दो	-8.72607
ಸ	-8.72656
ುವುದಿಲ್ಲ	-8.72703
▁કરશે	-8.72743
ವ	-8.72768
▁ಮಾಡಬಹುದು	-8.72832
▁आता	-8.73023
▁होने	-8.73244
▁पास	-8.73817
ത്തിന്	-8.7382
ಿಂದ	-8.73857
▁મદદ	-8.73902
▁ये	-8.7417
▁गए	-8.74268
▁केले	-8.74291
▁ಆಫ್	-8.74304
▁ഇപ്പോൾ	-8.74315
▁થી	-8.74506
▁वाले	-8.74561
ುತ್ತವೆ	-8.74583
▁ವರ್ಷಗಳ	-8.74769
▁बार	-8.74981
▁घर	-8.75235
୍	-8.75284
▁ಸಮಯ	-8.7567
ല	-8.75869
िंग	-8.76172
▁રહી	-8.76232
વ	-8.76434
ಿದರು	-8.76533
▁!	-8.7701
ಯೇ	-8.77033
),	-8.77334
▁સરળ	-8.77474
ಲಾಗಿದೆ	-8.77496
ಿದ	-8.77605
▁શ્રેષ્ઠ	-8.77904
ରୁ	-8.78295
▁અહીં	-8.79048
സ	-8.79051
▁ખાસ	-8.79094
ായി	-8.79147
▁આપણે	-8.79152
ଙ୍କ	-8.79221
▁ചില	-8.79347
▁જરૂરી	-8.79351
▁मेरे	-8.79522
▁જ્યાં	-8.798
▁ନାହିଁ	-8.79885
▁મોટા	-8.79887
▁उन्हें	-8.79968
▁राज्य	-8.80022
▁ಎ	-8.80433
▁आपल्या	-8.80478
द	-8.80618
▁ಇಲ್ಲಿ	-8.80638
ನಿ	-8.80691
▁ती	-8.8082
ाच्या	-8.80935
ವೇ	-8.80938
ಮ	-8.81379
▁അവരുടെ	-8.81484
▁उन्होंने	-8.816
▁ମଧ୍ୟ	-8.82119
▁प्रत्येक	-8.82146
▁વાત	-8.82164
▁આવશે	-8.82166
▁ನ	-8.82279
▁ರೀತಿಯ	-8.82357
▁ചെയ്തു	-8.82438
રી	-8.8248
▁गई	-8.82496
▁આવ્યું	-8.82507
▁ಮೊದಲು	-8.82564
શ	-8.82574
▁ದಿನ	-8.82646
▁ત્રણ	-8.82713
▁हर	-8.82986
▁સારી	-8.8335
▁ટકા	-8.83868
റ	-8.84214
▁ಇನ್ನೂ	-8.84234
▁सर्व	-8.84267
ಯಾಗಿದೆ	-8.84397
▁आ	-8.84436
ങ്ങളും	-8.84449
▁किंवा	-8.84567
▁ಕಾಲ	-8.84637
▁ಅಲ್ಲ	-8.84704
▁પસંદ	-8.85051
▁दुनिया	-8.8509
ಗಳೊಂದಿಗೆ	-8.85099
▁મારા	-8.85119
▁ನಲ್ಲಿ	-8.85224
▁ઘણી	-8.85244
ित	-8.8532
▁മുതൽ	-8.85381
▁જેમાં	-8.8546
નાં	-8.85873
▁ಕೂಡ	-8.85913
▁भारतीय	-8.85932
ನೇ	-8.86082
▁ತುಂಬಾ	-8.86388
▁ಪ್ರಕಾರ	-8.86403
ನಾ	-8.86505
▁ફક્ત	-8.86644
▁उनके	-8.86645
▁ഇവിടെ	-8.86664
▁हुए	-8.86687
ಕ್ಕಾಗಿ	-8.86812
ई	-8.87222
▁ಇ	-8.87522
ಲ	-8.8774
▁यदि	-8.87828
▁കഴിയും	-8.87969
▁केली	-8.8799
▁ಬಹಳ	-8.88315
▁વચ્ચે	-8.88476
▁પહેલાં	-8.89073
▁दिवस	-8.89234
▁हूँ	-8.89241
್	-8.89348
▁હશે	-8.89351
ൂ	-8.89353
യിലെ	-8.89632
▁યોગ્ય	-8.897
▁લગભગ	-8.89776
▁બંને	-8.89953
ತ	-8.90116
ಿರುವ	-8.90141
▁ഉണ്ട്	-8.90575
▁इसके	-8.90577
બ	-8.908
▁तीन	-8.90848
ായിരുന്നു	-8.90876
▁करू	-8.91128
▁નવા	-8.9146
▁വരെ	-8.91494
▁ವಿವಿಧ	-8.91667
▁વિવિધ	-8.91777
▁ಆಯ್ಕೆ	-8.91885
વા	-8.91921
ઝ	-8.91936
▁માહિતી	-8.92331
▁ಹಲವಾರು	-8.92409
▁છેઃ	-8.92539
ನಿಂದ	-8.92566
▁त्या	-8.92664
ದೆ	-8.92688
▁બની	-8.92745
▁आवश्यक	-8.92936
യോ	-8.93073
▁ಸಾಮಾನ್ಯ	-8.93097
▁નામ	-8.93264
▁પડશે	-8.936
▁આવ્યો	-8.9369
▁ರಿಂದ	-8.93796
▁ൽ	-8.93805
▁हुआ	-8.93915
ಯೂ	-8.93953
▁ಸಣ್ಣ	-8.9401
ിന്	-8.9401
କ	-8.94062
▁ರಂದು	-8.94242
▁प्राप्त	-8.94312
▁આપી	-8.94373
▁પોતાના	-8.94409
ത്ത	-8.94486
▁कंपनी	-8.94619
▁കഴിഞ്ഞ	-8.94666
મા	-8.94725
▁രണ്ട്	-8.95161
જ	-8.95391
ಿಲ್ಲ	-8.95412
ಲ್ಲ	-8.95501
▁बात	-8.95744
ब	-8.95784
d	-8.95857
▁ಮಾಡಿ	-8.96015
▁મુખ્ય	-8.96161
▁બહાર	-8.96193
▁આવ્યા	-8.96332
▁ಬಾರಿ	-8.97133
▁ഇ	-8.97379
▁વ્યક્તિ	-8.97385
▁ಮಾಡುತ್ತದೆ	-8.97543
▁सरकार	-8.97558
▁നല്ല	-8.9774
▁રોજ	-8.97805
▁કરવું	-8.97806
ന്	-8.98047
ू	-8.98089
▁ಮುಖ್ಯ	-8.98195
ाची	-8.9837
ಪ್	-8.98658
▁ವರ್ಷದ	-8.987
▁ಕಳೆದ	-8.98849
ाचा	-8.98952
▁દર	-8.99064
ગ	-8.99146
ിരുന്നു	-8.99253
આ	-8.99387
▁फिर	-8.99422
વી	-8.99461
▁ಆರೋಗ್ಯ	-8.99546
▁સમયે	-8.99686
▁तुम्ही	-8.99721
▁വർഷം	-8.99853
▁આજે	-8.99995
ନ	-8.99996
ുള്ള	-9.00276
▁शुरू	-9.0034
ೇ	-9.00416
ಂತೆ	-9.00438
▁ધરાવે	-9.00693
▁केवल	-9.00713
ರಾ	-9.00816
▁इन	-9.00947
या	-9.00961
ती	-9.00965
▁त्यांना	-9.01173
▁ಎಲ್ಲ	-9.01279
▁કારણે	-9.01293
ണ	-9.01317
ല്ല	-9.01422
ಂ	-9.0186
▁કોઈપણ	-9.01873
▁ಆಗಿದೆ	-9.02117
."""	-9.02174
▁ಸಾಕಷ್ಟು	-9.02324
ാനും	-9.02511
ଟି	-9.02511
▁ಹೊಂದಿರುವ	-9.0282
▁લાગે	-9.02867
▁આપવામાં	-9.03047
ग	-9.03112
▁बीच	-9.03252
▁તેનો	-9.03258
▁विचार	-9.03356
▁माझ्या	-9.03382
▁അവൾ	-9.03571
▁s	-9.03652
िक	-9.03657
▁વખત	-9.03736
▁क्षेत्र	-9.0384
▁મારી	-9.03918
▁असे	-9.03939
ण	-9.03942
▁എന്നെ	-9.03944
ય	-9.04088
▁ગયા	-9.04148
ें	-9.0438
▁आवश्यकता	-9.04421
ങ്ങളിൽ	-9.04492
▁മാത്രം	-9.04585
ಗ	-9.04641
▁म्हणून	-9.04655
▁ആദ്യ	-9.04889
▁ಏಕೆಂದರೆ	-9.0494
ಿದ್ದರು	-9.05127
▁रही	-9.05172
ત	-9.05196
ತೆ	-9.05364
താണ്	-9.05375
▁ବି	-9.05543
▁ജോലി	-9.0565
▁ഓരോ	-9.05806
ನೆ	-9.05883
▁જીવન	-9.05916
ह	-9.06077
▁अनेक	-9.06331
ವೆ	-9.06522
ಿತ್ತು	-9.06548
▁બીજા	-9.06904
▁અર્થ	-9.06925
▁शामिल	-9.07039
▁ಇಂದು	-9.07106
શે	-9.0735
▁അവൻ	-9.07681
▁કંપની	-9.07757
▁સેવા	-9.0783
▁എ	-9.07847
્યા	-9.07999
▁જાય	-9.08142
▁ಉತ್ತರ	-9.08235
▁ನಡುವೆ	-9.08279
साठी	-9.08452
ക്	-9.08462
▁[	-9.08494
श	-9.08509
ಲಾಗುತ್ತದೆ	-9.08658
ि	-9.08745
▁કર્યા	-9.08829
യുള്ള	-9.08905
રો	-9.08939
▁દૂર	-9.08951
ക്കും	-9.08954
കളും	-9.09027
वा	-9.09113
▁ചെയ്യാൻ	-9.09299
▁हमारे	-9.09386
▁ಭಾರತದ	-9.09595
▁જોવા	-9.09606
▁a	-9.09706
ದು	-9.09713
▁ಕಾರಣ	-9.0982
▁સમાવેશ	-9.09851
▁ಅದೇ	-9.09957
▁क्योंकि	-9.10022
▁થશે	-9.10115
ായ	-9.10192
▁ಸಾಮಾಜಿಕ	-9.10195
▁सेवा	-9.10589
▁મેં	-9.10743
▁નવી	-9.10981
ിട്ടുണ്ട്	-9.11127
ಡ	-9.11132
▁ಅವರಿಗೆ	-9.1118
▁सब	-9.1123
▁लोग	-9.1123
री	-9.11361
ଲ	-9.11369
ಟಿ	-9.11391
▁കാരണം	-9.11392
ಯಾಗಿ	-9.11429
▁നിന്നും	-9.1149
▁मैंने	-9.11651
▁दोन	-9.11717
▁എങ്ങനെ	-9.11728
▁છતાં	-9.12034
▁नाम	-9.12126
▁થયો	-9.12343
ഡ്	-9.12587
ಗ್	-9.12606
▁केला	-9.12624
ियों	-9.12725
▁कभी	-9.12839
▁ദിവസം	-9.12984
લા	-9.12986
ડી	-9.13118
ಿಗೆ	-9.13289
▁अच्छा	-9.13333
▁ಒಬ್ಬ	-9.13648
▁ಎಂಬುದನ್ನು	-9.13718
▁पता	-9.14096
▁કાર્ય	-9.14222
▁ઓફ	-9.14385
▁પહેલા	-9.14423
▁ભારત	-9.14432
▁ನೇ	-9.14509
હ	-9.14539
▁प्रदान	-9.14718
▁ನಮಗೆ	-9.14952
▁മികച്ച	-9.1505
▁વધારે	-9.15118
▁બાળકો	-9.15377
▁ಭಾರತೀಯ	-9.15432
नी	-9.15451
▁ಜೊತೆಗೆ	-9.15478
▁भाग	-9.15527
▁ಸ್ವಲ್ಪ	-9.1554
▁ಸಿ	-9.15645
▁प्रकार	-9.15731
▁କିଛି	-9.15739
▁जे	-9.15755
ाने	-9.15787
▁ए	-9.15796
▁ಮುಂದಿನ	-9.15959
▁ऐसा	-9.15971
▁କରି	-9.16438
▁ವಿ	-9.16485
ಅ	-9.16491
▁ચોક્કસ	-9.16547
▁പക്ഷേ	-9.16552
▁બંધ	-9.16571
ാനുള്ള	-9.16621
▁खूप	-9.16652
▁સંપૂર્ણ	-9.1666
ಮಾ	-9.16702
▁ना	-9.16778
ाचे	-9.16962
ए	-9.1704
ून	-9.17058
▁મે	-9.1707
कर	-9.17116
▁મળી	-9.17207
▁ಅವನ	-9.17277
യ്ക്ക്	-9.1742
▁ചെയ്ത	-9.17468
▁ശേഷം	-9.17532
▁അവിടെ	-9.1761
▁ಆದಾಗ್ಯೂ	-9.17725
▁उपलब्ध	-9.1778
्य	-9.17842
മോ	-9.17924
▁നീ	-9.18022
▁മറ്റ്	-9.18099
▁ಭಾರತ	-9.18257
▁ઓછા	-9.18531
▁બાદ	-9.18608
▁ಅತ್ಯುತ್ತಮ	-9.18748
▁उच्च	-9.18863
ിംഗ്	-9.18889
c	-9.18892
▁कार्य	-9.18968
▁લે	-9.19067
▁बस	-9.19074
ിനെ	-9.19118
ುತ್ತೇವೆ	-9.19318
▁ಅವುಗಳನ್ನು	-9.19322
▁अगर	-9.19744
▁કરવાનું	-9.1982
▁જણાવ્યું	-9.20147
▁ರಾಷ್ಟ್ರೀಯ	-9.20232
ಯಾ	-9.20247
ବ	-9.20474
▁സമയം	-9.20488
ମ	-9.20506
ણ	-9.20651
େ	-9.20664
▁પ્રેમ	-9.20975
દ	-9.21075
▁നമ്മുടെ	-9.21397
g	-9.21413
▁दी	-9.21558
▁രണ്ടു	-9.21558
▁चाहते	-9.21702
▁करा	-9.21707
▁ಮಾಡ	-9.21824
ಫ್	-9.22023
▁तुम	-9.22188
▁ಮಾಹಿತಿ	-9.22188
▁મોટી	-9.22216
▁ಹಿಂದೆ	-9.22255
▁उत्तर	-9.22286
▁ಹೇಳಿದರು	-9.22498
▁થયું	-9.22595
▁उसे	-9.22726
ಿವೆ	-9.22728
▁વર્ષે	-9.22886
▁ಯಾವ	-9.22927
▁ಅಲ್ಲಿ	-9.2301
ിലേക്ക്	-9.23052
▁ಅವರನ್ನು	-9.23202
▁स	-9.23225
▁સામે	-9.23227
▁പല	-9.23388
▁ಕೇಂದ್ರ	-9.23391
रा	-9.23399
▁ખાતરી	-9.23577
▁जाएगा	-9.23648
▁तुम्हाला	-9.23658
▁फक्त	-9.23729
લી	-9.23756
▁લાંબા	-9.23812
▁ધ્યાન	-9.23943
▁ಯಾವಾಗಲೂ	-9.24007
▁जाने	-9.24038
▁ભારતીય	-9.24081
▁અસર	-9.24351
ാൽ	-9.24414
િક	-9.24682
▁അടുത്ത	-9.24785
મી	-9.24902
▁जाते	-9.2497
ಹ	-9.24978
▁ಒಂದೇ	-9.25102
ಟ	-9.25195
▁महिला	-9.25278
ക്കു	-9.25518
▁उसके	-9.25628
▁उस	-9.25635
▁ઉત્પાદન	-9.25661
▁ले	-9.25691
વું	-9.25796
ള	-9.25844
▁તૈયાર	-9.25978
કો	-9.25979
▁ಕ	-9.26041
ಯೊಂದಿಗೆ	-9.26203
ଣ	-9.26515
▁महत्वपूर्ण	-9.26626
રે	-9.26663
ಜ್	-9.26748
▁ഇല്ല	-9.26823
▁कमी	-9.26861
▁ઉપલબ્ધ	-9.26903
ುತ್ತಿದೆ	-9.26994
▁તેણે	-9.27244
▁રહે	-9.27254
▁अमेरिका	-9.2727
▁ಮಾಡಿದ	-9.27409
ું	-9.27474
▁પ્રક્રિયા	-9.27558
▁करण्यात	-9.27583
▁ಇದರ	-9.27665
▁मुख्य	-9.27672
ाला	-9.27733
▁ફિલ્મ	-9.27795
ರಿಗೆ	-9.27811
ओं	-9.27816
▁त्यांच्या	-9.27862
ಕಾ	-9.27977
▁c	-9.28158
▁अपना	-9.28195
ା	-9.28237
▁പ്രധാന	-9.28408
▁બનાવવા	-9.2864
പ	-9.28659
▁എന്താണ്	-9.28716
▁પ્રયાસ	-9.28882
▁बदल	-9.28948
▁ખર્ચ	-9.29204
n	-9.29286
▁ವಿರುದ್ಧ	-9.29375
▁ഇന്ന്	-9.2946
ತ್	-9.29586
ವರು	-9.29644
િત	-9.29712
▁आई	-9.29716
ಜಿ	-9.29798
▁ಉದಾಹರಣೆಗೆ	-9.29808
▁ಮಾರಾಟ	-9.29825
ಲೆ	-9.29827
▁ब	-9.29856
ಬಿ	-9.29874
▁ಆಗ	-9.29938
▁આગળ	-9.29942
ರಿಂದ	-9.29953
▁ઉદાહરણ	-9.30025
▁କ	-9.30033
ವಾ	-9.3006
▁ರಾಜ್ಯ	-9.30125
ുന്നതിന്	-9.30163
▁କରିବା	-9.30164
ുകളും	-9.30177
ಳ	-9.30288
ಲಾಯಿತು	-9.30291
▁જાહેર	-9.30301
ುತ್ತೇನೆ	-9.30378
▁ಭೇಟಿ	-9.30568
ുമ്പോൾ	-9.30664
x	-9.30782
▁जैसे	-9.30835
का	-9.30866
▁വേണ്ടി	-9.30899
▁झाले	-9.30931
▁ಸಾಧ್ಯವಿಲ್ಲ	-9.31004
▁ನಾಲ್ಕು	-9.31012
सी	-9.31032
▁ಎಂಬುದು	-9.31156
തും	-9.31247
▁ಅವಕಾಶ	-9.31353
▁പോലെ	-9.31452
▁ખરેખર	-9.31512
▁જેવા	-9.31553
▁b	-9.31558
▁અમારા	-9.31611
റി	-9.3162
તી	-9.31679
▁करण्यासाठी	-9.31683
▁ಅವನು	-9.31717
▁अभी	-9.31894
a	-9.31902
തു	-9.32062
ട്ട	-9.32127
▁ಮತ್ತೆ	-9.32197
▁तू	-9.32236
▁द	-9.32305
▁હજુ	-9.32319
▁પોતાની	-9.32417
▁ચાર	-9.32492
ಲಿಲ್ಲ	-9.32601
▁एका	-9.32685
ર્સ	-9.32726
▁ક્યારેય	-9.33103
▁તેમ	-9.33251
ಗಳಿವೆ	-9.33516
▁शहर	-9.33526
▁i	-9.3356
▁അതു	-9.33617
▁किए	-9.33742
▁लगभग	-9.33787
ફ	-9.33796
शी	-9.33831
▁ઇ	-9.33958
▁शकता	-9.33999
ಕೆ	-9.34044
പ്പ	-9.34123
▁झाला	-9.34208
▁મૃત્યુ	-9.34229
മുള്ള	-9.34239
ದೊಂದಿಗೆ	-9.34241
▁સારવાર	-9.3429
ु	-9.34747
ಪ	-9.34749
▁मदद	-9.3475
एं	-9.34868
▁മ	-9.34922
▁ಡಿ	-9.34992
▁ಕನಿಷ್ಠ	-9.34993
▁ଆମେ	-9.35026
▁व्यक्ति	-9.3504
▁કરવાનો	-9.35052
ି	-9.35074
▁ದಿ	-9.3514
▁નક્કી	-9.35153
▁નાના	-9.35225
ുണ്ട്	-9.35271
▁લો	-9.35384
ിച്ചു	-9.3543
▁ക	-9.35431
ൾ	-9.35582
ಲಾ	-9.3574
ಿದ್ದ	-9.35796
▁हुई	-9.3583
▁ಮೂಲ	-9.35848
▁सकती	-9.35857
ಬ್	-9.3587
▁ಬೇರೆ	-9.3602
റ്റ	-9.36178
मा	-9.36297
मी	-9.36448
▁ಪ್ರಸ್ತುತ	-9.36567
▁વ્યવસાય	-9.36604
▁રહ્યાં	-9.36657
ल्या	-9.36718
▁വി	-9.36755
▁विकास	-9.368
▁આપવા	-9.36843
ുമായി	-9.37126
▁भर	-9.37331
▁എന്നിവ	-9.37392
▁ಗೆ	-9.37442
સી	-9.37519
▁ಸೇವೆ	-9.37532
▁થયા	-9.37587
▁ઓછી	-9.37589
▁वो	-9.37591
▁મહત્વપૂર્ણ	-9.37597
▁ಮ	-9.37608
കളിൽ	-9.37702
▁ऑफ	-9.37867
▁ഞങ്ങളുടെ	-9.37935
സി	-9.38043
▁ഇന്ത്യൻ	-9.38053
▁ବର୍ଷ	-9.38163
▁माहिती	-9.38243
▁એસ	-9.38274
▁ଯେ	-9.3861
▁നിരവധി	-9.38661
▁ನೀಡುತ್ತದೆ	-9.38726
▁ઘર	-9.38746
રા	-9.38831
▁ರೀತಿಯಲ್ಲಿ	-9.38838
▁लोक	-9.38887
▁કદાચ	-9.38912
രി	-9.3915
k	-9.39211
▁રહ્યું	-9.39285
▁ತೆಗೆದುಕೊಳ್ಳ	-9.39327
▁રહ્યો	-9.39458
റ്റ്	-9.39517
▁રહેશે	-9.39576
▁હેઠળ	-9.39616
ಇ	-9.39627
▁अनुभव	-9.39665
ിലും	-9.3977
ട	-9.39823
્યો	-9.39854
ୀ	-9.39901
▁विशेष	-9.40013
▁google	-9.40141
▁વિચાર	-9.40167
▁વર્ષની	-9.40188
ಿದ್ದು	-9.4019
▁त्याला	-9.40201
▁बंद	-9.40308
▁ಹೇಳ	-9.40322
▁જોકે	-9.40328
▁संख्या	-9.40349
▁उन	-9.40357
ಮಿ	-9.40426
ೊಂದಿಗೆ	-9.40454
▁ની	-9.40468
ിട്ടില്ല	-9.40468
ಿದ್ದೇನೆ	-9.40599
▁ನಿರ್ದಿಷ್ಟ	-9.40621
▁ଆପଣ	-9.40687
▁સમગ્ર	-9.4071
▁સ	-9.40836
▁दोनों	-9.40864
▁ಆಹಾರ	-9.4087
ീ	-9.40908
ंग	-9.40953
ರನ್ನು	-9.41084
▁അവ	-9.41236
्	-9.41246
▁ವ್ಯಾಪಾರ	-9.41263
▁મળે	-9.41282
വി	-9.41309
ങ്ങളുടെ	-9.41312
▁યુ	-9.41388
▁त्यांनी	-9.41434
ಯೋ	-9.41448
ിരിക്കുന്നു	-9.4145
▁അതിന്റെ	-9.41476
▁ഇന്ത്യ	-9.4149
▁होना	-9.4154
▁ઓછામાં	-9.41565
▁ಪರಿಣಾಮ	-9.41649
▁വഴി	-9.41687
▁ಹಲವು	-9.41847
ଙ୍କୁ	-9.41985
▁क्यों	-9.42003
▁वेळ	-9.4204
ವೂ	-9.4204
▁લગ્ન	-9.42089
▁प्रश्न	-9.421
ലി	-9.42118
ിയ	-9.42144
▁ಅವಳು	-9.4223
▁पूर्ण	-9.42237
▁ಎರಡೂ	-9.42246
▁યોજના	-9.42251
▁f	-9.4234
▁ಸೇರಿದಂತೆ	-9.42416
▁इसलिए	-9.42606
▁തന്റെ	-9.42611
!"	-9.42664
▁*	-9.42683
p	-9.42722
▁यहां	-9.42748
▁ಮೇ	-9.42764
▁फिल्म	-9.42783
▁કરવો	-9.42931
▁પૂર્ણ	-9.4298
▁ફોન	-9.43008
▁અનુભવ	-9.43044
ନି	-9.43073
▁जाना	-9.43251
▁ഓഫ്	-9.43289
▁मे	-9.43358
▁म्हणजे	-9.43372
▁જેથી	-9.43401
ರೋ	-9.43472
▁सुरक्षा	-9.43475
▁ವಿಶ್ವ	-9.43575
▁શોધી	-9.43615
▁તરફ	-9.43624
ચ	-9.43646
▁चार	-9.43937
▁સમાન	-9.4406
▁વિકાસ	-9.44076
ુ	-9.44265
▁प्यार	-9.44433
▁વ્યક્તિગત	-9.44471
ೂ	-9.44488
▁पहली	-9.44683
▁ચાલુ	-9.44687
▁योजना	-9.44765
▁लगता	-9.44822
യായി	-9.45034
ರಂದು	-9.45064
▁પાંચ	-9.45096
▁ചെയ്യുന്നു	-9.45097
ಿತ	-9.45211
▁सर्वात	-9.45232
▁એવું	-9.45301
ોને	-9.45399
▁ವಿಶೇಷ	-9.45437
▁શક્ય	-9.45519
ന്റെ	-9.45627
▁ಬಹುಶಃ	-9.4568
ുകളിൽ	-9.45725
▁નીચે	-9.45732
അ	-9.45799
▁ಮಕ್ಕಳು	-9.45852
▁કાર	-9.45929
▁आले	-9.45999
▁അല്ല	-9.46026
ासाठी	-9.46088
▁ವೈಯಕ್ತಿಕ	-9.46095
▁ಸಂಪೂರ್ಣ	-9.46122
▁നമ്മൾ	-9.46177
ಪಿ	-9.46503
▁राष्ट्रीय	-9.46564
ുമെന്ന്	-9.46579
ುತ್ತಾನೆ	-9.46675
▁हमें	-9.46712
ावर	-9.46869
▁અમારી	-9.4687
▁એવી	-9.46871
▁કોઇ	-9.46876
ઇ	-9.46943
▁बन	-9.46972
▁नए	-9.47083
▁ನೀಡ	-9.47114
ಸಾ	-9.4723
ച്ച	-9.47235
▁ରହିଛି	-9.47237
▁કહે	-9.47276
▁સરકાર	-9.4729
▁വീണ്ടും	-9.47358
▁ಮಕ್ಕಳ	-9.47485
▁થોડા	-9.47529
વો	-9.4761
▁ದೇಶದ	-9.47646
▁ಐದು	-9.47712
▁વસ્તુઓ	-9.47779
थ	-9.47788
ંગ	-9.47815
▁સમસ્યા	-9.47886
▁खेल	-9.47926
▁જોઈ	-9.48071
▁प्रति	-9.48114
▁करत	-9.48133
▁લેવા	-9.48145
▁समस्या	-9.48159
▁ଏ	-9.48202
▁ಹೆಸರು	-9.48203
▁അങ്ങനെ	-9.48285
▁ಐ	-9.48302
▁ಹೋಗ	-9.4837
डी	-9.48386
▁ಸರ್ಕಾರ	-9.48398
▁ମୋ	-9.48415
▁കൂടാതെ	-9.48422
▁अनुसार	-9.48438
▁झाली	-9.48507
ವೆಂದು	-9.48535
▁ಸಾರ್ವಜನಿಕ	-9.48549
ಬ	-9.48668
m	-9.48673
▁કરવી	-9.48739
▁ಇವೆ	-9.48778
▁ಸ್ಥಳೀಯ	-9.48799
ನಾನು	-9.48801
▁સિસ્ટમ	-9.48994
ୁ	-9.49072
▁ಮನೆ	-9.49097
▁സ	-9.49106
▁ಸಂದರ್ಭದಲ್ಲಿ	-9.49115
b	-9.49116
▁_	-9.49151
▁ତାଙ୍କ	-9.49177
▁થઇ	-9.49341
▁मेरी	-9.49401
्या	-9.49476
▁ଅ	-9.49493
▁ಯುನೈಟೆಡ್	-9.49495
फ	-9.4972
▁कौन	-9.49773
ವ್	-9.4978
ಸ್ಟ್	-9.49908
▁ചെയ്യുന്ന	-9.49911
બી	-9.49922
▁ಪಡೆಯಲು	-9.50033
▁ವಿಶೇಷವಾಗಿ	-9.5009
▁ഇനി	-9.50144
മല്ല	-9.50152
▁ಜನರ	-9.50154
ുകയാണ്	-9.50559
▁નિર્ણય	-9.50572
▁पूरी	-9.50619
▁उनकी	-9.5081
▁વિ	-9.5085
▁એમ	-9.50853
स्ट	-9.51029
▁ବ	-9.51119
▁दौरान	-9.51141
▁नवीन	-9.51218
▁પાણી	-9.51258
▁दे	-9.51275
▁ದಕ್ಷಿಣ	-9.51389
થ	-9.51591
▁શોધ	-9.51653
▁ಬಿ	-9.51707
▁ಜೊತೆ	-9.51758
▁നിങ്ങളെ	-9.51909
▁લઈ	-9.51914
ತ್ತ	-9.51945
▁લોકોને	-9.52033
▁સામગ્રી	-9.52174
▁येथे	-9.52185
കളുടെ	-9.52248
▁എല്ലാം	-9.5226
▁अलग	-9.52311
▁इतर	-9.52392
ओ	-9.52527
▁હંમેશા	-9.52585
ಟರ್	-9.52637
▁મુશ્કેલ	-9.52678
▁बाहर	-9.52692
▁ಎಷ್ಟು	-9.52708
▁वाली	-9.5284
▁सुरू	-9.52854
▁संयुक्त	-9.52874
▁ಎರಡನೇ	-9.52953
▁•	-9.53053
▁विश्व	-9.53128
▁ಮಾನವ	-9.53131
▁મોટાભાગના	-9.53149
▁അവരെ	-9.53163
ರೂ	-9.53264
जी	-9.53281
▁ಈಗಾಗಲೇ	-9.53313
ସ	-9.53321
▁निर्णय	-9.53354
▁କୌଣସି	-9.53424
▁હો	-9.53489
▁ಬಿಡುಗಡೆ	-9.53528
▁त्याच्या	-9.53581
ಕ್ಕೂ	-9.53609
▁ಸಂಪೂರ್ಣವಾಗಿ	-9.5361
▁ಕುರಿತು	-9.53681
▁टीम	-9.53697
ीय	-9.53808
▁મી	-9.53819
▁विश्वास	-9.5382
▁ઉચ્ચ	-9.53902
▁ಸಂಪರ್ಕ	-9.53991
▁અભ્યાસ	-9.54009
▁जास्त	-9.54086
જી	-9.54144
▁ହେବ	-9.54157
▁ಕಾನೂನು	-9.54264
▁इसका	-9.54388
▁કેટલીક	-9.54446
ತಿ	-9.54511
▁जिसमें	-9.54515
▁ಸಂಖ್ಯೆ	-9.54536
▁असेल	-9.54549
ನೊಂದಿಗೆ	-9.5458
▁ಮಿಲಿಯನ್	-9.54613
▁ક	-9.54797
▁स्वास्थ्य	-9.5483
લે	-9.54834
▁होगी	-9.54849
വർ	-9.54914
▁ನಡುವಿನ	-9.54918
▁ಸ	-9.55011
▁ସହ	-9.55017
ख	-9.55021
▁സി	-9.55079
▁પ્રાપ્ત	-9.55091
▁प्रक्रिया	-9.55112
▁ಮಾಹಿತಿಯನ್ನು	-9.55155
രുത്	-9.55178
▁आपकी	-9.55199
▁स्थान	-9.55264
તે	-9.55295
ळ	-9.55296
യ്	-9.55401
▁नाहीत	-9.55453
▁परिणाम	-9.55492
▁અંદર	-9.55547
ುವುದನ್ನು	-9.5562
▁સારા	-9.55678
ତା	-9.55699
▁कार्यक्रम	-9.55724
▁ವಿಶ್ವದ	-9.55852
▁पूर्व	-9.55923
▁અમેરિકન	-9.55945
▁हैः	-9.56113
टी	-9.56187
▁വില	-9.56206
▁ಯಾರು	-9.56289
ન્સ	-9.56306
മായിരുന്നു	-9.56461
▁ಅಪ್ಲಿಕೇಶನ್	-9.56605
लं	-9.56621
▁ಶಿಕ್ಷಣ	-9.56695
▁ପରେ	-9.56885
▁ઉપર	-9.56947
t	-9.56986
▁फोन	-9.57057
▁जन्म	-9.57084
▁असते	-9.57225
▁હાથ	-9.57226
▁શિક્ષણ	-9.5747
▁ನೋಡ	-9.57548
▁जारी	-9.57601
ടി	-9.57683
▁ખબર	-9.57714
▁ശതമാനം	-9.57759
णे	-9.57809
▁મંજૂરી	-9.57813
▁ವೈದ್ಯಕೀಯ	-9.57847
ବା	-9.57865
▁ಆರ್ಥಿಕ	-9.57943
▁આધાર	-9.57952
▁देखील	-9.57969
तो	-9.58001
▁करती	-9.58038
ಳು	-9.58251
ବି	-9.58264
▁वापर	-9.58305
▁എന്നു	-9.58433
ಿರಿ	-9.585
▁જવાબ	-9.58574
▁മൂന്ന്	-9.58624
ವಲ್ಲ	-9.58673
ातील	-9.58815
ന്ന	-9.5887
ಣ	-9.5893
ುತ್ತಿದ್ದಾರೆ	-9.58967
▁મિલિયન	-9.5899
▁તેમજ	-9.59036
▁ध्यान	-9.59044
▁ಅಧ್ಯಕ್ಷ	-9.59055
▁ઓ	-9.59138
▁केंद्र	-9.59159
▁રંગ	-9.59165
▁ಕಾರ್ಯ	-9.59249
▁दूर	-9.59298
ದ್	-9.5944
▁अर्थ	-9.59498
▁प्र	-9.59744
▁ನಡೆದ	-9.59775
ಈ	-9.5989
▁आली	-9.59918
▁ಸಮಸ್ಯೆ	-9.59975
പ്പെട്ട	-9.59978
▁કલાક	-9.60029
▁पिछले	-9.60054
ଲା	-9.60078
▁ಮುಂದೆ	-9.60103
▁പി	-9.60135
▁ಆರ್	-9.60222
▁હોવા	-9.60273
▁നാം	-9.60296
▁ಬ	-9.60326
ांना	-9.604
▁കമ്പനി	-9.60474
▁ಅಗತ್ಯವಿದೆ	-9.60508
▁સ્થિતિ	-9.6064
ഡ	-9.60647
▁શકતા	-9.60653
നി	-9.60777
ଟ	-9.60943
▁जानकारी	-9.60954
▁प्रेम	-9.60958
▁વખતે	-9.61013
▁ಅರ್ಥ	-9.61084
▁ಎಸ್	-9.61158
▁व्यवसाय	-9.613
▁માતા	-9.61332
▁उत्पादन	-9.61383
േണ്ട	-9.61568
लो	-9.61616
▁ರಾಜಕೀಯ	-9.6162
▁મુજબ	-9.61675
▁રાજ્ય	-9.61701
▁प्रमुख	-9.61724
▁बनाने	-9.61739
▁બ	-9.61739
ുകളുടെ	-9.61755
ട്ട്	-9.6177
▁બીજી	-9.61781
वी	-9.61869
▁ಕಾರ್ಯನಿರ್ವಹಿಸ	-9.61896
▁करणे	-9.61922
▁ವ್ಯಕ್ತಿ	-9.62046
▁યાદ	-9.62074
▁વાર	-9.62102
▁બધું	-9.62106
▁ತಿಂಗಳ	-9.62108
▁પૂરી	-9.62241
▁મહાન	-9.62264
▁ନ	-9.62385
▁दर	-9.62441
▁हमेशा	-9.62469
▁ചെറിയ	-9.62569
▁चीन	-9.62663
▁നമുക്ക്	-9.62728
▁ಹಣ	-9.62739
ध	-9.62742
▁ಭಾರತದಲ್ಲಿ	-9.62755
▁ખરીદી	-9.62782
▁म	-9.62811
તો	-9.62818
▁ಚಿತ್ರ	-9.62868
▁शकते	-9.62916
▁છ	-9.62943
ખ	-9.62957
▁പ്ര	-9.62972
▁ભારતમાં	-9.63019
ಲಿದೆ	-9.63034
▁ಅತಿ	-9.63078
വര	-9.63131
▁खुद	-9.63143
▁ଦିନ	-9.63146
▁ಜೀವನ	-9.63177
y	-9.63209
▁શબ્દ	-9.6334
▁मदत	-9.63344
▁ಜನರಿಗೆ	-9.63406
▁જન્મ	-9.63455
▁ଆଉ	-9.63466
િ	-9.63514
▁x	-9.63548
▁સેવાઓ	-9.63573
ುವಂತೆ	-9.63597
▁ದಿನಗಳ	-9.63636
▁सही	-9.63721
i	-9.63736
▁m	-9.638
ണ്ട	-9.63808
▁ହୋଇ	-9.63892
▁करेंगे	-9.63905
ഷ	-9.63921
▁ಕಂಪ್ಯೂಟರ್	-9.63944
ળ	-9.63997
ିତ	-9.64029
▁യാത്ര	-9.64052
▁ಫೋನ್	-9.6411
▁ನಿಜವಾಗಿಯೂ	-9.64157
▁p	-9.64232
▁शब्द	-9.64307
▁કાર્ડ	-9.64319
പ്	-9.64363
ವಾಗಿತ್ತು	-9.64382
ാന	-9.64396
▁બનાવે	-9.64587
▁ಆನ್ಲೈನ್	-9.64686
ശ	-9.64714
▁ഒന്നും	-9.64736
▁ಕೆಲವೊಮ್ಮೆ	-9.64782
ത്തിലെ	-9.6481
▁പ	-9.64836
▁लिया	-9.64931
वे	-9.64966
▁अमेरिकी	-9.65226
ದ್ದು	-9.6523
ઈ	-9.65251
▁କି	-9.65285
▁മറ്റൊരു	-9.65321
▁तुमच्या	-9.65358
▁प्रतिशत	-9.65476
▁મેળવવા	-9.65538
▁ડેટા	-9.65637
യാ	-9.65645
▁निर्माण	-9.65694
▁ನೋಡಿ	-9.65722
▁ಪಿ	-9.65814
▁ಬಳಸಲಾಗುತ್ತದೆ	-9.65821
▁ઉપરાંત	-9.6584
કે	-9.6586
▁കാര്യങ്ങൾ	-9.65886
▁ऑनलाइन	-9.65928
ટી	-9.65996
▁ಒಂದಾಗಿದೆ	-9.66
સ્ટ	-9.66029
▁કો	-9.66091
▁ધ	-9.66103
▁ಅಭಿವೃದ್ಧಿ	-9.66109
▁પડે	-9.66202
▁મેળવી	-9.66244
▁ಹೆಚ್ಚಾಗಿ	-9.66337
▁કિંમત	-9.66403
▁ಇದೇ	-9.66492
ડા	-9.66595
▁ଉପରେ	-9.66609
▁अच्छी	-9.66717
के	-9.66771
▁സർക്കാർ	-9.66797
▁શા	-9.66849
▁ಅಗತ್ಯ	-9.66949
▁ഉള്ള	-9.67012
▁ગયો	-9.67097
▁ನೀಡುವ	-9.671
▁ಒಟ್ಟು	-9.67167
▁देने	-9.67187
▁અમને	-9.67191
▁ಉಚಿತ	-9.67532
▁माध्यम	-9.67552
ാത്ത	-9.67602
ിരിക്കുന്നത്	-9.6764
ುತ್ತಿರುವ	-9.67728
▁ଆ	-9.67744
▁ಕ್ಯಾ	-9.67764
▁प्रयत्न	-9.67783
ൺ	-9.67805
▁મહિલા	-9.67843
▁ವರದಿ	-9.67904
▁इतिहास	-9.67937
▁वास्तव	-9.67957
ഗ	-9.68145
▁નોકરી	-9.68219
▁बेहतर	-9.68221
ുന്നില്ല	-9.68261
કા	-9.6829
▁शरीर	-9.68295
▁इ	-9.68323
ുടെ	-9.68364
▁બનાવી	-9.68433
▁ಇರುವ	-9.68447
▁मेरा	-9.68458
ೋ	-9.68472
▁परिवार	-9.6848
જે	-9.68495
▁रंग	-9.68544
▁मात्र	-9.68624
▁બાળક	-9.68668
લો	-9.68687
▁कार	-9.68689
ഡി	-9.68744
▁ವರ್ಷಗಳಲ್ಲಿ	-9.68746
▁ಕೇಳ	-9.6878
ദ	-9.68853
▁ആയിരുന്നു	-9.68888
ത്തിനു	-9.69018
▁વસ્તુ	-9.69063
▁दक्षिण	-9.69068
▁युद्ध	-9.69157
▁स्थिति	-9.69201
▁ನಿಮ್ಮನ್ನು	-9.69244
▁પી	-9.69293
▁તક	-9.69295
▁जिसे	-9.69303
▁ಒ	-9.69312
▁सी	-9.69332
ರೇ	-9.6935
▁ವಿಭಿನ್ನ	-9.69362
▁માર્ગ	-9.69442
▁बच्चों	-9.69449
▁അമ്മ	-9.69546
▁ವಿಷಯ	-9.6959
ોમાં	-9.69644
▁ಹ	-9.69728
▁ಚಿಕಿತ್ಸೆ	-9.69734
▁भाषा	-9.69774
▁बना	-9.69946
▁સ્થાન	-9.69977
▁ଏବେ	-9.70067
વે	-9.70091
▁പ്രവർത്തിക്ക	-9.701
▁તેમાં	-9.70221
ഹ	-9.70264
▁સુરક્ષા	-9.70267
▁ଅଧିକ	-9.70275
▁રોકાણ	-9.70311
▁डेटा	-9.70348
▁ಕೊನೆಯ	-9.70501
ങ്ങളെ	-9.70664
▁पा	-9.70758
തായി	-9.70814
▁રમત	-9.70822
▁स्तर	-9.70976
ಜ	-9.71062
ಸು	-9.71084
ವರ	-9.71085
▁વધારો	-9.71099
മില്ല	-9.71255
ುತ್ತೀರಿ	-9.71278
▁പക്ഷെ	-9.71416
ಕಿ	-9.71426
▁ലോക	-9.71481
▁મૂળ	-9.71485
▁ವೇಳೆ	-9.71548
കള	-9.71597
▁ವಿಮಾನ	-9.71637
▁એવા	-9.71667
ವಿದೆ	-9.7177
ಯಾದ	-9.71777
▁बच्चे	-9.71818
▁ಹೇಳಿದ್ದಾರೆ	-9.71831
ൊ	-9.7185
▁ધરાવતા	-9.71923
▁સંશોધન	-9.71933
જો	-9.71948
▁पसंद	-9.71996
से	-9.72062
▁മുമ്പ്	-9.72132
▁તપાસ	-9.72138
ಲೇ	-9.7214
ಶ್	-9.72164
ज़	-9.72216
▁ಮಾಡಬೇಕು	-9.72255
ലെ	-9.72259
▁नई	-9.72309
▁ಪಟ್ಟಿ	-9.72311
▁ಕಾರ್	-9.72349
▁દેશ	-9.72364
▁અનુસાર	-9.72373
▁ક્ષમતા	-9.72402
▁ವಾಸ್ತವವಾಗಿ	-9.72453
ിച്ച	-9.72495
ನೋ	-9.72519
ಿದ್ದೇವೆ	-9.72575
▁ಸ್ವಂತ	-9.72586
▁पाकिस्तान	-9.72623
ಯೆ	-9.72631
▁ಹಿಂದಿನ	-9.72697
પી	-9.72708
ଲି	-9.72738
▁ଭଲ	-9.7279
▁...	-9.72884
▁आधार	-9.73008
▁देता	-9.73024
▁അയാൾ	-9.73106
ધ	-9.73253
▁વિદ્યાર્થીઓ	-9.73254
▁પ્રકારની	-9.73258
▁d	-9.73261
▁सा	-9.73263
▁ഒ	-9.73285
▁पूरा	-9.73311
▁ಅಧ್ಯಯನ	-9.73341
▁പോലും	-9.73346
ନା	-9.73369
▁ಕುಟುಂಬ	-9.73384
▁ହେଉଛି	-9.73396
▁अशा	-9.73455
▁સી	-9.73458
▁સંબંધિત	-9.7352
▁ओर	-9.73536
▁ज्यादा	-9.73575
શો	-9.73577
रो	-9.73584
ମାନେ	-9.73606
ଦ	-9.73628
▁પસાર	-9.73661
▁ಮಾಡುವುದು	-9.73663
▁ફરીથી	-9.73687
▁બધી	-9.73746
્યું	-9.73748
▁સહિત	-9.73753
▁ಯು	-9.73754
▁सामान्य	-9.73765
▁સંગીત	-9.73771
▁वि	-9.738
▁કરીએ	-9.73856
▁મ	-9.73866
▁जी	-9.73878
▁t	-9.73892
▁ಅವಳ	-9.73926
▁ई	-9.74006
▁દક્ષિણ	-9.74039
▁ಪಡೆದ	-9.74205
▁ಸುಲಭ	-9.74216
▁വീഡിയോ	-9.74217
▁तैयार	-9.74369
▁ചെയ്യ	-9.74378
▁കാര്യം	-9.74406
▁മാത്രമാണ്	-9.74442
▁સ્પષ્ટ	-9.74485
ವಾಗಿದ್ದು	-9.74538
▁କିନ୍ତୁ	-9.74548
ಗಳಿಗಾಗಿ	-9.74635
▁ಸಂಗೀತ	-9.74639
ಿದಾಗ	-9.7468
▁आहोत	-9.74738
▁ડોલર	-9.74809
▁પે	-9.74829
▁സിനിമ	-9.74848
▁सुरक्षित	-9.7491
▁મિનિટ	-9.74927
ಕ್ಕಿಂತ	-9.75026
▁ಜೀವನದ	-9.75048
െന്ന്	-9.75115
▁हालांकि	-9.7512
▁१	-9.75132
ಆ	-9.75144
▁આગામી	-9.75146
▁ಬರ	-9.75153
▁ಮತ್ತೊಂದು	-9.75161
▁മുഴുവൻ	-9.75288
ಕೋ	-9.75383
▁પાછા	-9.7545
र्स	-9.75454
▁ବୋଲି	-9.75482
▁ತೆರಿಗೆ	-9.75532
▁આધારિત	-9.75539
▁വിവരങ്ങൾ	-9.75554
▁યુદ્ધ	-9.75572
▁ಮಾಡಿದರು	-9.75589
▁મુલાકાત	-9.75634
f	-9.75673
▁સ્થાનિક	-9.75689
▁ડી	-9.75809
▁ઉત્પાદનો	-9.75846
▁ધ્યાનમાં	-9.75848
▁विभिन्न	-9.76035
▁जाती	-9.76057
▁ला	-9.76073
▁മാത്രമേ	-9.76091
▁લેવામાં	-9.76101
▁કરતી	-9.76163
▁મજબૂત	-9.76198
▁ટીમ	-9.76251
▁हैंः	-9.76315
▁ओ	-9.7634
ಡೆ	-9.76357
▁ಬಳಸ	-9.76385
▁ಆಗಿ	-9.76448
▁સારું	-9.76462
▁કુલ	-9.76473
▁സാമ്പത്തിക	-9.76473
▁જેવી	-9.76479
▁ઉપયોગમાં	-9.76537
▁આપણા	-9.76639
સા	-9.76672
ांच्या	-9.76695
▁ಆದ	-9.76696
ସ୍	-9.76799
▁ಪೂರ್ವ	-9.76827
अ	-9.76841
▁കൂടി	-9.76846
▁नाव	-9.76968
▁आपका	-9.77048
▁છેલ્લા	-9.77144
▁ग	-9.77152
▁चाहता	-9.7718
▁ಕ್ಯಾನ್ಸರ್	-9.77288
▁ചെയ്യും	-9.77307
▁મળશે	-9.77315
▁લોકપ્રિય	-9.77412
▁ಇಡೀ	-9.77413
▁ಅಂದರೆ	-9.77458
▁અંત	-9.77481
▁વેચાણ	-9.77522
▁पुन्हा	-9.77525
ಶ	-9.77538
▁ನಗರ	-9.77627
▁सदस्य	-9.77719
▁മാത്രമല്ല	-9.77737
▁तयार	-9.77912
▁ಬಂದ	-9.78018
▁સામાજિક	-9.78063
ತಾ	-9.78076
▁ആദ്യം	-9.78103
ಿದರೆ	-9.78128
▁અંગે	-9.7815
▁करतो	-9.78196
ാതെ	-9.78203
▁କରିବାକୁ	-9.78357
ପ	-9.78366
को	-9.78369
▁ಮಂದಿ	-9.78412
▁ಕಂಪನಿ	-9.78422
▁ಸು	-9.78474
മുണ്ട്	-9.78515
▁વિશ્વ	-9.7858
▁संबंध	-9.78593
▁प्रवेश	-9.78594
▁അവർക്ക്	-9.78602
▁जहां	-9.78624
▁अंत	-9.78687
ીય	-9.78732
ിക	-9.78735
▁ಹಳೆಯ	-9.78804
▁માંગો	-9.78846
▁ಇನ್	-9.78913
▁तिला	-9.78949
ത്ത്	-9.79001
▁आला	-9.79014
▁ತಂದೆ	-9.79024
▁शकत	-9.79052
▁મીડિયા	-9.79062
▁ಯುಎಸ್	-9.79065
▁रोजी	-9.79169
▁રોગ	-9.79172
▁ಬಾರಿಗೆ	-9.79178
▁ഉയർന്ന	-9.79275
▁त्यामुळे	-9.79346
▁मत	-9.79362
▁રાખો	-9.79397
▁ଜଣେ	-9.79429
▁વેબસાઇટ	-9.79434
പ്പോൾ	-9.79444
▁എന്നാണ്	-9.79487
ഇ	-9.79501
▁ನಡೆಸ	-9.79571
िन	-9.7967
▁ମଧ୍ୟରେ	-9.79681
▁ಉನ್ನತ	-9.7972
▁संबंधित	-9.79749
ांची	-9.79773
▁ന്	-9.79791
▁दिल्ली	-9.79796
▁જુઓ	-9.79802
യായിരുന്നു	-9.79819
▁g	-9.79823
▁શરૂઆત	-9.79895
▁ତେବେ	-9.79936
▁बड़ा	-9.79941
▁પસંદગી	-9.79951
▁അതിനാൽ	-9.79984
▁શેર	-9.80029
ದೇ	-9.80103
▁आर्थिक	-9.8011
▁ಬ್ಯಾಂಕ್	-9.80147
ങ്ങള	-9.80195
ନ୍	-9.80199
w	-9.80238
ાઈ	-9.80305
▁स्पष्ट	-9.80309
रे	-9.80332
▁ವಯಸ್ಸಿನ	-9.80386
▁h	-9.80442
▁आगे	-9.80467
▁એન્ડ	-9.80495
▁કેન્સર	-9.80706
▁એપ્લિકેશન	-9.80758
▁ഇപ്പോഴും	-9.80862
▁ಇರುತ್ತದೆ	-9.80892
▁ನೀಡಲು	-9.8091
▁ಮಾಡಿದೆ	-9.80957
▁ಮೆ	-9.80989
▁होईल	-9.81029
▁କରିଥିଲେ	-9.81049
▁n	-9.81065
ത്തിലും	-9.81161
ೀ	-9.81179
▁वेबसाइट	-9.81184
▁മാറ്റ	-9.81272
▁ફરી	-9.8129
सा	-9.81306
▁ಭಾಗ	-9.81312
▁गरज	-9.81449
▁ಜನಪ್ರಿಯ	-9.81459
▁ઈ	-9.81534
▁ಕಷ್ಟ	-9.81554
▁അതിൽ	-9.81559
▁ಸುಲಭವಾಗಿ	-9.81566
▁બનાવવામાં	-9.81616
▁വേണം	-9.81644
▁ସହିତ	-9.81647
▁आपल्याला	-9.81698
▁સતત	-9.81752
▁રજૂ	-9.81753
की	-9.8179
ಲೋ	-9.81807
ै	-9.81871
▁જાહેરાત	-9.81877
▁ડિઝાઇન	-9.81903
▁आमच्या	-9.82019
ांनी	-9.82066
▁देख	-9.82088
▁उदाहरण	-9.82093
▁പ്രധാനമന്ത്രി	-9.82158
ତ	-9.82172
▁वीडियो	-9.82225
ଲେ	-9.82226
▁સંખ્યા	-9.82263
▁उसने	-9.82296
▁કંઈક	-9.82322
▁ഇവ	-9.82355
वि	-9.82383
▁यहाँ	-9.82397
▁ആളുകൾ	-9.82427
▁ഇതു	-9.82508
▁આરોગ્ય	-9.82608
▁देखा	-9.82657
ଶ	-9.8266
▁परत	-9.82693
▁ନେଇ	-9.82718
तील	-9.82808
▁૧	-9.8286
ದಿ	-9.82865
▁बिना	-9.82911
▁बड़ी	-9.82912
ൊരു	-9.82933
▁ક્રેડિટ	-9.82945
▁ന	-9.83068
બા	-9.83099
ബ	-9.8314
▁નુકસાન	-9.83225
ठ	-9.83241
▁ജീവിതം	-9.83295
▁സ്വന്തം	-9.83337
▁समर्थन	-9.83342
મો	-9.83343
ിലാണ്	-9.8351
▁ಆರು	-9.83551
▁પ	-9.83565
कडे	-9.83568
▁ಹೌದು	-9.83609
▁കഥ	-9.83651
▁જેને	-9.83658
▁ಅವು	-9.83684
ing	-9.83771
▁നിയമ	-9.83847
▁പ്രത്യേക	-9.83855
ોની	-9.83889
▁ಕೆ	-9.83939
▁જોખમ	-9.83954
▁વગર	-9.83954
▁കാണ	-9.84
▁ಕೈ	-9.84006
▁चला	-9.8402
ಲಾದ	-9.8406
▁ಬಳಸಬಹುದು	-9.84076
▁മൂന്നു	-9.84125
▁सिर्फ	-9.84139
▁સિ	-9.84171
▁નંબર	-9.84249
▁લાભ	-9.84263
▁पहला	-9.84267
▁പറയുന്നു	-9.84292
▁पानी	-9.84366
▁ಪಾತ್ರ	-9.84381
▁पोस्ट	-9.84409
▁ખોરાક	-9.84478
▁അമേരിക്കൻ	-9.84528
चं	-9.84562
ವಾಗಿರುತ್ತದೆ	-9.84611
▁होतो	-9.84631
▁ವೆಬ್	-9.84655
ન્ટ	-9.84767
ിക്ക	-9.84863
▁फोटो	-9.84911
▁गोष्टी	-9.84918
▁આવક	-9.84956
▁ಯೋಜನೆ	-9.84979
▁करेगा	-9.84984
▁ବା	-9.85027
ಎ	-9.8506
▁ડે	-9.85069
▁इंटरनेट	-9.85086
▁વિના	-9.85087
▁പിന്നെ	-9.85165
ಟಾ	-9.85245
▁महीने	-9.8528
ನ್ಸ್	-9.85379
ଇ	-9.85393
▁ಹಣವನ್ನು	-9.85409
▁ସମୟ	-9.85467
▁सक्षम	-9.85531
▁ಶಕ್ತಿ	-9.85533
▁വീട്ടിൽ	-9.8559
▁തീർച്ചയായും	-9.85601
▁ಮೂರನೇ	-9.85772
▁પૈસા	-9.8583
▁नका	-9.85905
▁કંપનીઓ	-9.85939
▁ಸಂದರ್ಭಗಳಲ್ಲಿ	-9.8594
▁രൂപ	-9.85942
▁આવશ્યક	-9.85961
▁परंतु	-9.86034
▁वर्तमान	-9.86056
▁यात्रा	-9.86056
▁આંતરરાષ્ટ્રીય	-9.86081
▁संघ	-9.86093
▁ഒരിക്കലും	-9.86158
િયા	-9.86174
▁ದೇಶ	-9.86212
▁રાખે	-9.86252
ಕರ	-9.86304
ಕರ್	-9.86358
▁ऐसे	-9.8636
▁ପ୍ରଥମ	-9.86409
ജ	-9.86484
▁આવા	-9.86513
ಸೆ	-9.86595
▁मिलियन	-9.86687
बी	-9.86836
▁પડી	-9.86929
▁जगह	-9.86958
▁ಓ	-9.86968
▁എസ്	-9.87013
िया	-9.87028
▁એટલે	-9.87035
▁રિ	-9.8706
▁કર	-9.87099
▁ಸರಿಯಾದ	-9.87213
▁तुलना	-9.87267
▁ಸರಳ	-9.87285
ಇದು	-9.87325
▁ಒಳಗೊಂಡಿದೆ	-9.87363
▁ರಾತ್ರಿ	-9.87369
▁યુનાઇટેડ	-9.87385
વિ	-9.87412
▁સુધીમાં	-9.87418
▁ಮನೆಯಲ್ಲಿ	-9.87449
▁ଥିଲା	-9.87517
ેશન	-9.8752
पासून	-9.87528
▁കാ	-9.87545
વામાં	-9.87597
▁સ્વાસ્થ્ય	-9.87609
▁પ્રકારના	-9.87618
▁ಜೀವನದಲ್ಲಿ	-9.87626
▁കേന്ദ്ര	-9.87669
▁પૂર્વ	-9.87686
▁പേർ	-9.87698
കളെ	-9.87709
▁शोध	-9.87724
▁ಮೊಬೈಲ್	-9.87733
▁મહિના	-9.87762
▁તેનું	-9.87765
▁ಕಾರ್ಡ್	-9.87792
▁ಬಳಸಲು	-9.87794
▁જોઇએ	-9.87831
നെ	-9.87869
▁ઝડપથી	-9.87873
er	-9.87888
▁ವೆಬ್ಸೈಟ್	-9.87909
▁असं	-9.8792
▁പദ്ധതി	-9.87947
▁ಕೆಳಗಿನ	-9.88105
▁રાષ્ટ્રીય	-9.88179
▁बैंक	-9.88206
ಂಗ್	-9.88226
ୟ	-9.88268
ವಿಲ್ಲ	-9.88298
ನನ್ನು	-9.88326
▁વિકલ્પ	-9.88404
▁લક્ષણો	-9.88441
▁ಬಾ	-9.88447
▁સક્ષમ	-9.88542
തി	-9.8856
▁માણસ	-9.88564
▁ದಿನಗಳಲ್ಲಿ	-9.8857
▁ગુણવત્તા	-9.88582
ಲ್ಪಟ್ಟ	-9.88587
▁ലെ	-9.8861
▁ବହୁତ	-9.8862
▁भविष्य	-9.88655
ಬಾ	-9.88666
[	-9.88821
ವರಿಗೆ	-9.88898
▁હજી	-9.88919
▁ନୁହେଁ	-9.88936
▁ಬೆಂಬಲ	-9.88957
▁ವಿದ್ಯುತ್	-9.8896
▁ಅಂತಹ	-9.88984
▁पैसे	-9.89013
▁પ્રદાન	-9.89048
▁ಗಂಟೆಗಳ	-9.89085
▁सु	-9.89199
▁खेळ	-9.89207
▁ವಿದ್ಯಾರ್ಥಿಗಳು	-9.89313
▁ഉപയോഗിച്ച്	-9.89331
▁സാധാരണ	-9.89334
▁ಅವಧಿಯಲ್ಲಿ	-9.89411
▁ನಿನ್ನ	-9.89486
▁राष्ट्र	-9.89488
▁असतात	-9.89542
ର୍	-9.89575
▁घोषणा	-9.89581
▁મો	-9.89607
▁क्षमता	-9.8961
▁ખરાબ	-9.89619
▁നന്ദി	-9.89669
▁ഞാന	-9.89674
ण्यासाठी	-9.89691
ಬೇಡಿ	-9.8973
▁ଅଛି	-9.89755
▁ಅನುಭವ	-9.89783
▁योग्य	-9.89812
ರುವ	-9.89873
ंड	-9.89878
▁स्कूल	-9.8988
ഴ	-9.89894
ରା	-9.89913
▁കഴിയില്ല	-9.89918
▁ആദ്യത്തെ	-9.89929
ബി	-9.89941
ಸನ್	-9.89946
▁અનેક	-9.8996
▁बड़े	-9.8997
▁સો	-9.89977
▁ഉ	-9.90031
▁जाऊ	-9.90147
ಬಹುದಾದ	-9.90152
▁ಸರಿ	-9.902
യിലാണ്	-9.90219
▁ಸ್ಥಾನ	-9.90238
▁ಸಂಬಂಧಿಸಿದ	-9.90285
▁तब	-9.9029
▁ച	-9.90295
ಕೊ	-9.90305
▁वापस	-9.90411
ಬೇಕೆಂದು	-9.9045
ಂಟ್	-9.90477
▁എന്നത്	-9.9049
▁ସ	-9.90493
कार	-9.90498
▁હોવ	-9.9053
▁लाभ	-9.90565
▁e	-9.90645
ನ್ನ	-9.90705
▁ಸಂಸ್ಥೆ	-9.90761
▁असा	-9.90808
▁लागू	-9.90836
▁പിന്നീട്	-9.90837
णार	-9.90886
▁ઉત્તર	-9.90907
प्र	-9.90914
▁ગઈ	-9.90928
▁പേര്	-9.90945
▁ଆଜି	-9.90969
▁ಪೂರ್ಣ	-9.90983
▁ಚೆನ್ನಾಗಿ	-9.91052
പ്ര	-9.91126
▁ભગવાન	-9.91146
▁କାମ	-9.91156
െങ്കിലും	-9.91158
▁ವೀಡಿಯೊ	-9.91232
▁जानते	-9.91334
▁कोशिश	-9.91442
▁ತರಬೇತಿ	-9.91454
▁शकतो	-9.91484
▁ചെയ്യുന്നത്	-9.91488
l	-9.91495
▁ಇಂಟರ್ನೆಟ್	-9.91597
▁कसे	-9.91616
ത്തിലാണ്	-9.9171
▁दूसरे	-9.91725
▁ಪ್ರಧಾನಿ	-9.91819
▁મા	-9.91842
▁ଭାରତ	-9.91854
▁സ്വയം	-9.91899
▁വ	-9.9192
▁തന്നെയാണ്	-9.91932
▁વર્ષમાં	-9.91945
▁પ્ર	-9.91959
▁ಆಧುನಿಕ	-9.9197
▁ഡി	-9.92063
▁चित्रपट	-9.92094
▁മറ്റു	-9.92151
▁નોંધપાત્ર	-9.92232
ન્ડ	-9.92252
▁होत	-9.92296
▁खिलाफ	-9.92305
▁ಖಾಸಗಿ	-9.92305
▁બી	-9.92351
▁विषय	-9.92358
ીંગ	-9.92364
▁कोण	-9.92395
▁ಜನ	-9.92421
ವಾಗ	-9.92459
▁સ્તર	-9.92511
▁ନିଜ	-9.92558
▁નાણાકીય	-9.92577
▁प	-9.92669
▁देशों	-9.92714
ിങ്	-9.92751
▁ವಿನ್ಯಾಸ	-9.92761
ങ്ങ	-9.9277
▁ಬೆಲೆ	-9.92817
▁ಇನ್ನು	-9.92903
▁ಕರೆ	-9.92921
କ୍	-9.92951
▁ಸಂವಹನ	-9.92988
▁જેનો	-9.92995
▁वर्षों	-9.93
▁બિન	-9.93012
ಯ್	-9.93037
दा	-9.93102
હું	-9.93108
યુ	-9.93148
▁ಸಂಬಂಧ	-9.93175
▁ಮೇಲಿನ	-9.93294
▁पुस्तक	-9.93317
ത്തില	-9.93322
▁പോയി	-9.93337
▁കാണാൻ	-9.93369
▁સહાય	-9.9338
▁પ્રોજેક્ટ	-9.93412
▁ಇಂತಹ	-9.93493
▁कधी	-9.93539
▁આનંદ	-9.93661
▁ಹೆಚ್ಚುವರಿ	-9.93707
ક્સ	-9.93716
▁കൊണ്ട്	-9.93767
ટા	-9.93803
▁വിവിധ	-9.93806
▁રાખવા	-9.93824
ಗೊಂಡ	-9.9385
▁अधिकार	-9.93858
▁મફત	-9.93948
▁प्रभाव	-9.9396
▁जरूरत	-9.93968
▁પિતા	-9.93972
ഷ്	-9.93986
▁આધારે	-9.93993
ाई	-9.93996
▁ಮಾತನಾಡ	-9.93998
ಕ್ಸ್	-9.94027
th	-9.94058
▁ભૂમિકા	-9.94062
▁आनंद	-9.9408
▁मित्र	-9.94089
▁शिक्षा	-9.94141
ക്കായി	-9.94165
▁അത	-9.9429
▁ಉತ್ಪನ್ನ	-9.94301
▁ઝડપી	-9.94349
▁ସବୁ	-9.94716
▁લાગુ	-9.94757
ರೊ	-9.94773
▁ഐ	-9.9479
ിനു	-9.94856
ાઇ	-9.9486
യായ	-9.94878
▁ચર્ચા	-9.94898
▁ತಂತ್ರಜ್ಞಾನ	-9.94923
▁તમારું	-9.94941
▁કહેવામાં	-9.95005
▁ಪ್ರತಿಯೊಂದು	-9.95019
▁+	-9.95027
ಗಿಂತ	-9.95035
▁വ്യത്യസ്ത	-9.9506
્	-9.9508
ജി	-9.9513
▁ಮಾಡುತ್ತಾರೆ	-9.95149
गी	-9.95179
▁अंतिम	-9.95245
▁നടന്ന	-9.95247
▁नीचे	-9.9525
▁કમ્પ્યુટર	-9.95276
▁आसान	-9.95283
▁इससे	-9.95296
▁દિવસે	-9.95346
▁કેન્દ્ર	-9.95349
ಿಸ	-9.95359
റിയ	-9.95459
▁ಉಳಿದ	-9.95505
▁વેબ	-9.95556
ഫ്	-9.95564
▁ನೀರಿನ	-9.95588
▁അവളുടെ	-9.95591
ांचे	-9.956
▁वाला	-9.9563
▁नि	-9.95677
▁પોસ્ટ	-9.95678
▁ಎಂದಿಗೂ	-9.95746
▁ಕರೆಯಲಾಗುತ್ತದೆ	-9.95802
▁ಒಳ್ಳೆಯ	-9.95886
▁हिस्सा	-9.95944
▁ഇതിൽ	-9.95948
▁in	-9.95961
▁ମା	-9.95996
▁मीडिया	-9.95999
▁ನಿರ್ಮಾಣ	-9.96002
▁ઘણાં	-9.96046
▁હોવું	-9.96088
▁ಹಾಕ	-9.96092
▁ആരോഗ്യ	-9.96105
▁ചെയ്യുക	-9.96119
ଛି	-9.96139
०	-9.96163
r	-9.96167
▁મિત્રો	-9.9619
ଳ	-9.96217
e	-9.96276
▁आय	-9.96293
▁ದೂರ	-9.96375
▁शुरुआत	-9.96408
▁રકમ	-9.9641
ड़	-9.96429
▁प्रणाली	-9.96436
വ്	-9.96472
મે	-9.96481
▁इसमें	-9.96515
▁ദേശീയ	-9.96529
▁उद्योग	-9.96569
▁ಇತ್ತೀಚಿನ	-9.96574
▁उपचार	-9.96597
ದ್ದ	-9.96689
▁ಹಾಗೆ	-9.96701
▁होणार	-9.96813
▁આર્થિક	-9.96817
▁ଅନେକ	-9.9685
▁ವಾರ	-9.96911
ೀಯ	-9.96917
▁बाजार	-9.96934
ഗ്	-9.96942
യിലും	-9.96974
▁अनुमति	-9.97011
▁અમેરિકા	-9.97059
▁નેટવર્ક	-9.97095
▁જગ્યા	-9.97109
▁തവണ	-9.9716
▁ഇതുവരെ	-9.97173
मैं	-9.97196
▁ଆରମ୍ଭ	-9.97199
▁ನನ್ನನ್ನು	-9.9726
▁સફળ	-9.97353
▁ಪಡೆಯ	-9.97384
▁વિચારો	-9.97422
यह	-9.97499
▁केवळ	-9.97535
▁समान	-9.97584
▁ಸೈಟ್	-9.97614
▁ଯାହା	-9.97641
▁होंगे	-9.97693
ास	-9.97712
▁ನಿಜವಾದ	-9.97747
▁पुरस्कार	-9.97751
ತು	-9.97776
▁જમીન	-9.97814
▁જાણવા	-9.97818
▁ಬಣ್ಣ	-9.97826
ത്തിനും	-9.97899
▁रिपोर्ट	-9.97901
▁ವ್ಯವಹಾರ	-9.97908
▁સમસ્યાઓ	-9.97934
▁ಹೂಡಿಕೆ	-9.97944
▁બેંક	-9.97955
▁स्थापित	-9.97994
▁खर्च	-9.98063
▁સાઇટ	-9.9807
മി	-9.98089
▁માનવ	-9.9809
▁നിലവിൽ	-9.98091
▁नया	-9.98111
ದಂತೆ	-9.98125
▁കൈ	-9.98223
▁ऊर्जा	-9.98275
▁यांनी	-9.98287
▁ପ	-9.98311
▁രാത്രി	-9.98319
▁मंत्री	-9.98345
▁എല്ലാവരും	-9.98358
ಂದು	-9.98369
▁रात	-9.98403
▁જીવનમાં	-9.98454
▁ಪ್ರ	-9.98487
▁എത്ര	-9.98506
▁कोणत्याही	-9.98506
▁उ	-9.98523
പി	-9.98531
▁जग	-9.98539
▁ફ	-9.98547
▁આશરે	-9.98552
▁सामग्री	-9.98579
▁ബ	-9.98665
▁सूची	-9.98666
▁വര	-9.98668
▁ನೋಡಲು	-9.98716
▁ಅಡಿಯಲ್ಲಿ	-9.98728
▁ವ್ಯವಸ್ಥೆ	-9.98777
▁ಹೊಂದಿವೆ	-9.9879
▁असतो	-9.98846
▁ಚೀನಾ	-9.98864
▁മാ	-9.98881
ಾಗಿ	-9.98886
▁સંપૂર્ણપણે	-9.98898
▁ଏହାର	-9.98901
पी	-9.98922
▁ಒದಗಿಸುತ್ತದೆ	-9.98931
▁भूमिका	-9.98969
▁ಭಾಷೆ	-9.9906
▁હાલમાં	-9.99121
ेल	-9.99136
ಗಳಾಗಿವೆ	-9.99139
▁ಮಾಡಲಾಗಿದೆ	-9.99175
യില	-9.99185
▁ಬಳಿಕ	-9.99231
▁ಜೂನ್	-9.99241
▁ભાષા	-9.99259
ഞാൻ	-9.99278
നും	-9.99299
▁देते	-9.99314
ನೀವು	-9.99321
▁હે	-9.99449
ांचा	-9.99465
▁ಸುದ್ದಿ	-9.99487
ಮೆ	-9.99551
▁વિશાળ	-9.99565
▁જશે	-9.99603
▁અસરકારક	-9.99666
▁w	-9.99668
▁शायद	-9.99696
▁ബിസിനസ്സ്	-9.99756
▁બદલે	-9.99768
▁घटना	-9.99802
▁मामले	-9.99896
▁પોલીસ	-9.99903
▁ಮಹಿಳೆಯರು	-9.99905
▁मिल	-9.99923
शा	-9.9993
ಮನ್	-9.99944
▁ಏಕೆ	-10
▁ಹೀಗೆ	-10.0005
യിലേക്ക്	-10.0008
▁the	-10.0012
▁આપ્યો	-10.0012
▁व्यक्ती	-10.0013
▁फार	-10.0015
▁બિઝનેસ	-10.0023
▁गेल्या	-10.0024
▁നിന്റെ	-10.0024
▁दिनों	-10.0029
പ്പെട്ടു	-10.003
▁ആയി	-10.0034
▁प्रदर्शन	-10.0038
▁બાજુ	-10.0039
▁आम्हाला	-10.004
▁ಯುದ್ಧ	-10.0044
al	-10.0045
▁କରିଛନ୍ତି	-10.0046
▁ठीक	-10.0046
▁ವಿಂಡೋಸ್	-10.0049
ുന്നതിനുള്ള	-10.005
▁ଏହାକୁ	-10.005
fi	-10.005
▁ग्राहक	-10.0051
▁ಸಮಯವನ್ನು	-10.0052
▁डॉलर	-10.0059
▁રચના	-10.0062
▁कार्ड	-10.0064
▁त्याने	-10.0068
▁ಇದಕ್ಕೆ	-10.0072
▁एवं	-10.0072
▁જાણો	-10.0079
ಿಕ	-10.0081
▁તબીબી	-10.0081
▁વર્ષથી	-10.0086
▁ઇન્ટરનેટ	-10.0092
ଥିଲେ	-10.0092
▁അദ്ദേഹത്തിന്റെ	-10.0095
▁ഒരേ	-10.0096
ಂತಹ	-10.0097
ીઓ	-10.0098
मधील	-10.0099
▁પરિણામ	-10.0103
▁ಪ್ರವೇಶ	-10.0105
▁स्वतः	-10.0107
▁ಕಾಂಗ್ರೆಸ್	-10.0115
▁પરિવાર	-10.0116
ಲಾಗಿತ್ತು	-10.0118
▁ଭାବେ	-10.012
▁ચૂકવણી	-10.0123
▁ബി	-10.0123
▁કેમ	-10.0125
▁નાણાં	-10.0125
▁સુરક્ષિત	-10.0126
▁વાસ્તવિક	-10.0133
▁भगवान	-10.0135
ed	-10.0135
गा	-10.0136
ેડ	-10.0154
▁उम्मीद	-10.0157
മ്പ	-10.0161
▁બોલ	-10.0167
▁શ	-10.0193
▁अलावा	-10.0193
▁सुधार	-10.0195
▁લોન	-10.0196
▁ಬೆ	-10.0207
▁विभाग	-10.0207
തെന്ന്	-10.0212
ವರ್	-10.0212
ಷ	-10.0219
▁എനിക്ക	-10.0224
▁അറിയ	-10.0225
ଃ	-10.0225
▁ಮಾ	-10.0233
▁माझा	-10.0234
▁સુ	-10.0236
▁ഇന്ത്യയിൽ	-10.0236
▁કરશો	-10.0236
▁काफी	-10.0236
▁સામેલ	-10.0238
▁डॉक्टर	-10.0239
▁लेने	-10.0243
▁सुनिश्चित	-10.0244
▁હ	-10.0247
▁સુંદર	-10.0248
▁आकार	-10.025
▁राष्ट्रपति	-10.0251
ച	-10.0252
▁പണം	-10.0262
▁કરોડ	-10.0263
▁ಆಡ	-10.0265
▁ಬಹಳಷ್ಟು	-10.0275
▁परीक्षा	-10.0275
▁આશા	-10.0279
▁याद	-10.0289
നു	-10.0289
ുന്നുണ്ട്	-10.029
▁ಬಯಸುವ	-10.0294
▁ચિંતા	-10.0295
▁ಅಂತಿಮವಾಗಿ	-10.0301
▁പറഞ്ഞ	-10.0305
ಿದ್ದರೆ	-10.0305
▁ಸರ್ಕಾರದ	-10.0305
▁ಜ	-10.0307
▁നി	-10.0312
▁વિશ્વાસ	-10.0312
ಒ	-10.0313
▁ತಾಯಿ	-10.0323
▁गेले	-10.0326
▁ಟಿ	-10.0326
વાળા	-10.0327
v	-10.0328
▁વિસ્તાર	-10.0334
▁റിപ്പോർട്ട്	-10.0336
▁ତ	-10.0339
▁ಬಹುತೇಕ	-10.0339
▁ಮಾರ್ಚ್	-10.034
▁ಮಾಧ್ಯಮ	-10.0341
ನ್ನೂ	-10.0343
ಬೇಕಾದ	-10.0344
▁വന്നു	-10.0349
▁ಆದರೂ	-10.0352
▁of	-10.0353
▁ಸ್ಥಳ	-10.0356
യില്ല	-10.036
▁लेख	-10.036
▁ಗಮನ	-10.0362
ವರೆಗೆ	-10.0366
▁ഭാഷ	-10.0367
▁ಜನವರಿ	-10.0374
▁ಪರೀಕ್ಷೆ	-10.0376
▁मग	-10.038
▁ನಿಯಂತ್ರಣ	-10.0384
સે	-10.0386
ೌ	-10.0395
▁घंटे	-10.0398
▁ಇದರಲ್ಲಿ	-10.04
▁କହିଛନ୍ତି	-10.0403
യർ	-10.0404
▁ಜಾಗತಿಕ	-10.0408
ില	-10.0408
▁ಕುಟುಂಬದ	-10.0409
▁ಆರಂಭದಲ್ಲಿ	-10.0412
▁ಪರಿಹಾರ	-10.0414
▁ಆಸಕ್ತಿ	-10.0419
▁निश्चित	-10.042
▁രണ്ടാം	-10.0426
വരെ	-10.0439
▁नियम	-10.0443
▁ಬಳಕೆ	-10.0443
▁ಮಾರುಕಟ್ಟೆ	-10.0445
▁ખાતે	-10.0451
▁ನೆಟ್ವರ್ಕ್	-10.0454
▁मार्ग	-10.0456
▁દવા	-10.0457
▁ଆମ	-10.0458
▁എന്നതാണ്	-10.046
▁ಜಿ	-10.0467
▁ಜನರನ್ನು	-10.0474
ॉ	-10.0483
മാർ	-10.0485
▁തുടങ്ങി	-10.0487
▁ನಾ	-10.0488
ಹ್	-10.0489
▁താഴെ	-10.0489
▁ગંભીર	-10.0494
in	-10.0494
▁वर्षे	-10.0495
▁આવેલા	-10.0501
▁ಇತಿಹಾಸ	-10.0504
▁ಹೆ	-10.0504
▁ನೀರು	-10.0505
▁विकसित	-10.0507
▁ಜುಲೈ	-10.0512
▁ಸಾಮರ್ಥ್ಯ	-10.0517
▁पी	-10.0519
▁ಕಾ	-10.0522
▁ଅନ୍ୟ	-10.0528
યા	-10.0536
▁ಪುಸ್ತಕ	-10.0536
▁પ્રવેશ	-10.0539
▁ઘરે	-10.0552
▁સમયમાં	-10.0553
▁पाहिजे	-10.0554
೦	-10.056
▁അമേരിക്ക	-10.0562
િન	-10.0564
▁କଥା	-10.0566
▁ഇത	-10.057
સ્	-10.0573
▁નજીક	-10.0578
ಗೂ	-10.0578
▁संपर्क	-10.0578
▁ಉ	-10.0584
▁୧	-10.0592
▁કરું	-10.0594
▁ഉപയോഗിക്ക	-10.0597
▁तेव्हा	-10.0597
▁विकल्प	-10.0599
▁ಪರಸ್ಪರ	-10.0599
▁ପ୍ର	-10.0601
പ്പ്	-10.0604
▁तिच्या	-10.061
▁કહી	-10.0617
▁ಎಂಬುದರ	-10.0617
ौ	-10.0618
▁સક્રિય	-10.0618
▁सामाजिक	-10.062
ર્	-10.0621
▁क	-10.063
▁કેન્દ્રિત	-10.0636
ಂತ	-10.0636
▁जबकि	-10.0636
▁व्यापार	-10.0642
▁વર્તમાન	-10.0644
▁ઇતિહાસ	-10.0649
▁પ્રારંભિક	-10.0649
ಗಾ	-10.065
▁દેશમાં	-10.0658
▁ಅಂತರರಾಷ್ಟ್ರೀಯ	-10.0663
▁પાડે	-10.0666
▁धन्यवाद	-10.0667
▁रि	-10.0672
▁ನಿರ್ಧಾರ	-10.0679
ંક	-10.0681
▁ಒಮ್ಮೆ	-10.0682
ાય	-10.0686
ಬಾರದು	-10.0691
ಪಾ	-10.0693
▁പറയ	-10.0694
ിരിക്കുന്ന	-10.0695
ಹಾ	-10.0697
▁होतं	-10.0706
▁ತಿಂಗಳು	-10.0708
યો	-10.0709
▁ವೃತ್ತಿಪರ	-10.071
▁ಶಿಫಾರಸು	-10.0714
ുകയായിരുന്നു	-10.0715
▁ତାଙ୍କର	-10.0716
▁നൽക	-10.0719
▁वर	-10.0721
ଲ୍	-10.0723
▁ഇട	-10.0726
▁दें	-10.0735
▁ક્યાં	-10.0742
▁ನಿರ್ವಹಿಸ	-10.0744
▁રેકોર્ડ	-10.0748
▁മാസം	-10.0748
▁ഞങ്ങൾക്ക്	-10.0749
▁बी	-10.075
▁ಪೋಸ್ಟ್	-10.075
▁ರಿ	-10.0755
▁गेम	-10.0759
ಬೇಕಾಗುತ್ತದೆ	-10.0765
ડો	-10.0765
▁વજન	-10.0766
▁क्रिकेट	-10.0769
▁ರಾಷ್ಟ್ರ	-10.077
മാ	-10.0771
▁સફળતા	-10.0774
▁ಗುರಿ	-10.0776
▁ಎನ್	-10.078
▁બા	-10.078
▁दोन्ही	-10.0781
▁ಕೆಲಸದ	-10.0784
▁पि	-10.0793
▁વિશ્વમાં	-10.0793
टा	-10.0793
▁તાલીમ	-10.0796
▁വാ	-10.08
▁પરવાનગી	-10.08
▁आहात	-10.0808
▁ಮಹಿಳೆ	-10.0809
നാണ്	-10.0813
ಳಿ	-10.0813
▁കുറിച്ച്	-10.0814
▁महसूस	-10.0821
▁ଗୋଟିଏ	-10.0821
▁ಪ್ರಶಸ್ತಿ	-10.0823
▁ಹೃದಯ	-10.0824
▁प्रदेश	-10.0835
बा	-10.0842
▁സംസ്ഥാന	-10.0849
▁ಇರ	-10.085
▁जून	-10.0851
▁ಸಾಲ	-10.0851
▁ഏതെങ്കിലും	-10.0851
▁കണ്ട	-10.0851
▁કેસ	-10.0853
▁અધિકાર	-10.0859
▁સંપર્ક	-10.0864
▁गुणवत्ता	-10.0866
▁ನಿ	-10.0867
▁രാഷ്ട്രീയ	-10.0869
ायला	-10.087
▁શામેલ	-10.0874
▁સેટ	-10.088
▁ઉ	-10.0882
▁ದೇಹದ	-10.0883
▁କେବଳ	-10.0884
▁माझे	-10.09
▁સંભવિત	-10.0903
▁പോക	-10.0907
▁રૂપિયા	-10.0907
▁सप्ताह	-10.0908
▁ಡಿಸೆಂಬರ್	-10.0912
▁સંભાળ	-10.0912
▁ಟಿವಿ	-10.0914
▁ಪ್ರದರ್ಶನ	-10.0916
▁सो	-10.0917
▁પ્રોગ્રામ	-10.0922
▁માનવામાં	-10.0924
▁ह	-10.0931
ಚ್	-10.0931
▁ഇവർ	-10.0941
▁ಸಿನಿಮಾ	-10.0942
തന്നെ	-10.0945
യുണ്ട്	-10.0947
▁છોડી	-10.0948
ರಾಗಿ	-10.0952
▁बताया	-10.0956
▁સ્થાપના	-10.0957
▁આવું	-10.0964
ബ്	-10.0966
્ડ	-10.0966
▁ಸಂ	-10.0972
▁आम	-10.0976
▁કરાર	-10.0979
ಡು	-10.0981
ಜಾ	-10.0985
ಕಾರ	-10.0988
नि	-10.0989
▁ಮಿ	-10.0992
▁અરજી	-10.0993
▁इसकी	-10.0995
ುತ್ತಿದ್ದರು	-10.0998
▁ವಹಿಸ	-10.1003
▁પ્રકાશ	-10.1005
▁આસપાસ	-10.1006
ବେ	-10.1016
▁मार्च	-10.1017
▁ಪ್ರಕ್ರಿಯೆ	-10.1022
▁कुल	-10.1034
▁એકવાર	-10.1038
തോ	-10.1038
ಲೂ	-10.1038
▁પત્ની	-10.1042
▁भुगतान	-10.1042
▁ഓ	-10.1044
શું	-10.1046
ುತ್ತಿಲ್ಲ	-10.105
▁ವ್ಯಕ್ತಿಯ	-10.105
ತೆಯ	-10.1052
जा	-10.1053
▁ಪರಿಸರ	-10.106
ଥିଲା	-10.1062
▁આમ	-10.1065
▁हमारी	-10.1069
▁વર્ષો	-10.1071
▁સારો	-10.1073
▁ମୋର	-10.1077
▁എന്തെങ്കിലും	-10.1087
▁मूल्य	-10.1088
▁കു	-10.1099
▁जवाब	-10.1099
▁ಫೈಲ್	-10.1099
▁ସମୟରେ	-10.11
▁રાહ	-10.1106
▁माझी	-10.1109
▁ಅಕ್ಟೋಬರ್	-10.1109
ವಾಯಿತು	-10.1109
▁ജീവിത	-10.1113
▁ಅಗತ್ಯವಿಲ್ಲ	-10.1118
▁समूह	-10.1119
▁ಬಲ	-10.1119
▁എവിടെ	-10.1121
▁उत्पाद	-10.1121
▁ರೋಗ	-10.113
▁ത	-10.1134
▁ज	-10.1134
ಲಾಗುವುದು	-10.1135
പ്പെട	-10.1136
▁ಸಾವಿರ	-10.1137
▁હા	-10.1137
▁બહુ	-10.1137
▁ಇಂಗ್ಲಿಷ್	-10.1144
▁तरीके	-10.1145
▁चर्चा	-10.1152
▁तास	-10.1153
▁ସେମାନେ	-10.1153
ವರೆಗೂ	-10.1154
▁ഏകദേശം	-10.1156
▁k	-10.1156
▁तुला	-10.1157
ച്ചു	-10.1163
▁ಕಥೆ	-10.1167
▁पत्नी	-10.1167
▁ഹ	-10.1168
▁જવા	-10.1172
▁അവസാന	-10.1173
ರಾಗಿದ್ದಾರೆ	-10.118
▁ഒന്ന്	-10.1183
▁ಕೆಳಗೆ	-10.1195
पा	-10.1195
▁കാല	-10.1199
▁अध्ययन	-10.1204
▁ನೈಸರ್ಗಿಕ	-10.1211
ડે	-10.1213
▁કાયદા	-10.1215
▁ಕಾರು	-10.122
▁सं	-10.122
▁મૂળભૂત	-10.1222
▁સંબંધ	-10.1224
ହ	-10.1226
▁ગ્રાહક	-10.1235
▁स्थापना	-10.1241
ಯಾಗಿದ್ದು	-10.1241
▁आपने	-10.1245
+	-10.1246
▁എപ്പോഴും	-10.1246
▁ഞാനും	-10.1248
▁ಸರಾಸರಿ	-10.1249
▁तरी	-10.1249
▁સાધનો	-10.1251
ांमध्ये	-10.1252
▁ગ્રાહકો	-10.1252
ૉ	-10.1253
▁ତାଙ୍କୁ	-10.1257
પે	-10.1259
▁શ્રેણી	-10.126
▁ರೀತಿ	-10.1269
▁ಆರಂಭಿಕ	-10.1269
▁ગયું	-10.1272
▁બજાર	-10.1279
▁ત	-10.1282
▁ल	-10.1284
▁આધુનિક	-10.1285
രു	-10.1286
ಐ	-10.1288
ನೊ	-10.1289
▁મોટો	-10.1293
ത്തിനായി	-10.1295
▁ಪ್ರೀತಿ	-10.1295
▁मजबूत	-10.1301
▁ઉલ્લેખ	-10.1304
▁નિયંત્રણ	-10.1309
▁ક્યારેક	-10.1313
▁r	-10.1313
ण्याची	-10.1314
▁ಸೆಪ್ಟೆಂಬರ್	-10.1314
▁ಶತಮಾನದ	-10.132
▁ગમે	-10.1323
▁ಬಳಸಿ	-10.1324
▁ಪ್ರಭಾವ	-10.1328
▁ഇങ്ങനെ	-10.1333
▁વેપાર	-10.1337
▁സമയത്ത്	-10.1337
▁बे	-10.1338
യു	-10.1341
▁നന്നായി	-10.1348
ನಾವು	-10.1349
▁हमने	-10.1353
भ	-10.1366
▁उसकी	-10.137
▁पुलिस	-10.1372
▁ಸಂಶೋಧನೆ	-10.1379
▁ಡಾಲರ್	-10.1384
▁ನೀನು	-10.1385
ദ്	-10.1385
િસ	-10.1388
▁च्या	-10.1389
▁પરીક્ષણ	-10.139
▁ಮಹಿಳಾ	-10.1392
▁દર્શાવે	-10.1395
▁സ്ത്രീ	-10.1397
▁संगीत	-10.1408
▁ಸಿಬ್ಬಂದಿ	-10.1409
▁കൂടെ	-10.1411
▁ಬಹು	-10.1415
▁રીત	-10.1418
▁ಧ್ವನಿ	-10.1425
▁इस्तेमाल	-10.1427
▁ശ	-10.1428
▁રસ	-10.143
ಿಸುವ	-10.1432
▁अंतर	-10.1438
▁उम्र	-10.1443
▁ಪ್ರಶ್ನೆ	-10.1443
▁യു	-10.1453
▁पक्ष	-10.1457
ಗಳಾಗಿ	-10.1459
▁കോ	-10.1459
▁ಬಳಸುವ	-10.1467
▁લોકોની	-10.1472
▁सुंदर	-10.1473
▁करून	-10.1475
ുവാൻ	-10.148
▁रखने	-10.148
േണ്ടത്	-10.148
▁વિકલ્પો	-10.1483
▁സാ	-10.1485
▁હોવી	-10.1487
▁ಮರು	-10.1488
ತೆಯನ್ನು	-10.149
▁प्रथम	-10.149
▁उनका	-10.1493
▁ನಿಂದ	-10.1494
▁महिलाओं	-10.1497
▁ಉದ್ಯೋಗ	-10.1498
▁ભાગના	-10.1504
തിൽ	-10.1505
▁દાખલ	-10.1506
ൈ	-10.1506
എ	-10.1507
▁ପ୍ରତି	-10.151
▁ઘણીવાર	-10.151
▁अगले	-10.151
▁നോക്കി	-10.1514
▁ಡಿಜಿಟಲ್	-10.1515
▁സേവന	-10.1516
▁मिनट	-10.1517
▁പറയുന്നത്	-10.1524
▁ಯಾರೂ	-10.1526
▁बाहेर	-10.1527
▁ಆಕೆ	-10.1539
▁ವಿದ್ಯಾರ್ಥಿ	-10.1539
▁કોણ	-10.1539
ઇન	-10.1552
യല്ല	-10.1553
▁ಮೊ	-10.1565
▁ಅಧಿಕೃತ	-10.1565
▁પ્રકાર	-10.1565
▁વીમા	-10.1567
▁જેઓ	-10.157
▁വന്ന	-10.1571
▁बनाया	-10.1572
്റെ	-10.1574
અ	-10.1575
दार	-10.1578
▁ಪರಿಗಣಿಸ	-10.1581
▁पहुंच	-10.1583
ಿರಲಿಲ್ಲ	-10.1584
▁તથા	-10.1585
ઓને	-10.1589
▁महान	-10.159
▁નિર્માણ	-10.1591
▁પ્રદર્શન	-10.1594
▁ಆಗಸ್ಟ್	-10.1597
ട്ടെ	-10.1598
▁ಹಣಕಾಸು	-10.1601
▁વ	-10.1603
വുമായ	-10.1604
▁ಸಹಜವಾಗಿ	-10.1605
ंट	-10.1607
▁ബന്ധപ്പെട്ട	-10.161
▁अशी	-10.1615
▁ചർച്ച	-10.1615
▁പാ	-10.1623
▁पार्टी	-10.1624
▁ആഗ്രഹിക്കുന്ന	-10.1625
▁અત્યંત	-10.1627
▁દવાઓ	-10.1627
ಾದ	-10.1629
▁સ્ત્રીઓ	-10.163
▁ಮೋದಿ	-10.1632
st	-10.1634
ಗಳಿಗಿಂತ	-10.1641
ଗ	-10.1644
ઠ	-10.1649
വാ	-10.1649
▁ટી	-10.1654
ीत	-10.1657
സ്റ്റ	-10.1657
▁ಪ್ರಯಾಣ	-10.1659
ുന്നതിനും	-10.1659
▁येत	-10.166
▁ડિ	-10.1662
▁പാർട്ടി	-10.1664
▁मोदी	-10.1665
▁માટેના	-10.1665
കര	-10.1667
▁ಕು	-10.1668
▁પદ્ધતિ	-10.1669
▁അവന്റെ	-10.167
▁നിന്നുള്ള	-10.1679
▁એકાઉન્ટ	-10.168
▁ಇವರು	-10.1683
▁ઘટના	-10.1685
▁കഴിയുന്ന	-10.1685
▁વર્ષના	-10.1686
▁સંસ્થા	-10.1688
താ	-10.1691
▁കുറച്ച്	-10.1695
▁ಏಪ್ರಿಲ್	-10.1696
ଏ	-10.1696
▁तथा	-10.1699
▁पूरे	-10.17
▁दिल	-10.1703
બે	-10.1706
▁ഡാറ്റ	-10.1707
▁കാർ	-10.171
ക്ഷ	-10.1712
▁ಕಪ್ಪು	-10.1712
▁ಅವುಗಳು	-10.1715
▁ವಿಶ್ವವಿದ್ಯಾಲಯ	-10.1719
ൊക്കെ	-10.1725
▁तसेच	-10.1727
▁रहने	-10.1731
મેન્ટ	-10.1734
▁ಹೊರ	-10.1735
ૈ	-10.1736
▁રાખવામાં	-10.1736
▁लगा	-10.1737
ವಾಗಿವೆ	-10.1737
▁ಫ್ರೆಂಚ್	-10.1742
o	-10.1744
▁ii	-10.1744
▁ബാ	-10.1746
▁ହୋଇଥିଲା	-10.1747
एक	-10.1749
▁भेट	-10.175
▁रुपये	-10.175
▁કા	-10.175
▁ರೈಲು	-10.1752
▁ಅಂತಿಮ	-10.1754
▁ವರ್ಷಗಳಿಂದ	-10.1754
▁શરીર	-10.1754
▁मै	-10.1757
▁ಕೊ	-10.176
▁હતાં	-10.1764
▁ન્યૂ	-10.177
▁मानव	-10.1772
न्स	-10.1774
ിൻറെ	-10.1776
▁વધી	-10.1777
ष	-10.1782
▁चल	-10.1783
▁ટીવી	-10.1787
ୟା	-10.1789
▁डी	-10.1792
▁ଆପଣଙ୍କ	-10.1796
▁ಹೆಸರನ್ನು	-10.18
▁ವೈದ್ಯರು	-10.1802
▁नंतर	-10.1803
▁ಸಾ	-10.1806
▁കണ്ടെത്ത	-10.181
▁पांच	-10.1812
▁પ્રશ્ન	-10.1814
▁आने	-10.1815
▁ಪ್ರಯತ್ನ	-10.1815
▁પાસેથી	-10.1822
▁ತಂಡ	-10.1826
▁ಹೊರಗೆ	-10.1828
▁થોડી	-10.1831
▁बोल	-10.1834
ದಿದ್ದರೆ	-10.1837
▁ମ	-10.1837
पणे	-10.1847
▁ಹೀಗಾಗಿ	-10.1849
▁मतलब	-10.1849
▁सार्वजनिक	-10.1849
▁अतिरिक्त	-10.1851
▁परीक्षण	-10.1852
▁શહેર	-10.1854
▁ചിത്രം	-10.1855
ିକ	-10.1863
▁છોડ	-10.1867
ಲರ್	-10.1871
▁सीमा	-10.1876
▁ಏನೂ	-10.1878
▁ಮು	-10.1879
▁ಪ	-10.1879
നാ	-10.188
▁ಪ್ರದೇಶದಲ್ಲಿ	-10.1881
▁પાછળ	-10.1882
▁ಏಕೈಕ	-10.1882
▁नियंत्रण	-10.1884
▁ହୋଇଛି	-10.1886
▁ಅವುಗಳಲ್ಲಿ	-10.1888
രാ	-10.1889
▁നടത്ത	-10.1889
▁इथे	-10.1892
▁વધુમાં	-10.1894
ന്റ	-10.1894
▁ટેસ્ટ	-10.1896
▁ସମସ୍ତ	-10.1896
▁પરિણામો	-10.1898
▁ನೀತಿ	-10.1899
▁मूल	-10.19
▁സെ	-10.1903
▁ମୋତେ	-10.1906
सं	-10.1906
ത്തു	-10.1907
ಗೊಳಿಸ	-10.191
▁ହେଲେ	-10.1913
▁ಲಭ್ಯವಿದೆ	-10.1913
નિ	-10.1913
▁पत्र	-10.1914
▁સંયુક્ત	-10.1914
▁പ്രശ്നം	-10.1914
▁અંતિમ	-10.1916
▁ಅವುಗಳ	-10.1919
▁ಪ್ರತ್ಯೇಕ	-10.192
▁जैसा	-10.192
▁શક્તિ	-10.192
▁ಎಂದರು	-10.1921
ମା	-10.1927
▁പൊതു	-10.1928
▁સભ્યો	-10.1928
ସି	-10.193
▁ಎನ್ನುವುದು	-10.1931
▁खोज	-10.1932
▁ಆಧಾರದ	-10.1932
▁ಮನೆಯ	-10.1932
▁ವೆಚ್ಚ	-10.1933
▁સ્ત્રી	-10.1944
ಯಿ	-10.1945
▁ಪ್ರತಿಕ್ರಿಯೆ	-10.1945
▁પા	-10.1946
ಧ	-10.1946
ಂಡ್	-10.1947
▁ಉದ್ದೇಶ	-10.1948
ೊ	-10.1952
h	-10.1953
એક	-10.1958
▁പലപ്പോഴും	-10.1961
▁खा	-10.1968
▁સામનો	-10.1975
ଜ	-10.1978
▁ଦୁଇ	-10.1978
▁મૂલ્ય	-10.1981
▁ಅಮೆರಿಕ	-10.1984
▁ચૂંટણી	-10.1985
▁करके	-10.1989
▁ಗೊತ್ತಿಲ್ಲ	-10.1989
▁ಇದರಿಂದ	-10.1989
▁અપ	-10.1991
▁ಸಿಸ್ಟಮ್	-10.1992
ेशन	-10.1993
▁आयोजित	-10.2
യി	-10.2001
▁മു	-10.2006
ಿದ್ದೀರಿ	-10.2008
▁ಉಪ	-10.201
▁अध्यक्ष	-10.2011
▁ಸಾಫ್ಟ್ವೇರ್	-10.202
▁തുടർന്ന്	-10.202
▁રાષ્ટ્રપતિ	-10.2022
▁सि	-10.2024
ಿದ್ದಾನೆ	-10.2026
▁ಪಶ್ಚಿಮ	-10.2026
▁ആരും	-10.2026
▁शकतात	-10.2029
▁v	-10.203
▁નિ	-10.2032
▁ഏത്	-10.2032
▁ಬಳಿ	-10.2037
▁ಸಲಹೆ	-10.2038
▁एन	-10.2039
▁उप	-10.204
▁લીધો	-10.2044
▁ફાઇલ	-10.2045
▁ವಿಜ್ಞಾನ	-10.2047
▁ശ്രദ്ധ	-10.2048
▁मन	-10.205
▁ડિગ્રી	-10.2056
मान	-10.2057
▁ಕೊಡ	-10.2061
હા	-10.2065
▁निवेश	-10.2066
▁જેણે	-10.2069
▁ಹೋಗಿ	-10.207
▁नंबर	-10.2071
▁सिस्टम	-10.2071
▁પુસ્તક	-10.2073
ಸ್ನ	-10.2074
▁डि	-10.2077
▁അവനെ	-10.2079
▁સાત	-10.208
ത്തി	-10.2081
▁തല	-10.2083
്യ	-10.2085
સો	-10.2086
▁नेटवर्क	-10.2086
▁आया	-10.2092
તું	-10.2093
▁વિડિઓ	-10.2093
▁ટેક્સ	-10.2094
▁എന്നും	-10.2096
ആ	-10.2097
▁प्रभावित	-10.2097
▁ഏറെ	-10.21
▁जर	-10.2101
▁इंडिया	-10.2103
▁ತಪ್ಪು	-10.2104
▁વર્લ્ડ	-10.2105
▁ಹೊಂದಿಲ್ಲ	-10.2109
કાર	-10.2112
▁വ്യക്തി	-10.2117
▁ಕೂಡಾ	-10.2118
▁ખાનગી	-10.2122
▁જુદા	-10.2123
▁ಅಲ್ಲದೆ	-10.2123
▁કામગીરી	-10.2124
▁वा	-10.2125
▁കുട്ടികൾ	-10.2127
▁ಇಷ್ಟ	-10.213
തിന്	-10.2132
ોના	-10.2136
ांसाठी	-10.2136
▁സാധാരണയായി	-10.2138
▁ದೇಶದಲ್ಲಿ	-10.214
▁બોર્ડ	-10.214
▁to	-10.2142
▁ನವೆಂಬರ್	-10.2142
▁ഫോൺ	-10.2147
हम	-10.215
▁સ્થિત	-10.2152
▁यू	-10.2156
▁ಕೆಲಸವನ್ನು	-10.2158
ವೆಂದರೆ	-10.2162
▁એન	-10.2162
ମାନଙ୍କ	-10.2164
ಡಾ	-10.2165
▁ಮಾಡಿದ್ದಾರೆ	-10.2168
▁जात	-10.2171
▁ઘટાડો	-10.2171
▁ज्या	-10.2171
▁അന്താരാഷ്ട്ര	-10.2172
▁ആവശ്യമാണ്	-10.2172
▁आदमी	-10.2177
ിനും	-10.2177
▁विज्ञान	-10.2178
▁എന്നിരുന്നാലും	-10.2178
▁ಮಾಡುವುದಿಲ್ಲ	-10.2179
▁સિવાય	-10.2184
▁ധാരാളം	-10.2185
ये	-10.2189
▁વિષય	-10.2189
स्त	-10.2192
વર	-10.2193
▁ലോകത്തിലെ	-10.2198
▁ഉണ്ടായിരുന്നു	-10.2201
▁કુદરતી	-10.2203
▁वाट	-10.2204
ಜೆ	-10.2216
▁બો	-10.2216
▁ಜಾ	-10.2219
ीकरण	-10.2219
▁ಚಿಕ್ಕ	-10.222
▁शिक्षण	-10.222
▁सोशल	-10.222
▁वृद्धि	-10.2223
▁तहत	-10.2227
▁दशक	-10.2227
▁ഗ	-10.2239
્ય	-10.224
▁સરકારે	-10.2241
▁കുടുംബ	-10.2241
▁ನೋವು	-10.2243
▁എന്ത്	-10.2244
ോട്	-10.2245
▁कप	-10.2246
ിത	-10.2248
▁ಮಾರ್ಗ	-10.2248
▁ಹಂತ	-10.2248
▁કદ	-10.2253
▁ઓછું	-10.226
▁નાની	-10.2266
ಕ್ಕ	-10.2269
▁ವಾಣಿಜ್ಯ	-10.2271
▁होऊ	-10.2271
▁ଭାରତୀୟ	-10.2276
▁വരും	-10.2279
▁തമ്മിലുള്ള	-10.2279
▁જેના	-10.2285
▁നില	-10.2285
▁રી	-10.2289
▁त्यांचे	-10.229
▁યુનિવર્સિટી	-10.2296
▁ರಾಜ್ಯದ	-10.2298
▁മുറി	-10.23
▁ಸೂಚಿಸುತ್ತದೆ	-10.23
▁വേണ്ട	-10.2301
▁ऊपर	-10.2301
▁ಕೋ	-10.2305
ಲೀ	-10.2305
ಿದ್ದೆ	-10.2307
▁બનવા	-10.231
▁ഇൻ	-10.231
▁करण्याची	-10.2314
▁ಬದಲಾವಣೆ	-10.2316
▁વાર્તા	-10.232
▁નિયમો	-10.232
▁કર્મચારીઓ	-10.232
▁अस	-10.232
▁ಎಲ್ಲವೂ	-10.2325
▁लोकप्रिय	-10.2329
▁हाथ	-10.233
▁ಬಯಸಿದರೆ	-10.233
▁നഗര	-10.2332
आ	-10.2333
ഫ	-10.2334
ುವುದಕ್ಕೆ	-10.2337
▁डे	-10.234
▁ତାହା	-10.2342
▁दिला	-10.2344
ାଇ	-10.2349
ലോ	-10.235
ન્	-10.2352
▁साइट	-10.2355
▁देखने	-10.2356
▁छोड़	-10.2362
▁किती	-10.2363
▁શબ્દો	-10.2364
▁അവസ്ഥ	-10.2365
▁ગીત	-10.2366
▁શરૂઆતમાં	-10.2367
▁ಸಾಧ್ಯ	-10.2368
ല്ലോ	-10.2368
▁ಸುರಕ್ಷಿತ	-10.2371
ൌ	-10.2372
▁ಸಚಿವ	-10.2372
ിരുന്ന	-10.2373
▁સરળતાથી	-10.2374
▁समाज	-10.2377
▁જૂથ	-10.2378
▁छोटे	-10.2379
▁કાર્યક્રમ	-10.2379
▁ಸರಿಯಾಗಿ	-10.238
▁ಸ್ವಾತಂತ್ರ್ಯ	-10.2381
▁દરરોજ	-10.2389
▁ಬ್ರಿಟಿಷ್	-10.2389
ನೆಯ	-10.239
▁માટેની	-10.2393
▁ನಂಬಿಕೆ	-10.2394
▁શોધવા	-10.2401
ગા	-10.2401
▁पुरुष	-10.2402
▁ಓದ	-10.2403
▁ಕಾಯ	-10.2404
▁શાળા	-10.2405
દા	-10.2406
▁જઈ	-10.2413
ാണെന്ന്	-10.2413
ಗು	-10.2414
▁കണ്ടു	-10.2419
വേ	-10.2421
ಷ್ಟು	-10.2422
▁नही	-10.2424
▁ನೇರವಾಗಿ	-10.2425
▁त्याचा	-10.2427
▁ફેરફાર	-10.2428
ಿನ	-10.2429
इ	-10.243
▁ರೂ	-10.2433
▁शीर्ष	-10.2433
▁സമയ	-10.2434
▁ऐसी	-10.244
▁हजार	-10.2445
▁टी	-10.2454
▁നാല്	-10.2455
▁१९	-10.2457
ುತ್ತಾ	-10.2466
जे	-10.2467
▁કિસ્સામાં	-10.247
ത്തിലേക്ക്	-10.2477
▁ಶೇ	-10.2477
▁कहते	-10.2478
ಫಿ	-10.2482
▁ദിവസവും	-10.2483
▁રહેવા	-10.2486
કી	-10.249
▁જાણ	-10.2491
▁ખ	-10.2495
▁ರಷ್ಟು	-10.2497
▁व्यक्तिगत	-10.2498
ୋ	-10.2501
▁കളി	-10.2501
▁ഉപയോഗിക്കുന്ന	-10.2505
▁बैठक	-10.2506
▁दिले	-10.2508
▁ಎಂ	-10.2508
▁നിന്നെ	-10.251
▁वेळी	-10.252
▁માર્ચ	-10.2524
നായ	-10.2527
▁પુરુષો	-10.2529
ಸಂ	-10.2537
▁ભારતના	-10.2538
▁પૈકી	-10.2542
▁जांच	-10.2547
▁ಅದ್ಭುತ	-10.2549
▁കുറഞ്ഞ	-10.2553
▁ದಾಳಿ	-10.2554
▁જાન્યુઆરી	-10.2557
▁ತ	-10.2573
▁इच्छा	-10.2575
▁સ્થળ	-10.2575
ां	-10.2575
▁તફાવત	-10.2577
▁ಕೃಷಿ	-10.258
્સમાં	-10.2586
▁જી	-10.2587
▁ರಾ	-10.2591
▁ಕಂಪನಿಯ	-10.2592
▁बढ़	-10.2596
▁അത്ര	-10.2596
▁करतात	-10.2597
▁ಜೀವ	-10.2597
▁ಪರಿಸ್ಥಿತಿ	-10.2601
▁ગ	-10.2612
▁થવાની	-10.2619
▁ನಗರದ	-10.2623
▁ಹೊಂದಿದ್ದರೆ	-10.2623
ണമെന്ന്	-10.2624
ेस	-10.2625
▁അഞ്ച്	-10.2626
▁परिवर्तन	-10.2626
▁યુએસ	-10.2628
▁दिली	-10.2628
▁ಇಮೇಲ್	-10.2632
▁ब्लॉग	-10.2636
લ્ડ	-10.2637
લિ	-10.2638
▁એર	-10.264
बद्दल	-10.264
▁चरण	-10.2648
▁વારંવાર	-10.2648
▁ಹೋಟೆಲ್	-10.2648
▁પ્રકાશિત	-10.2649
▁मान	-10.2652
▁चांगले	-10.2652
▁ജീവിതത്തിൽ	-10.2652
കളാണ്	-10.2652
▁ചികിത്സ	-10.2653
ಟೋ	-10.2653
▁ಇಂಡಿಯಾ	-10.2655
ॅ	-10.2659
▁ಇನ್ನೊಂದು	-10.2662
▁ಪ್ರಮಾಣದ	-10.2666
റോ	-10.2668
▁କାର୍ଯ୍ୟ	-10.267
ોએ	-10.2671
▁അതേ	-10.2673
▁അടിസ്ഥാന	-10.2674
▁लाख	-10.2678
േണ്ടതുണ്ട്	-10.2678
▁क्षेत्रों	-10.2678
▁શકીએ	-10.268
▁पृथ्वी	-10.2681
દી	-10.2688
इस	-10.2703
):	-10.2703
▁ಸತ್ಯ	-10.2705
▁ಇಬ್ಬರು	-10.271
▁અઠવાડિયા	-10.2711
▁ಸೆ	-10.2716
▁वाढ	-10.272
▁ಪ್ರಸಿದ್ಧ	-10.2721
▁પ્રમાણમાં	-10.2723
▁മെ	-10.2726
▁ନା	-10.2727
നം	-10.2735
▁ಅರ್ಜಿ	-10.2735
ಎಂ	-10.274
▁गंभीर	-10.2741
▁ಲಾ	-10.2742
▁പ്രസിഡന്റ്	-10.2744
▁કુટુંબ	-10.2749
▁ಧರ್ಮ	-10.2749
▁ಪಾವತಿ	-10.275
▁હોઇ	-10.2751
ଟା	-10.2751
▁बा	-10.2753
▁पाच	-10.2753
▁समझ	-10.2754
▁કોડ	-10.2757
▁ಸೋ	-10.2758
▁କରନ୍ତୁ	-10.2759
▁વૃદ્ધિ	-10.276
▁ಮುಕ್ತ	-10.2762
ാവ	-10.2762
▁ઘણું	-10.2766
ेट	-10.2771
▁મહિલાઓ	-10.2771
▁कुटुंब	-10.2772
ಕ್ಷ	-10.2774
▁ಮೂಲಭೂತ	-10.2777
ಟೆ	-10.2778
ുന്നതിൽ	-10.2778
▁ചെയ്തത്	-10.2783
▁ഭക്ഷണം	-10.2785
▁ଲାଗି	-10.2785
▁धर्म	-10.2785
▁എൻ	-10.2787
▁ಜೆ	-10.2787
▁हाल	-10.2788
▁कदाचित	-10.2791
▁ಮಾದರಿ	-10.2792
वाद	-10.2794
▁प्रकाश	-10.2796
▁യഥാർത്ഥ	-10.2797
▁मुंबई	-10.2799
▁२	-10.2799
▁ಏಳು	-10.2799
▁ઓફર	-10.28
▁नुकसान	-10.2802
પ્ર	-10.2803
▁अवधि	-10.2804
▁നടത്തിയ	-10.2806
▁फ	-10.2806
૦	-10.2809
▁मृत्यू	-10.2813
▁स्थित	-10.2814
▁മാറി	-10.2815
▁ಭೂಮಿಯ	-10.2816
▁ಪ್ರಧಾನ	-10.2821
▁ସରକାର	-10.2827
▁ಗುಣಮಟ್ಟದ	-10.2828
▁मर	-10.2828
ಣಿ	-10.283
▁याचा	-10.2834
▁ಎಲ್ಲರೂ	-10.2835
ുന്നതിനായി	-10.2835
▁ആൻഡ്	-10.2836
ರಷ್ಟು	-10.2837
▁अच्छे	-10.2839
▁l	-10.2839
▁असू	-10.2841
▁ಜಾನ್	-10.2841
▁સંબંધો	-10.2843
▁त्यानंतर	-10.2846
യുമായി	-10.2849
▁સ્વ	-10.2849
▁എന്തു	-10.285
▁କାରଣ	-10.2851
िस	-10.2851
▁അപ്പോൾ	-10.2858
▁ರಾಜ	-10.2859
▁ഇന്ത്യയിലെ	-10.2859
▁കുറച്ചു	-10.2862
▁ರವರೆಗೆ	-10.2863
▁ಫೋಟೋ	-10.2864
▁ആയ	-10.2865
▁त्याचे	-10.2865
यू	-10.2866
▁हवा	-10.2866
▁સરેરાશ	-10.2867
▁હેતુ	-10.2867
▁સમાપ્ત	-10.2869
▁അറിയില്ല	-10.2872
વાર	-10.2873
▁રાષ્ટ્ર	-10.2874
ಆರ್	-10.2878
▁પ્રમુખ	-10.288
ટો	-10.2885
▁रह	-10.2885
▁स्वीकार	-10.2887
▁ಎಲ್ಲವನ್ನೂ	-10.2888
▁कहानी	-10.2888
▁निम्नलिखित	-10.2889
▁જૂન	-10.2889
ડિ	-10.2891
▁നൽകിയ	-10.2895
▁ಕ್ರಮ	-10.2899
▁ಘಟನೆ	-10.29
િયન	-10.29
▁गोष्ट	-10.2908
▁സോഷ്യൽ	-10.2909
▁लागत	-10.2912
ଛନ୍ତି	-10.2912
▁પ્રયત્ન	-10.2913
▁ಸಂಬಂಧಿಸಿದಂತೆ	-10.2915
▁ಕೋಟಿ	-10.2915
▁पिता	-10.2917
▁मार	-10.2917
▁ಪದ	-10.2919
▁അവളെ	-10.292
▁પગલું	-10.292
▁किस	-10.2924
▁मु	-10.2932
▁ಬರುವ	-10.2938
▁મર્યાદિત	-10.294
▁પાકિસ્તાન	-10.2943
ಚ	-10.2943
▁ભલામણ	-10.2944
ത്ര	-10.2945
પો	-10.2945
▁ಹೊಂದಿದ್ದಾರೆ	-10.2948
एँ	-10.2949
▁પોતાને	-10.295
▁ಧನ್ಯವಾದಗಳು	-10.2953
▁പഴയ	-10.2953
▁ದಶಲಕ್ಷ	-10.2954
▁ચાલી	-10.2955
ନାହିଁ	-10.2955
▁କରାଯାଇଛି	-10.2957
▁ಅಧಿಕಾರ	-10.296
▁જવાબદારી	-10.2961
▁અત્યાર	-10.2965
▁ಸಲ್ಲಿಸ	-10.2967
▁ଥିଲେ	-10.2968
▁മുൻ	-10.297
झ	-10.2973
೧	-10.2973
▁പ്രകാരം	-10.2974
▁നൽകുന്നു	-10.2975
▁ಅಗತ್ಯವಿರುವ	-10.2976
ಗಿ	-10.2976
▁ತೊಂದರೆ	-10.2977
▁સા	-10.298
ುವಿಕೆ	-10.2987
ಭ	-10.2987
िल	-10.2988
▁સલાહ	-10.2989
▁ನಷ್ಟ	-10.2994
▁ರಚನೆ	-10.2998
મિ	-10.3001
૧	-10.3003
▁ഫോട്ടോ	-10.3011
▁દેશના	-10.3011
▁सात	-10.3014
re	-10.3015
▁आशा	-10.3019
ಮೋ	-10.3019
▁કરવાના	-10.3022
କା	-10.3024
▁ಪಾವತಿಸ	-10.3025
▁તારીખ	-10.3028
▁ಗುಂಪು	-10.3031
▁हि	-10.3031
▁मंत्रालय	-10.3036
▁આવતી	-10.3037
▁ಮಗು	-10.3038
▁नागरिक	-10.3039
▁પહેલી	-10.3042
▁અમુક	-10.3043
ರಾಗಿದ್ದರು	-10.3044
▁ನಿಮಿಷಗಳ	-10.3046
▁चिंता	-10.3053
▁वर्षी	-10.3055
▁ಚಲನಚಿತ್ರ	-10.306
ൊന്നും	-10.3061
▁କଣ	-10.3062
▁આયોજન	-10.3064
▁રાજકીય	-10.3067
सह	-10.3073
▁୨	-10.3074
▁ଲୋକ	-10.3079
શા	-10.308
▁ಸಾಂಪ್ರದಾಯಿಕ	-10.3081
▁ಉದ್ಯಮ	-10.3083
ೊಳಗೆ	-10.3083
▁സ്വകാര്യ	-10.3084
▁હાઇ	-10.3085
▁ജന	-10.3085
▁सुरुवात	-10.3096
▁ഒരുപാട്	-10.3098
▁ವರೆಗೆ	-10.3099
▁विमान	-10.3102
▁माहित	-10.3105
ंस	-10.3107
ത്തിൻറെ	-10.3108
▁અગાઉ	-10.311
▁વિશિષ્ટ	-10.3116
▁संपूर्ण	-10.3117
ಟನ್	-10.3119
▁ର	-10.3122
▁પ્રમાણે	-10.3126
ଆ	-10.3127
▁ದೇವರ	-10.313
▁करोड़	-10.3132
્સને	-10.3132
▁ರಸ್ತೆ	-10.3134
ટર	-10.3134
▁प्रसिद्ध	-10.3137
▁ખુશ	-10.3139
ುತ್ತಿವೆ	-10.3139
લ્સ	-10.3141
▁ಬದುಕ	-10.3141
▁ಅಮೆರಿಕದ	-10.3141
▁મુસાફરી	-10.3145
▁એપ્રિલ	-10.3147
▁ઓળખવામાં	-10.3149
▁ತರ	-10.3155
മേ	-10.316
▁ઉપકરણ	-10.316
▁പ്രശ്നങ്ങൾ	-10.316
▁પહોંચી	-10.3161
▁ಅಪಾಯ	-10.3163
▁सामने	-10.3165
ील	-10.3167
ic	-10.3167
▁वजन	-10.3167
▁ख	-10.3169
▁ಇರಬಹುದು	-10.3169
▁ತುಂಬ	-10.3173
▁अभ्यास	-10.3173
▁ಡೆ	-10.3175
▁નીતિ	-10.3177
▁लेकर	-10.3182
▁ಕಾಣ	-10.3185
મેન	-10.3186
▁ರೂಪ	-10.3186
▁ಅತಿದೊಡ್ಡ	-10.3188
ಬೇಕಾಗಿದೆ	-10.3189
▁સપ્ટેમ્બર	-10.3191
▁തുടങ്ങിയ	-10.3197
▁ಮಗುವಿನ	-10.3198
▁વૈશ્વિક	-10.32
▁હંમેશાં	-10.32
▁कृपया	-10.32
▁રે	-10.3204
▁മരണ	-10.3205
▁पे	-10.3206
▁ઉંમર	-10.3208
▁ಯೋಚಿಸ	-10.3208
▁ಸಭೆ	-10.3209
വുമായി	-10.3209
▁આવતા	-10.3211
▁ಅವನಿಗೆ	-10.3213
▁पहचान	-10.3217
▁ಹಾನಿ	-10.3217
ക്കുള്ള	-10.3218
▁સમાચાર	-10.3219
▁સોશિયલ	-10.3219
▁सेना	-10.322
સન	-10.3221
୦	-10.3225
▁लक्ष्य	-10.3227
▁ಆಡಳಿತ	-10.3229
▁വരുന്ന	-10.3231
▁എൻറെ	-10.3235
ುತ್ತಿದ್ದೇನೆ	-10.3236
▁ಆಟದ	-10.3239
നീ	-10.3244
▁ಗೂಗಲ್	-10.3246
▁യുഎസ്	-10.3251
▁ಲಾಭ	-10.3251
▁टक्के	-10.3251
▁लंबे	-10.3251
▁ગણવામાં	-10.3251
▁ಸಾಮರ್ಥ್ಯವನ್ನು	-10.3253
▁ಸಂಯುಕ್ತ	-10.3255
▁पासून	-10.3262
▁तौर	-10.3265
▁आपले	-10.3265
▁થવા	-10.3267
ലാ	-10.3268
▁હોમ	-10.3268
▁कंप्यूटर	-10.3269
▁रखा	-10.3273
▁ಸಾಧನ	-10.3275
▁ડિસેમ્બર	-10.3275
▁ಡೇಟಾವನ್ನು	-10.328
▁ನಿಜ	-10.3282
हा	-10.3283
▁प्रबंधन	-10.3283
▁ಅಭ್ಯಾಸ	-10.3287
മു	-10.3287
▁ವಿಷಯಗಳನ್ನು	-10.3288
▁ഇരു	-10.3288
▁ബിസിനസ്	-10.3291
േക്കാം	-10.3292
▁पर्याप्त	-10.3293
▁કિસ્સાઓમાં	-10.3294
▁तिने	-10.3295
▁ઊર્જા	-10.3295
▁ನಂತರದ	-10.3298
▁ಕೊಡುಗೆ	-10.3301
▁ಮಾರ್ಕೆಟಿಂಗ್	-10.3305
▁मध्य	-10.3306
▁ലോകം	-10.3306
▁त्याची	-10.331
ങ്ങളാണ്	-10.331
▁બને	-10.3318
▁೧	-10.3319
▁ଜୀବନ	-10.3322
▁દેશો	-10.3324
യ്ക്ക	-10.3325
▁ನೀ	-10.3328
ेड	-10.333
▁एंड	-10.3334
▁പ്രക്രിയ	-10.3334
▁ಎಂದರೆ	-10.3334
ଥିବା	-10.3334
▁संस्करण	-10.3338
▁तेल	-10.3338
▁सह	-10.3339
▁ज्ञान	-10.3339
▁સ્થાપિત	-10.3342
▁ನ್ಯೂ	-10.3343
▁എനിക്കു	-10.3345
णी	-10.3347
▁ટૂંકા	-10.335
ಲ್ಲೂ	-10.3352
▁ಬೇ	-10.3354
▁ಹಿರಿಯ	-10.3356
▁നൽകി	-10.3357
as	-10.3359
▁ഇന്ത്യയുടെ	-10.3359
▁സ്ഥിതി	-10.336
▁મોબાઇલ	-10.3366
ಲೊ	-10.3366
▁ಸಾರಿಗೆ	-10.3367
▁त्यांची	-10.3368
▁વાર્ષિક	-10.3368
▁વ્યાપક	-10.3368
उ	-10.3369
▁વાતચીત	-10.3371
▁ಹೇಳಿದೆ	-10.3371
▁എണ്ണം	-10.3375
▁ആദ്യമായി	-10.3379
▁മണിക്കൂർ	-10.3386
▁ಸಮಸ್ಯೆಗಳನ್ನು	-10.3388
▁ഉപയോഗിക്കാൻ	-10.3388
ಂಡ	-10.3392
▁ತೋರಿಸ	-10.3394
▁ടി	-10.3398
ನರ್	-10.3398
te	-10.3404
▁മിക്ക	-10.3404
ೊಂದು	-10.3405
▁ಖರೀದಿ	-10.341
▁વે	-10.3411
▁फेसबुक	-10.3411
ઉ	-10.3415
_	-10.342
▁गैर	-10.342
▁न्यू	-10.3422
र्ट	-10.3426
▁નેશનલ	-10.3427
▁ಚುನಾವಣೆ	-10.3432
▁ಎಲ್	-10.3432
શન	-10.3436
▁ವೇಗವಾಗಿ	-10.3439
पर	-10.3445
▁ಪ್ರದೇಶದ	-10.3446
▁ಒತ್ತಡ	-10.3448
▁પ્રવાસ	-10.345
▁દેશોમાં	-10.3454
▁ಫೇಸ್ಬುಕ್	-10.3455
કલ	-10.3459
ଡ	-10.3466
▁राजा	-10.3468
▁તમારો	-10.3468
ೈ	-10.347
र्	-10.3474
▁સૂચિ	-10.3476
ന്നു	-10.3478
▁मो	-10.348
▁સં	-10.3481
ാനാണ്	-10.3486
▁संभावना	-10.3487
▁ಸೇವೆಗಳನ್ನು	-10.349
▁ઘરમાં	-10.3491
କି	-10.3492
▁ವೈರಸ್	-10.3493
▁સભ્ય	-10.3493
▁ಮನೆಗೆ	-10.3495
▁લોકોએ	-10.3497
ಕು	-10.3498
▁पाणी	-10.3498
▁करो	-10.3498
▁ಪ್ರದೇಶ	-10.3501
ുമോ	-10.3502
▁अक्टूबर	-10.3508
गे	-10.3508
▁ആഗ്രഹിക്കുന്നു	-10.3512
▁ನಿರ್ಧರಿಸ	-10.3513
▁अरब	-10.3518
▁जल	-10.3518
▁തീ	-10.3521
▁ಸಾಧ್ಯವಾಗುತ್ತದೆ	-10.3527
यर	-10.3527
▁मांग	-10.3529
▁कानून	-10.3529
െന്ന	-10.3531
▁खो	-10.3532
▁ધર્મ	-10.3536
▁കുട്ടി	-10.3542
▁ಅಧಿಕ	-10.3542
▁બન્ને	-10.3542
▁ಒಳ್ಳೆಯದು	-10.3548
▁ഉദാഹരണത്തിന്	-10.3549
▁ಪ್ರೋಗ್ರಾಂ	-10.3554
▁ಕೆಟ್ಟ	-10.3555
▁ಡೌನ್ಲೋಡ್	-10.3556
१	-10.3557
▁ആർ	-10.3563
▁तरीका	-10.3563
▁ಮಾಡಲಾಗುತ್ತದೆ	-10.3564
ಿದ್ದರೂ	-10.3568
▁re	-10.3569
▁નવું	-10.3573
▁ಸ್ಟೇಟ್ಸ್	-10.3575
▁ಗುರುತಿಸ	-10.3575
▁મુક્ત	-10.3575
▁ಪ್ರದೇಶಗಳಲ್ಲಿ	-10.3576
ണി	-10.3577
▁मिला	-10.3584
▁હૃદય	-10.3597
▁મિત્ર	-10.3598
तात	-10.3599
ಡೋ	-10.3605
ક્ષ	-10.3605
▁സംബന്ധിച്ച	-10.3607
▁ತಿಳಿದಿದೆ	-10.3608
ങ്ങളിലും	-10.361
െങ്കിൽ	-10.3611
▁വേദന	-10.3612
▁સંસ્કૃતિ	-10.3612
▁ആഴ്ച	-10.362
▁ബന്ധ	-10.3623
▁ತಿಳಿಸಿದ್ದಾರೆ	-10.3626
ര്	-10.3627
પા	-10.3629
▁ચુકવણી	-10.3631
▁श्रृंखला	-10.3633
▁જવાબદાર	-10.3633
▁પીડા	-10.3636
▁ಮದುವೆ	-10.3639
▁കുറഞ്ഞത്	-10.364
▁पहिल्या	-10.3641
ષ	-10.3645
▁വർഷ	-10.3651
ನಿಗೆ	-10.3653
મ્પ	-10.3656
▁मा	-10.3659
▁सामना	-10.366
▁ಮ್ಯಾಕ್	-10.3661
▁ಅದರಲ್ಲಿ	-10.3661
▁ಸ್ಥಳದಲ್ಲಿ	-10.3663
▁ಹೊಂದ	-10.3668
ಸ್ಟರ್	-10.3669
▁बनाए	-10.3671
▁બન્યા	-10.3677
▁ಒಳಗೆ	-10.3678
▁प्रतिक्रिया	-10.3681
ण्याचा	-10.3682
▁ಪಾ	-10.3683
ങ്ക	-10.3683
आर	-10.3684
▁देना	-10.3688
▁પ્રશ્નો	-10.369
▁ଆପଣଙ୍କୁ	-10.369
ಶಿ	-10.369
▁ವಿಧಾನ	-10.3691
▁દિવસો	-10.3692
▁કારણો	-10.3693
▁ವಿಚಾರ	-10.3694
▁ಲೈಂಗಿಕ	-10.37
▁ખેલાડીઓ	-10.3706
ातून	-10.3706
▁ತಿಳಿಯ	-10.3707
ଟ୍	-10.3711
▁आधारित	-10.3711
▁सूचना	-10.3713
▁ಹೈ	-10.3715
▁ജി	-10.3719
ર્ટ	-10.3724
▁समाप्त	-10.3724
▁ಕಲೆ	-10.3726
▁વાસ્તવમાં	-10.3729
കൾക്ക്	-10.3731
▁ಆಗಿತ್ತು	-10.3743
▁ಎದುರಿಸ	-10.3748
▁यही	-10.3752
മാണിത്	-10.3753
▁ಸಮುದಾಯ	-10.3754
▁प्रयास	-10.3757
▁मॉडल	-10.3761
▁ಎಲ್ಲಿ	-10.3764
▁શરતો	-10.3765
▁മറുപടി	-10.3765
▁ಮಟ್ಟದ	-10.3768
ುತ್ತಿದ್ದರೆ	-10.377
▁लहान	-10.3772
ರಿಯಾ	-10.3772
▁પગ	-10.3776
मुळे	-10.3778
▁ನಂಬ	-10.3783
▁भीतर	-10.3791
▁ದೇಶಗಳಲ್ಲಿ	-10.3795
ેલા	-10.3796
▁ನೀಡಿದ	-10.3797
▁ವಸ್ತು	-10.3798
▁ಡೇಟಾ	-10.3799
▁सहायता	-10.38
▁com	-10.3805
▁ઓળખ	-10.3805
▁लॉन्च	-10.3806
ಟೊ	-10.3806
▁रे	-10.3807
ುತ್ತಿದ್ದ	-10.3808
▁ઉપયોગી	-10.3808
▁ಉತ್ಪನ್ನಗಳು	-10.381
▁ಸ್ವತಃ	-10.3812
▁પતિ	-10.3813
▁ಭಾವಿಸ	-10.3815
▁പ്രതീക്ഷിക്ക	-10.3818
▁વિદ્યાર્થી	-10.3819
▁પરંપરાગત	-10.3819
▁ಕಠಿಣ	-10.382
ाव	-10.3822
▁തര	-10.3827
▁जीत	-10.3831
▁समाधान	-10.3834
▁આપણી	-10.3834
ಗೊಳಿಸಲು	-10.3836
▁आरोग्य	-10.3837
ತ್ತು	-10.3839
▁കോടതി	-10.3839
▁ಎಂದೂ	-10.3841
पर्यंत	-10.3843
▁सहित	-10.3844
▁രീതി	-10.3844
▁દાવો	-10.3847
▁ઓનલાઇન	-10.3855
▁ಬರುತ್ತದೆ	-10.3856
▁મોટું	-10.3859
▁નવેમ્બર	-10.3866
▁वित्तीय	-10.3867
▁ಲಿ	-10.387
▁નજર	-10.387
ೋಣ	-10.3873
▁દીધી	-10.3877
▁ಬಂದಿದೆ	-10.3885
▁બદલ	-10.3886
▁അതെ	-10.3891
▁શકું	-10.3891
▁ડૉક્ટર	-10.3892
▁વિદેશી	-10.3894
▁રૂમ	-10.3896
മാക്ക	-10.3898
▁રમતો	-10.3898
ಪ್ರ	-10.3902
▁આભાર	-10.3902
▁जातो	-10.3903
ക്കോ	-10.3906
▁आवेदन	-10.3908
પર	-10.3909
ാണു	-10.3911
ಹಿ	-10.3912
▁कॉलेज	-10.3916
▁घरी	-10.3916
▁ଦ	-10.3918
▁അതിന്	-10.3919
▁ನಾಯಕ	-10.392
पेक्षा	-10.3922
▁રાખી	-10.3925
▁ದಿನಾಂಕ	-10.3925
▁અલબત્ત	-10.3933
▁आधुनिक	-10.3934
▁u	-10.3934
▁બાબત	-10.394
▁ಆವೃತ್ತಿ	-10.394
▁ಮಹಿಳೆಯರ	-10.3942
▁ವಾಹನ	-10.3942
▁उद्देश्य	-10.3944
▁youtube	-10.3945
▁ನಾಗರಿಕ	-10.3946
▁લાખ	-10.3947
▁ಏರ್	-10.3947
▁೧೯	-10.3948
▁प्रवास	-10.3948
▁भारतात	-10.3949
स्	-10.3951
ലും	-10.3951
▁ಮಕ್ಕಳಿಗೆ	-10.3951
▁കാര്യ	-10.3953
▁പ്രവർത്തന	-10.3954
▁दिए	-10.3955
▁आदेश	-10.3957
▁ചൈന	-10.3959
▁ನಿರ್ವಹಣೆ	-10.3962
▁ಸ್ವತಂತ್ರ	-10.3966
▁ಒಪ್ಪಂದ	-10.3969
▁ವಿಡಿಯೋ	-10.3969
▁સ્ક્રીન	-10.3974
▁ಹೇಳುತ್ತಾರೆ	-10.3974
તમે	-10.3975
▁अक्सर	-10.3979
ಡರ್	-10.3981
▁ಕ್ರಿಕೆಟ್	-10.3983
▁एस	-10.3985
▁पाया	-10.3986
ણા	-10.399
▁રક્ષણ	-10.3993
▁ಸೇರಿಸ	-10.3997
▁എല്ലാവർക്കും	-10.3999
▁दरम्यान	-10.3999
▁ഓൺലൈൻ	-10.4
▁કંઈ	-10.4001
▁નીચેના	-10.4002
▁ಹಂತದಲ್ಲಿ	-10.4005
क्ष	-10.4008
▁कीमत	-10.402
▁ഇത്തരം	-10.402
आई	-10.4022
▁വെള്ളം	-10.4024
▁ഉപയോഗിക്കുന്നു	-10.4024
▁ઉદ્યોગ	-10.4026
▁મહત્વનું	-10.4026
▁ಸೀ	-10.4035
▁സാധ്യത	-10.4038
▁આપશે	-10.4038
▁ಮಗ	-10.404
▁ନି	-10.4044
▁जाएगी	-10.405
▁રો	-10.4051
▁શક્યતા	-10.4053
लि	-10.4055
તુ	-10.4058
ಲಿದ್ದಾರೆ	-10.4062
▁କେବେ	-10.4062
▁केंद्रीय	-10.4068
▁रखें	-10.4069
▁പ്രധാനപ്പെട്ട	-10.4069
त्या	-10.407
▁ಕೊನೆಯಲ್ಲಿ	-10.4073
▁ವೇಳೆಗೆ	-10.4074
▁खुश	-10.4074
ಣೆ	-10.4079
▁अधिकारी	-10.4083
ियां	-10.4084
્યુ	-10.4084
▁പോലുള്ള	-10.4086
▁દે	-10.4086
▁कॉल	-10.4093
▁നാലു	-10.4095
ഥ	-10.4095
▁ଅଟେ	-10.4095
▁छात्रों	-10.4097
ിലൂടെ	-10.4097
▁મળ્યું	-10.4099
▁प्रभावी	-10.4101
▁થોડો	-10.4108
▁ઉપકરણો	-10.411
▁પ્રો	-10.411
▁ಶಾಂತಿ	-10.4112
ನಲ್ಲಿರುವ	-10.4114
▁ऑस्ट्रेलिया	-10.4116
▁चित्र	-10.412
▁ವೇಗ	-10.4121
્સની	-10.4122
▁ताकि	-10.4129
▁ಸುಂದರ	-10.413
▁ನೇರ	-10.4139
▁ಅಂತ	-10.4142
▁ಗ್ರಾಹಕ	-10.4143
▁ಇಲ್ಲದೆ	-10.4145
ୀୟ	-10.4146
▁चुनाव	-10.4146
ುವಾಗ	-10.4148
▁ଇ	-10.4148
▁जिसके	-10.415
▁ઇન્	-10.4155
▁पद	-10.4156
▁આઇ	-10.4156
▁ઘણો	-10.4158
नो	-10.4161
▁ഇതാണ്	-10.4164
▁સંસ્થાઓ	-10.4165
▁ପର୍ଯ୍ୟନ୍ତ	-10.4166
▁कै	-10.4167
▁आणखी	-10.4168
▁ಹಾಗು	-10.417
▁രോഗ	-10.4178
▁ದಶಕದ	-10.418
मे	-10.4181
▁ಸೂಕ್ತ	-10.4185
▁രാജ്യ	-10.4189
ेन	-10.4191
ण्यात	-10.4191
▁डिजिटल	-10.4194
▁ನೀಡಿದರು	-10.4198
▁થયેલ	-10.4199
ುವುದರ	-10.4202
▁सुविधा	-10.4202
▁ಸ್ವೀಕರಿಸ	-10.4203
സിൽ	-10.4204
▁દેખાય	-10.4204
▁जिससे	-10.4207
▁भोजन	-10.4208
ലാണ്	-10.4209
▁ಕ್ಷೇತ್ರ	-10.4209
▁વપરાશકર્તા	-10.421
▁મારે	-10.421
▁അതിനു	-10.4211
▁ಹವಾಮಾನ	-10.4223
▁അതുകൊണ്ട്	-10.4223
▁मोबाइल	-10.4227
નુ	-10.4234
▁ചോദ്യം	-10.4236
ीन	-10.4239
▁റ	-10.4243
▁जगातील	-10.4243
▁સંચાલન	-10.4246
एम	-10.4246
▁wi	-10.4247
▁शक्य	-10.4253
▁ആവശ്യമില്ല	-10.4254
▁ರಕ್ಷಣೆ	-10.4257
ंचा	-10.4258
▁ହିଁ	-10.4258
▁लेखक	-10.4258
▁भ	-10.4262
▁વધારવા	-10.4268
▁ચાલો	-10.4271
▁शो	-10.4271
ଭ	-10.4288
▁ಉದಾಹರಣೆ	-10.4288
ર્ડ	-10.429
▁ಇಲಾಖೆ	-10.4292
▁ರೋ	-10.4293
▁अर्थात	-10.4294
▁ಅಲ್	-10.4295
ಷ್	-10.4296
▁ಕೆಲವರು	-10.4298
▁દેખાવ	-10.4299
રણ	-10.43
▁કહેવાય	-10.43
▁अधिकांश	-10.43
▁നിന്നു	-10.43
▁संगठन	-10.4303
▁ନୂଆ	-10.4303
આર	-10.4305
ಲಾಗುವುದಿಲ್ಲ	-10.4308
▁ഭാര്യ	-10.431
ക്കി	-10.431
us	-10.4312
▁रूस	-10.4314
▁ಸಂಖ್ಯೆಯ	-10.4321
▁ઓગસ્ટ	-10.4322
▁દ	-10.4325
ಷ್ಟ	-10.4325
ta	-10.4328
▁पर्यावरण	-10.433
▁ખરીદવા	-10.4331
▁સે	-10.4332
▁ಸಹಿ	-10.4333
▁തോന്നുന്നു	-10.4333
ಎನ್	-10.4334
▁ડાઉનલોડ	-10.4337
▁वाटते	-10.4338
▁दोस्त	-10.4339
▁କିମ୍ବା	-10.4339
▁મેચ	-10.4341
j	-10.4341
▁ତା	-10.4342
તિ	-10.4344
▁ಗಂಟೆ	-10.4344
▁यूरोपीय	-10.4349
▁ಇನ್ನಷ್ಟು	-10.4351
ಳೆ	-10.4351
▁ಒದಗಿಸ	-10.4354
टे	-10.4356
▁વય	-10.4357
ಅಥವಾ	-10.4359
▁विशिष्ट	-10.4361
▁माँ	-10.4364
▁તેવી	-10.4365
▁ಆತನ	-10.4367
▁विविध	-10.4368
▁टेस्ट	-10.437
▁नव्हते	-10.4374
▁ତୁମେ	-10.4375
▁രാജ്യത്തെ	-10.4375
ಮು	-10.4375
▁ಸ್ವಯಂ	-10.4375
▁റി	-10.438
▁ಜೀವನವನ್ನು	-10.4384
▁ಹೇಳಿಕೆ	-10.4386
▁വിദ്യാഭ്യാസ	-10.4386
▁સાધન	-10.4389
▁उपकरण	-10.439
▁ಬಯಸ	-10.4393
ाय	-10.4393
▁મોડેલ	-10.4396
▁ಭದ್ರತಾ	-10.4397
ത്തോടെ	-10.4397
▁ಆದಾಯ	-10.4398
▁सांगितले	-10.4399
▁सध्या	-10.4404
▁વસ્તી	-10.4406
णा	-10.4407
▁कला	-10.4408
▁ഭക്ഷണ	-10.4413
▁छ	-10.4414
▁શકશે	-10.4414
ರಾದ	-10.4416
▁केलं	-10.4416
▁ಸರ್	-10.4416
▁ಶ	-10.4417
▁ઓક્ટોબર	-10.4419
पूर्ण	-10.4419
▁मैच	-10.442
▁ಪೈಕಿ	-10.4421
▁ପା	-10.4423
ಗಳಂತಹ	-10.4423
▁ಸಮಯದ	-10.4424
▁ವಿದೇಶಿ	-10.4425
ಸರ್	-10.4426
▁दर्ज	-10.4426
▁वेब	-10.4427
▁ವೈ	-10.4435
▁બાળકોને	-10.4436
▁ಖರೀದಿಸ	-10.4441
▁ಬದಲಾಯಿಸ	-10.4444
▁വെബ്	-10.4445
▁പ്രധാനമാണ്	-10.4449
▁ಕರೆಯಲ್ಪಡುವ	-10.445
▁ટેકનોલોજી	-10.4453
िट	-10.4458
▁स्व	-10.4458
▁ದಿನದ	-10.4459
▁शक्ति	-10.446
▁ಗೋ	-10.4464
್ಯ	-10.4464
et	-10.4465
ಮರ್	-10.4466
ରି	-10.4468
▁ଥିବା	-10.4469
▁ಕಿ	-10.4469
▁ಅವನನ್ನು	-10.4472
▁गु	-10.4474
▁लि	-10.4478
▁ഒപ്പം	-10.4478
▁दूसरी	-10.4479
it	-10.4482
▁अप	-10.4483
ಚಿ	-10.4484
▁പോയ	-10.4486
▁कह	-10.4488
ांत	-10.4491
▁इतना	-10.4492
▁ପ୍ରଧାନମନ୍ତ୍ରୀ	-10.4494
▁തിരിച്ചു	-10.4496
le	-10.4496
व्ह	-10.4497
▁ಅಪರಾಧ	-10.45
▁નહિ	-10.4502
▁ഉത്തരം	-10.4506
▁ಕಾಲೇಜು	-10.4509
ുകയോ	-10.4511
▁सितंबर	-10.4512
▁ഇതിന്	-10.4512
▁પાલન	-10.4521
ପି	-10.4521
▁പരി	-10.4522
▁ಸದಸ್ಯರು	-10.4523
▁ജ	-10.4525
▁മാസ	-10.4526
▁कदम	-10.4528
▁દો	-10.453
▁മേഖല	-10.4531
▁લીધી	-10.4533
▁અબજ	-10.4538
▁ಎಂದ	-10.4541
▁ಕೆಂಪು	-10.4552
▁जिसका	-10.4552
▁કાર્યો	-10.4553
▁આઠ	-10.4554
▁ಹಾಗಾಗಿ	-10.4554
▁ಒದಗಿಸುವ	-10.4556
▁ಪ್ರಯೋಗ	-10.4557
▁દિલ્હી	-10.4559
मो	-10.4562
▁ಪರಿಣಾಮವಾಗಿ	-10.4564
▁અપેક્ષા	-10.4564
▁ಹಾ	-10.4566
▁യൂറോപ്യൻ	-10.4567
લેન્ડ	-10.4571
ುವಲ್ಲಿ	-10.4571
ുകള	-10.4571
ാറുണ്ട്	-10.4572
▁ಲಕ್ಷ	-10.4577
ಿಸಲು	-10.4578
▁વ્યક્તિને	-10.4581
▁ಹತ್ತು	-10.4582
ିଅ	-10.4583
▁वेळा	-10.4585
▁डर	-10.4587
ମାନଙ୍କୁ	-10.4587
▁ಖಾತೆ	-10.4591
▁नेहमी	-10.4594
▁ಪುರುಷರು	-10.4595
▁ഡോളർ	-10.4599
▁કુશળતા	-10.4603
▁काळजी	-10.4606
▁एम	-10.4608
▁ભારે	-10.4609
▁મધ્ય	-10.461
▁വാങ്ങ	-10.4611
▁તેનાથી	-10.4618
▁रोग	-10.4619
▁ಇರಬೇಕು	-10.462
▁ತಾಂತ್ರಿಕ	-10.4621
▁ಬರೆದ	-10.4623
▁ଯଦି	-10.4625
▁ಗ	-10.4626
▁દિવસમાં	-10.4627
ंची	-10.4628
▁ಎಲ್ಲರಿಗೂ	-10.4628
▁आंतरराष्ट्रीय	-10.4629
▁സ്വ	-10.4631
▁o	-10.4633
▁પાર્ટી	-10.4635
ଖ	-10.4639
▁ಪ್ರಯತ್ನಿಸ	-10.4639
▁સર્વિસ	-10.464
▁એકમાત્ર	-10.4643
▁અવાજ	-10.4644
▁गा	-10.4645
અને	-10.4646
▁ಫೆಬ್ರವರಿ	-10.4646
▁ജനുവരി	-10.4648
ഞ്ഞ	-10.4649
▁वहां	-10.4656
▁सारे	-10.4658
▁ಅಂತಾರಾಷ್ಟ್ರೀಯ	-10.4658
ಗಳೂ	-10.4659
२	-10.4659
▁હોવાનું	-10.4662
ामध्ये	-10.4662
▁ಕನಸು	-10.4669
ಟು	-10.4671
▁पालन	-10.4672
▁પરીક્ષા	-10.4672
▁ശക്തി	-10.4674
li	-10.4678
▁હોત	-10.4679
▁संरक्षण	-10.4682
▁പേര	-10.4683
▁रक्षा	-10.4684
▁ವ್ಯವಸ್ಥೆಯನ್ನು	-10.4684
▁ತಿಳಿದಿಲ್ಲ	-10.4687
▁પ્રારંભ	-10.4688
▁असलेल्या	-10.4689
▁वहाँ	-10.469
▁ಭಯ	-10.4694
▁ರಕ್ತ	-10.4694
▁આંતરિક	-10.4695
▁कु	-10.4695
▁ଦେଶ	-10.4697
ಯಾಗ	-10.47
▁मशीन	-10.47
ിരുന്നത്	-10.4704
▁પરિવર્તન	-10.4704
▁कल	-10.4706
▁બિલ	-10.4707
▁जिस	-10.4709
▁સ્કૂલ	-10.4711
ೀಕರಣ	-10.4716
▁प्रशिक्षण	-10.4718
▁ಯುವ	-10.472
▁नेतृत्व	-10.4722
▁નિયમિત	-10.4725
▁ಸಾಧ್ಯತೆ	-10.4725
आय	-10.473
▁જાતને	-10.4732
▁പ്രശ്ന	-10.4736
▁संभव	-10.4738
ତି	-10.474
ാര	-10.4741
▁ಹಾಗೆಯೇ	-10.4749
▁ಎಂಟು	-10.475
▁ಪೊಲೀಸ್	-10.4751
▁പിന്തുണ	-10.4754
▁ಮಾಜಿ	-10.4755
▁પરિસ્થિતિ	-10.4756
z	-10.4759
ണ്ട്	-10.4759
▁സു	-10.476
ઓમાં	-10.4767
▁देखें	-10.4768
ઝા	-10.4771
▁ಪಾಕಿಸ್ತಾನ	-10.4773
▁पुढे	-10.4776
ૅ	-10.478
▁କରିଛି	-10.4782
ುತ್ತಿದ್ದೇವೆ	-10.4783
▁കോടി	-10.4784
▁ભલે	-10.4785
▁જેની	-10.4788
▁ಇತ್ತೀಚೆಗೆ	-10.479
▁આવરી	-10.4791
▁सवाल	-10.4792
मेंट	-10.4792
ನನ್ನ	-10.4794
ગો	-10.4796
▁માને	-10.4798
▁വിജയ	-10.4799
▁એલ	-10.48
ാണോ	-10.4803
▁അറിയാം	-10.4804
▁രണ്ടാമത്തെ	-10.4805
▁നൽകുന്ന	-10.4805
ುವುದರಿಂದ	-10.4805
स्थ	-10.4805
▁ಆಂತರಿಕ	-10.4809
▁पीछे	-10.4811
▁ಕ್ಲಿಕ್	-10.4811
▁पैसा	-10.4811
▁ક્ષેત્રમાં	-10.4816
▁ಅಮೇರಿಕನ್	-10.4817
સર	-10.4821
ra	-10.4823
▁ಗ್ರಾಹಕರು	-10.4824
ांवर	-10.4827
▁पार	-10.4828
▁रक्त	-10.4829
▁ગો	-10.483
सन	-10.4833
▁വെ	-10.4837
▁उत्पादों	-10.4839
▁માંગતા	-10.484
त्र	-10.4841
▁ಆಸ್ತಿ	-10.4844
▁ಇರಲಿಲ್ಲ	-10.4847
▁खरेदी	-10.4849
▁સરકારી	-10.4852
രെ	-10.4852
▁നിയമം	-10.4852
ಮೊ	-10.4854
▁ತಲೆ	-10.4855
▁सर्वश्रेष्ठ	-10.4856
▁વર્ષોમાં	-10.4857
▁ಅದಕ್ಕೆ	-10.4858
ટે	-10.4862
ട്ടി	-10.4865
▁વ્યક્તિઓ	-10.4867
▁ಪ್ರಮಾಣದಲ್ಲಿ	-10.4868
▁ಗು	-10.487
▁ಮರ	-10.4871
ವಾಗಿರುವ	-10.4873
ದಲ್ಲಿರುವ	-10.4873
▁ಚರ್ಚೆ	-10.4878
ತನ	-10.4881
മാര	-10.4883
▁વપરાશકર્તાઓ	-10.4884
▁ബാങ്ക്	-10.4887
▁ವರ್ಷದಲ್ಲಿ	-10.4888
▁ହେବା	-10.4888
्यु	-10.4891
▁പോ	-10.4892
▁ಸುತ್ತ	-10.4893
▁लिखा	-10.4895
▁ಅಂಶ	-10.4896
▁ಬಳಕೆದಾರರು	-10.4896
▁q	-10.4896
▁ദൈവ	-10.4897
ನಲ್ಲಿನ	-10.49
ક્સેસ	-10.4902
ങ്ങൾക്ക്	-10.4906
▁मामलों	-10.4908
ാവുന്ന	-10.491
es	-10.4913
▁कार्यालय	-10.4915
▁આપ્યું	-10.4915
યર	-10.4916
▁ಗ್ರಾಹಕರ	-10.4916
▁ಕ್ಲಬ್	-10.4916
▁વિશ્વના	-10.4919
ાવ	-10.492
el	-10.4925
▁ಕಚೇರಿ	-10.4925
▁പോസ്റ്റ്	-10.4926
एल	-10.4926
▁केंद्रित	-10.4927
▁त्यांचा	-10.4927
▁घेतला	-10.4928
▁ശരിക്കും	-10.4929
▁નોંધ	-10.493
ഈ	-10.493
▁जागतिक	-10.4933
ંટ	-10.4934
സാ	-10.4934
घ	-10.4935
डा	-10.4939
▁ବର୍ତ୍ତମାନ	-10.4939
▁करणार	-10.4941
▁આદેશ	-10.4942
▁नये	-10.4944
ഭ	-10.4945
▁സംസാരിക്ക	-10.4945
▁ಪ್ರಯತ್ನಿಸಿ	-10.4948
▁वाहन	-10.4949
▁ದಯವಿಟ್ಟು	-10.495
▁കെ	-10.4954
ri	-10.4955
െല്ലാം	-10.4955
▁ಪ್ರಾಥಮಿಕ	-10.4956
ંડ	-10.4956
▁ಸಕ್ರಿಯ	-10.4957
▁സാങ്കേതിക	-10.4957
एन	-10.4961
▁જાણીતા	-10.4961
മാക	-10.4961
▁ಬರೆಯ	-10.4963
▁उससे	-10.4964
▁ବ୍ୟବହାର	-10.4964
ಗೋ	-10.4965
▁മീഡിയ	-10.4971
▁ಪ್ರವಾಸ	-10.4973
▁ലക്ഷ്യം	-10.4976
▁തങ്ങളുടെ	-10.4978
▁સંભાવના	-10.4978
▁ಯೋಜನೆಯನ್ನು	-10.4981
▁ചോദിച്ചു	-10.4985
▁સ્ટેટ્સ	-10.4986
▁ಕಟ್ಟಡ	-10.4989
▁ನಿರ್ಮಿಸ	-10.4989
▁ಮ್ಯಾ	-10.4992
▁ತೀವ್ರ	-10.4992
्र	-10.4994
▁ಅಮೆರಿಕನ್	-10.4995
ന്റ്	-10.4996
▁ಫಾರ್	-10.4998
▁ರಾಜಧಾನಿ	-10.4998
▁સુધારો	-10.4999
▁us	-10.4999
▁ફોર્મ	-10.4999
▁അതാണ്	-10.5001
▁एकदा	-10.5001
▁पर्यंत	-10.5001
▁થવું	-10.5002
ಟಿಕ್	-10.5005
▁प्रधानमंत्री	-10.5005
▁गो	-10.5007
▁चाल	-10.5015
▁तुझ्या	-10.5025
રિ	-10.5028
▁ପୂର୍ବରୁ	-10.5029
▁ಮುಖ್ಯವಾಗಿ	-10.5031
▁સૌ	-10.5031
कडून	-10.5034
ಮೇ	-10.5034
▁પોતે	-10.5036
▁પુત્ર	-10.5037
▁ವ್ಯತ್ಯಾಸ	-10.504
▁डिग्री	-10.5044
▁रहते	-10.5044
▁ફોટો	-10.5046
▁ટોચ	-10.5046
▁ઇચ્છા	-10.5047
ंना	-10.5048
▁मौत	-10.5048
▁മുൻപ്	-10.5053
ಬರ್	-10.5054
್ಯಾ	-10.5054
▁જુલાઈ	-10.5056
એમ	-10.5056
▁ચેપ	-10.5058
▁ಮಾನಸಿಕ	-10.5058
▁ಭವಿಷ್ಯದ	-10.5061
▁ಸಾಧನೆ	-10.5064
▁പോലീസ്	-10.5072
▁બજેટ	-10.5072
▁वैश्विक	-10.5076
യ്ക്കും	-10.5085
▁વિરુદ્ધ	-10.5085
▁लग्न	-10.5088
തല്ല	-10.509
ിരുന്നില്ല	-10.5095
▁ಶಕ್ತಿಯನ್ನು	-10.5095
▁ദ	-10.5098
▁ಕಂಪನಿಯು	-10.5099
▁त्यात	-10.51
▁ഏ	-10.5104
ിച്ച്	-10.5106
▁ಖರ್ಚು	-10.5106
▁करण्याचा	-10.511
▁ಆಟ	-10.5111
▁ವರ್ಗ	-10.5116
▁നികുതി	-10.512
▁ಪರಿಣಾಮಕಾರಿ	-10.512
▁മൂന്നാം	-10.5121
▁પ્રવૃત્તિઓ	-10.5121
▁તું	-10.5128
▁ಯಾವುದು	-10.5131
▁ರಾಸಾಯನಿಕ	-10.5132
▁સત્તા	-10.5135
▁ಒಂದ	-10.5137
▁ಔಷಧ	-10.5141
▁પ્રોત્સાહન	-10.5143
▁പറയാൻ	-10.5145
▁ଦେଖି	-10.5146
▁मुक्त	-10.5146
മ്മ	-10.5149
▁മാർച്ച്	-10.5149
▁ದಿನಕ್ಕೆ	-10.515
▁ಲೆ	-10.515
▁समावेश	-10.5152
▁ಹಿಂದೂ	-10.5152
on	-10.5152
जन	-10.5153
▁ಪೊಲೀಸರು	-10.5153
▁ഇന്റർനെറ്റ്	-10.5159
ഖ	-10.5166
▁ವಾರ್ಷಿಕ	-10.5168
ಲ್ಲೇ	-10.5169
टर	-10.517
કર	-10.517
▁ತಿಳಿಸಿದೆ	-10.5173
▁ഒന്നാണ്	-10.5174
▁ಸ್ಥಿತಿ	-10.5175
വോ	-10.5176
ನೂ	-10.518
▁]	-10.518
▁മനുഷ്യ	-10.5181
▁ચર્ચ	-10.5182
▁व्यापक	-10.5185
ുവ	-10.5186
▁ભૂલ	-10.5186
▁कब	-10.5187
റ്റി	-10.5191
▁ಉಲ್ಲೇಖಿಸ	-10.5191
▁സംഘടന	-10.5195
▁एकत्र	-10.5195
യോടെ	-10.5195
क्या	-10.5202
▁ಪ್ರಮಾಣ	-10.5202
▁કયા	-10.5205
▁તાપમાન	-10.5205
▁લેવાની	-10.5205
અથવા	-10.5206
or	-10.5207
▁ಅನುಮತಿ	-10.5212
ഒ	-10.5214
▁୩	-10.5214
▁ಎಫ್	-10.5214
▁निवड	-10.5215
▁डाउनलोड	-10.5217
▁ಧಾರ್ಮಿಕ	-10.5217
▁ಡಾ	-10.522
▁ಹೊರತುಪಡಿಸಿ	-10.5222
▁ସି	-10.5223
▁ತಂಡದ	-10.5224
▁विश्वविद्यालय	-10.5224
▁ಕ್ಷೇತ್ರದಲ್ಲಿ	-10.5229
▁ઓળખાય	-10.5229
ાન	-10.5229
▁ಮೈ	-10.5232
▁ડિજિટલ	-10.5234
▁ક્રિકેટ	-10.5235
▁ಅನುಭವಿಸ	-10.5239
मन	-10.5243
▁ಯುರೋಪಿಯನ್	-10.5245
▁હત્યા	-10.5248
▁માર્કેટિંગ	-10.5249
▁स्वयं	-10.525
ମ୍	-10.5253
▁ଉତ୍ତର	-10.5255
ನಾಗಿ	-10.5255
▁संदेश	-10.5257
▁വർഷത്തെ	-10.5257
▁बाकी	-10.5258
સિ	-10.5262
▁de	-10.5262
▁पुढील	-10.5266
▁વિશેષ	-10.5267
▁यांच्या	-10.5268
▁ലോകത്തെ	-10.527
▁અમેરિકામાં	-10.5272
▁अगदी	-10.5273
▁કારકિર્દી	-10.5275
▁ઉકેલ	-10.5275
▁मोठा	-10.5276
▁ಮನುಷ್ಯ	-10.5282
▁सर	-10.5282
रि	-10.5284
▁पंतप्रधान	-10.5284
ಿರುತ್ತದೆ	-10.5286
▁યાદી	-10.5287
▁ભારતની	-10.529
ാക്ക	-10.5292
ँ	-10.5292
▁डिजाइन	-10.5293
▁ક્ષેત્ર	-10.5299
▁രീതിയിൽ	-10.5302
નિક	-10.5302
▁રાજ્યો	-10.5307
▁ಡ್ರೈವ್	-10.5309
હિ	-10.5309
▁પરથી	-10.531
▁ಆಪಲ್	-10.5311
▁પક્ષ	-10.5312
▁ಇಂದಿನ	-10.5312
▁ಶೇಕಡಾ	-10.5314
▁ಪ್ಯಾ	-10.5314
▁जाईल	-10.5316
▁देखते	-10.5317
ಬೆ	-10.532
▁क्लिक	-10.532
▁બીજું	-10.532
▁ପରିବାର	-10.5322
ಿಕೊಂಡ	-10.5324
▁ಖಚಿತಪಡಿಸಿಕೊಳ್ಳಿ	-10.5326
▁ഒരിക്കൽ	-10.5327
▁હજાર	-10.5328
▁प्रयोग	-10.533
▁മൊബൈൽ	-10.5332
ेंगे	-10.5334
▁ലഭിച്ച	-10.5335
▁જાઓ	-10.5336
▁ચોક્કસપણે	-10.5338
▁ಬೆಳವಣಿಗೆ	-10.5338
▁ഭാവി	-10.5338
▁बोर्ड	-10.5345
▁आयुष्य	-10.5348
ಂಥ	-10.535
▁ಕಾಣಬಹುದು	-10.5352
▁વિભાગ	-10.5353
▁ಕೋರ್ಸ್	-10.5354
▁ಸ್ಥಾಪಿಸ	-10.5355
બો	-10.536
▁काळ	-10.5362
▁ಪದವಿ	-10.5365
▁बल्कि	-10.5367
ൻസ്	-10.537
▁ಪಡೆಯಬಹುದು	-10.537
▁തരം	-10.5371
▁ನೀಡಿದೆ	-10.5374
▁તેલ	-10.5374
▁अंतरराष्ट्रीय	-10.5375
▁ವ್ಯವಸ್ಥೆಯ	-10.5377
▁ર	-10.5377
ૌ	-10.5379
▁ಇದೀಗ	-10.5382
▁શારીરિક	-10.5386
▁याची	-10.5387
डे	-10.5388
ವಿನ	-10.5388
▁पेक्षा	-10.5389
ly	-10.5389
▁બાબતો	-10.539
മാണെന്ന്	-10.539
▁आपला	-10.5394
न्	-10.5394
▁ठेव	-10.5399
▁ಆಕೆಯ	-10.5399
▁ഇതിന്റെ	-10.5401
▁જૂના	-10.5401
▁लिये	-10.5402
▁ವಿಮೆ	-10.5411
▁ନିଜର	-10.5411
▁पेश	-10.5414
▁आवाज	-10.5415
▁વિજ્ઞાન	-10.5416
▁ഗെയിം	-10.5423
▁ಯುದ್ಧದ	-10.5423
▁ಸರಕಾರ	-10.5428
▁घटक	-10.5433
▁माना	-10.5437
▁कल्पना	-10.5439
५	-10.5445
▁ಗುಣಮಟ್ಟ	-10.5447
▁श	-10.545
▁स्वतंत्र	-10.545
▁હકીકત	-10.5452
▁ಅನುಮತಿಸುತ್ತದೆ	-10.5453
▁ಗೌರವ	-10.5453
▁ಮುಖ್ಯವಾಗಿದೆ	-10.5454
▁लें	-10.5454
▁यामुळे	-10.5455
▁വിദേശ	-10.5457
ಿಗೂ	-10.5459
▁साझा	-10.546
▁વિશ્વની	-10.5468
▁ମାତ୍ର	-10.547
▁ମହିଳା	-10.5471
▁ಪ್ರಪಂಚದ	-10.5472
ಂಗ	-10.5474
▁વ્યવસ્થા	-10.5474
▁മരിച്ചു	-10.5478
▁સમજી	-10.5482
▁ವಸ್ತುಗಳನ್ನು	-10.5482
▁നിറ	-10.5484
▁android	-10.5484
▁വെറും	-10.5484
▁ಅರ್ಧ	-10.5486
ಕಲ್	-10.5488
▁କରିବେ	-10.5489
▁मुश्किल	-10.5491
▁आयोग	-10.5491
ટ્સ	-10.5491
ૂ	-10.5493
▁ಶೈಕ್ಷಣಿಕ	-10.5493
ಷನ್	-10.5495
ഷൻ	-10.5498
▁വ്യവസായ	-10.5498
to	-10.5499
▁ಅಪ್	-10.55
▁એવો	-10.55
▁મોદી	-10.5505
▁ಸಂಸ್ಕೃತಿ	-10.5508
ଷ	-10.5508
▁സിസ്റ്റം	-10.5512
▁ઓફિસ	-10.5516
▁मृत्यु	-10.552
വുമാണ്	-10.5521
ଡି	-10.5522
▁ସେମାନଙ୍କ	-10.5524
ಿಯ	-10.5525
▁માતાપિતા	-10.5525
ക്കാർ	-10.5527
▁नवंबर	-10.5527
ଛୁ	-10.5532
▁તેઓએ	-10.5532
▁ವಯಸ್ಸಿನಲ್ಲಿ	-10.5532
ಡೊ	-10.5533
▁મહિનામાં	-10.5533
▁दिवशी	-10.5533
▁ತೆಗೆದುಕೊಳ್ಳಲು	-10.5537
▁and	-10.5539
▁ಸರಣಿ	-10.5541
▁ಗರಿಷ್ಠ	-10.5541
વાદ	-10.5545
▁ઊંઘ	-10.5546
▁ಔಷಧಿ	-10.5548
ફો	-10.5549
ପ୍	-10.555
ur	-10.555
▁लड़की	-10.5554
▁લ	-10.5555
▁करण्यास	-10.5555
▁ભ	-10.5556
▁વગેરે	-10.5558
▁વપરાય	-10.5561
▁આપો	-10.5561
▁୫	-10.5562
▁अगस्त	-10.5563
▁ರೈಲ್ವೆ	-10.5563
▁करीत	-10.5564
▁રિપોર્ટ	-10.5567
▁સ્ટોર	-10.5567
തുപോലെ	-10.5571
വർക്ക്	-10.5571
વાની	-10.5575
▁तापमान	-10.5575
▁સમર્થન	-10.5576
▁કી	-10.5577
▁શાંતિ	-10.5578
▁ಉತ್ಪನ್ನಗಳನ್ನು	-10.5579
़	-10.558
മെ	-10.5581
▁સમયગાળા	-10.5581
▁ಸದಸ್ಯ	-10.5581
▁વી	-10.5583
▁પરિણામે	-10.5584
▁थोड़ा	-10.5585
▁ഹാ	-10.5587
ନ୍ତୁ	-10.5588
ಮಾಡ	-10.5591
▁સેલ	-10.5593
▁शादी	-10.5597
▁રૂપે	-10.5602
▁रो	-10.5605
▁सक्रिय	-10.5609
▁બદલી	-10.561
▁ଅଛନ୍ତି	-10.561
▁വാഗ്ദാനം	-10.5611
▁કાયદો	-10.5614
▁ലഭിക്കും	-10.5614
▁നിലയിൽ	-10.5614
▁മുകളിൽ	-10.5616
▁ರಚಿಸಲು	-10.5616
▁ಬಜೆಟ್	-10.5616
▁ಎಂಜಿನ್	-10.5617
▁ಆರಂಭಿಸ	-10.5618
▁રસપ્રદ	-10.5619
ായിരിക്കും	-10.5619
હે	-10.562
▁ಸಂತೋಷ	-10.5622
is	-10.5622
▁उसका	-10.5624
ದನ್ನು	-10.5626
▁ગરમ	-10.5628
▁ಹೊಂದಿರುತ್ತದೆ	-10.5628
▁ಚರ್ಚ್	-10.5632
▁ચીન	-10.5634
▁ഏപ്രിൽ	-10.5636
▁तुम्हें	-10.5637
ുകയാണെങ്കിൽ	-10.5638
▁ಸಮಸ್ಯೆಯನ್ನು	-10.5638
▁ಭಾಗವಾಗಿ	-10.564
▁ಚ	-10.5641
▁જેમણે	-10.5641
il	-10.5642
▁ലഭിക്ക	-10.5642
▁व्यक्त	-10.5643
▁ଭାରତର	-10.5644
▁ಕಾಯಿಲೆ	-10.5645
▁मोठ्या	-10.5648
▁ജെ	-10.5648
ಿರುವುದು	-10.5651
▁કોંગ્રેસ	-10.5651
▁ತೈಲ	-10.5654
▁સત્તાવાર	-10.5656
▁ಶ್ರೀ	-10.5656
ിയത്	-10.5662
▁ശരിയായ	-10.5665
▁ದೈಹಿಕ	-10.567
▁ફેરફારો	-10.5673
▁ಕಾಳಜಿ	-10.5674
▁സ്വതന്ത്ര	-10.5675
▁करीब	-10.5675
▁શકશો	-10.5677
▁ആഗോള	-10.5678
സ്റ്റ്	-10.5679
▁ಭರವಸೆ	-10.5681
▁പറഞ്ഞത്	-10.5682
▁જ્ઞાન	-10.5682
જા	-10.5683
ियन	-10.5686
▁ઉજવણી	-10.5687
▁ನಿಲ್ದಾಣ	-10.5693
शन	-10.5693
▁ಎರಡನೆಯ	-10.5695
▁अंतर्राष्ट्रीय	-10.5698
▁ಕೋಡ್	-10.5698
▁ಸಮುದ್ರ	-10.5698
▁ડ	-10.5698
શી	-10.57
▁ವಿಷಯವನ್ನು	-10.57
▁ସେହି	-10.5704
▁ಉತ್ತಮವಾಗಿ	-10.5706
▁windows	-10.5706
▁अर्थव्यवस्था	-10.5706
▁ફેબ્રુઆરી	-10.5707
▁પ્રાણીઓ	-10.5709
▁सके	-10.5709
▁ಒಟ್ಟಿಗೆ	-10.5711
q	-10.5714
ಂತೆಯೇ	-10.5716
▁રક્ત	-10.5719
▁ಕ್ಕಿಂತ	-10.5721
▁नव्हती	-10.5721
▁પુસ્તકો	-10.5721
▁વર્ણન	-10.5722
ભ	-10.5722
▁ಏನ	-10.5725
▁ऐप	-10.5725
▁ಸಂಗ್ರಹ	-10.5727
▁જરૂરિયાત	-10.5728
▁देव	-10.5728
▁येणार	-10.5729
▁પશ્ચિમ	-10.5729
▁जोखिम	-10.5731
▁चे	-10.5737
▁जाए	-10.5738
▁ಬೇಕು	-10.5738
▁ಲಸಿಕೆ	-10.5738
▁गति	-10.574
▁ಹುಡುಕಾಟ	-10.5741
▁ચિત્ર	-10.5742
▁ಹು	-10.5742
▁ಹಕ್ಕು	-10.5743
▁ಗಾಯ	-10.575
▁મળ્યા	-10.5753
▁ಅವಶ್ಯಕತೆ	-10.5754
▁അതിനെ	-10.5755
▁തമ്മിൽ	-10.5755
▁સંખ્યામાં	-10.5759
▁ನಡೆಯ	-10.5761
▁ભંડોળ	-10.5763
▁ಕಳುಹಿಸ	-10.5765
▁ശരി	-10.5765
ವಾಗಬಹುದು	-10.5766
▁ઇન	-10.5766
▁ಸೂಚಿಸ	-10.5768
▁समुद्र	-10.5768
ોનો	-10.5769
▁प्रकाशित	-10.5772
▁સરસ	-10.5773
മാന	-10.5773
ಯೆಂದು	-10.5776
▁ಸಸ್ಯ	-10.5776
ദി	-10.5778
u	-10.5778
▁સાબિત	-10.578
आप	-10.578
ઓની	-10.5781
▁પરત	-10.5785
▁આવેલી	-10.5785
▁ಅವಧಿ	-10.5786
▁ರೂಪದಲ್ಲಿ	-10.5788
ल्ड	-10.579
▁छात्र	-10.5793
ર્ક	-10.5793
ಗಾರ	-10.5793
▁સવારે	-10.5794
▁ವಿಭಾಗ	-10.5795
▁ಬಾರ್	-10.5796
▁रात्री	-10.5798
▁સાચું	-10.58
▁તરફથી	-10.58
▁ಹುಡುಕ	-10.5802
▁ವ್ಯಾಯಾಮ	-10.5805
▁કિ	-10.5806
बर	-10.5806
▁કપ	-10.5808
▁ಬಿಟ್ಟು	-10.5809
▁સંપત્તિ	-10.581
▁માંગ	-10.5812
▁ಪೆ	-10.5815
हि	-10.5817
વાળી	-10.5819
▁કર્મચારી	-10.5825
೨	-10.5825
▁ಹಾಡು	-10.5827
▁વિન્ડોઝ	-10.583
फ़	-10.5832
▁તેવા	-10.5833
हर	-10.5834
▁વાયરસ	-10.5835
▁મન	-10.5836
▁સુવિધા	-10.5836
▁દબાણ	-10.5837
▁ಅಧಿಕಾರಿಗಳು	-10.5837
▁സ്	-10.5838
▁गलत	-10.5839
▁ಅಡಿ	-10.5839
▁વિસ્તારમાં	-10.5839
▁എണ്ണ	-10.5841
▁પેદા	-10.5843
सोबत	-10.5847
▁લક્ષ્ય	-10.5848
▁ચાર્જ	-10.5849
▁माहीत	-10.5849
▁ಮಟ್ಟದಲ್ಲಿ	-10.5852
▁તરત	-10.5855
▁ತಾ	-10.5857
▁ಖರೀದಿಸಲು	-10.5859
ധ	-10.586
▁ನ್ಯೂಯಾರ್ಕ್	-10.586
▁પૃથ્વી	-10.586
▁ಯಂತ್ರ	-10.5865
ಲಿಂಗ್	-10.5867
▁તેમનું	-10.5871
ನಂತಹ	-10.5871
▁देखभाल	-10.5872
▁ತೆಗೆದುಕೊಳ್ಳುವ	-10.5872
▁പട്ടിക	-10.5873
▁ಬದಲಿಗೆ	-10.5874
▁રાખીને	-10.5876
▁ರಷ್ಯಾದ	-10.5878
▁नव्हता	-10.5879
▁വിപണി	-10.5879
▁શો	-10.588
സിന്റെ	-10.5881
▁लग	-10.5884
▁ରେ	-10.5887
▁ಲೇಖನ	-10.5894
▁അവസാനം	-10.5895
୧	-10.5896
▁ત્રીજા	-10.5896
▁પ્લેટફોર્મ	-10.5902
▁મોત	-10.5906
ുമാണ്	-10.5907
നേ	-10.5907
ിക്കുന്ന	-10.5908
▁મારો	-10.5909
▁ബന്ധം	-10.5909
▁ಪ್ರಚಾರ	-10.5909
ಗೊಳಿಸುವ	-10.5911
क्स	-10.5913
▁ರಚಿಸ	-10.5913
▁सहा	-10.5918
ളി	-10.5919
▁ನಿರ್ವಹಿಸಲು	-10.5919
ിട്ടുള്ള	-10.592
▁पर्याय	-10.5921
▁દસ	-10.5923
▁ಮಾಡಲಾಯಿತು	-10.5925
▁असून	-10.5926
▁निर्धारित	-10.5928
id	-10.5928
▁ಮಾರುಕಟ್ಟೆಯಲ್ಲಿ	-10.5929
▁રહો	-10.593
▁ಆರೋಗ್ಯಕರ	-10.5931
നോ	-10.5932
▁ಸರ್ಕಾರಿ	-10.5935
्यू	-10.5935
▁ಹ್ಯಾ	-10.5936
▁बाल	-10.5936
▁નિદાન	-10.5937
સ્ત	-10.5939
▁हों	-10.5942
▁ಅಮೆರಿಕಾದ	-10.5943
▁ಪ್ರಾರಂಭಿಸಲು	-10.5943
▁നിന്ന	-10.5945
▁ಕೋರ್ಟ್	-10.5947
क्र	-10.5947
▁ವಾ	-10.5947
▁आठ	-10.5948
▁खरीद	-10.5948
▁વાહન	-10.5948
▁എങ്കിലും	-10.5949
▁ಅಪಾಯಕಾರಿ	-10.5949
▁നാ	-10.5951
▁ઇમેઇલ	-10.5952
▁ಸಾಧಿಸ	-10.5953
▁വിവാഹം	-10.5954
▁આર	-10.5956
▁मोठी	-10.5962
▁યુવાન	-10.5965
▁ഒന്ന	-10.5965
▁घ्या	-10.5967
നിയ	-10.5971
ेज	-10.5973
▁सेट	-10.5975
▁લિ	-10.5976
୫	-10.5977
▁പ്രത്യേകിച്ച്	-10.5977
▁વ્યાવસાયિક	-10.5978
▁રહેતા	-10.5979
▁રહેલા	-10.598
▁ಮತ	-10.5983
▁तिथे	-10.5983
▁ഒരാൾ	-10.5984
▁ଥର	-10.5985
▁डॉ	-10.5985
▁ಗಾತ್ರ	-10.5986
▁નિયંત્રિત	-10.5987
▁କରୁଛି	-10.5987
▁താൻ	-10.5989
തിനാൽ	-10.599
▁કઈ	-10.5992
▁सरकारी	-10.5993
▁ദശലക്ഷം	-10.5993
▁അറിയിച്ചു	-10.5995
▁नीति	-10.5997
▁जर्मनी	-10.5998
पुर	-10.6002
▁ಕೊಟ್ಟ	-10.6002
▁ನೀಡಿ	-10.6003
▁ಅವರೊಂದಿಗೆ	-10.6006
ರೊಂದಿಗೆ	-10.6007
▁ଘଟଣା	-10.6008
▁ರೆ	-10.6009
▁ರಕ್ಷಣಾ	-10.6009
▁ಆಲ್	-10.601
▁સંગ્રહ	-10.6011
▁ಕಾರ್ಯಕ್ರಮ	-10.6013
▁अतिशय	-10.6014
ನಿಯ	-10.6017
▁व्यवहार	-10.6017
▁ಘೋಷಿಸ	-10.6019
▁संकेत	-10.602
▁ന്റെ	-10.602
तर	-10.6021
ंज	-10.6022
ar	-10.6023
▁સુવિધાઓ	-10.6028
▁ಅನುಸರಿಸ	-10.6031
▁संधी	-10.6032
▁वास्तविक	-10.6034
▁എടുക്ക	-10.6035
▁ପରି	-10.6036
▁व्या	-10.6037
ರಿಯ	-10.6041
▁म्हणाले	-10.6048
▁पहिला	-10.6052
અમે	-10.6052
▁તેણી	-10.6055
ടു	-10.606
▁ಜೋ	-10.606
▁ಪ್ರೊ	-10.6062
▁ಫೆಡರಲ್	-10.6062
▁મેક	-10.6068
▁સફેદ	-10.607
ാറില്ല	-10.607
▁मंदिर	-10.6075
▁मानसिक	-10.6075
▁തിരഞ്ഞെടുക്ക	-10.6077
ികൾ	-10.6078
▁କରୁଛନ୍ତି	-10.608
ದಲ್ಲಿನ	-10.6083
▁વ્યક્ત	-10.6084
ಫ	-10.6084
▁દર્દીઓ	-10.6085
ട്	-10.6086
▁ವಿವರಿಸ	-10.6088
ಿಸಿದ	-10.6093
▁તેમનો	-10.6093
▁ತೆರೆದ	-10.6095
ിട	-10.6097
▁ಐಫೋನ್	-10.6101
▁ಯೋಜನೆಯ	-10.6104
▁ખેલાડી	-10.6105
▁ചെയ്യാം	-10.611
▁અંતે	-10.6112
▁महत्व	-10.6112
ಿರಬಹುದು	-10.6113
ಗೇ	-10.6115
▁എം	-10.6117
ാക	-10.612
▁മത	-10.612
▁वर्ग	-10.6121
▁खाते	-10.6121
▁પ્રતિ	-10.6123
▁सोच	-10.6125
▁ಮುಚ್ಚ	-10.6127
ജ്	-10.6128
▁चयन	-10.6132
▁അവര	-10.6133
▁જાણે	-10.6136
▁जुलाई	-10.6136
▁ભોજન	-10.6136
▁ദിവസ	-10.6137
▁ଜାଣି	-10.6142
▁ಮಕ್ಕಳನ್ನು	-10.6143
▁ಸಾವಿರಾರು	-10.6149
▁લાંબી	-10.6149
▁ગણતરી	-10.6149
उन्होंने	-10.6152
▁ହେଲା	-10.6154
▁ସୂଚନା	-10.6157
तु	-10.6157
वार	-10.6157
▁മഴ	-10.6158
▁થયેલા	-10.6159
▁નાગરિક	-10.616
▁ಇತ್ಯಾದಿ	-10.6164
▁ಏ	-10.6165
▁ಪಡೆದರು	-10.6167
▁സേവനം	-10.6167
ଠାରୁ	-10.6168
തുമായ	-10.617
▁ಜನರಲ್	-10.617
▁भावना	-10.6172
▁उपयुक्त	-10.6172
િયો	-10.6173
ହେ	-10.6175
▁സ്ഥലം	-10.6179
फा	-10.6179
▁ಭೂಮಿ	-10.618
▁ಪ್ರತಿದಿನ	-10.618
▁પ્રભાવ	-10.6181
▁લોકોના	-10.6185
ण्या	-10.6185
▁ಘಟಕ	-10.6189
വരാണ്	-10.6189
▁પર્યાવરણ	-10.6194
▁વિસ્તારોમાં	-10.6195
▁ലഭ്യമാണ്	-10.6196
▁ಸುಧಾರಣೆ	-10.6197
▁સમુદાય	-10.62
▁ഞങ്ങളെ	-10.6201
ंच	-10.6203
▁ಕ್ಯಾಮೆರಾ	-10.6203
▁द्या	-10.6204
લ્	-10.6204
▁चालू	-10.6207
▁ಸ್ಪಷ್ಟ	-10.6207
▁ಹೋಗಲು	-10.6209
▁यात	-10.6209
્ઝ	-10.621
▁ಕಾರಣದಿಂದಾಗಿ	-10.6211
▁അംഗ	-10.6213
▁ദിന	-10.6216
▁ಕಂಪನಿಗಳು	-10.6217
ಅವರು	-10.6219
ುತ್ತಿತ್ತು	-10.6219
ଜି	-10.6219
▁ରାଜ୍ୟ	-10.622
▁राजधानी	-10.6221
ಪೆ	-10.6224
▁മാറ്റം	-10.6225
▁കൂട്ട	-10.6225
▁आग	-10.6226
"")	-10.6226
▁कहना	-10.6227
കാര	-10.6233
▁એક્સ	-10.6236
▁લાલ	-10.6241
ാനോ	-10.6243
▁ഡിസംബർ	-10.6244
▁त्वचा	-10.6247
▁अवसर	-10.6248
▁विस्तार	-10.6248
▁लागेल	-10.6249
▁જાળવી	-10.625
▁ಪರವಾನಗಿ	-10.6252
▁પરના	-10.6255
▁ഫയൽ	-10.6257
▁પાવર	-10.626
▁પગલાં	-10.6261
મને	-10.6261
▁अजून	-10.6262
▁j	-10.6263
▁ત્યારબાદ	-10.6265
ಎಲ್	-10.6268
▁कहीं	-10.627
ജന	-10.6274
▁પો	-10.6274
▁परियोजना	-10.6274
▁लक्ष	-10.6274
▁ಪ್ರಥಮ	-10.628
▁ತಿನ್ನ	-10.628
▁પત્ર	-10.6285
▁ಭಾವಿಸುತ್ತೇನೆ	-10.6286
▁आरोप	-10.6287
▁ನಿಲ್ಲಿಸ	-10.6288
▁ಇದರಿಂದಾಗಿ	-10.629
ଥ	-10.6292
▁പരസ്പരം	-10.6293
▁അദ്ദേഹത്തിന്	-10.6295
೯	-10.6296
▁અંતમાં	-10.63
▁ବୁ	-10.63
ार	-10.6302
▁ગેસ	-10.6303
▁സുരക്ഷ	-10.6306
▁ಸಲುವಾಗಿ	-10.6306
▁ಹಿ	-10.6307
बरोबर	-10.6307
▁കാര്യത്തിൽ	-10.6307
▁ವಿದ್ಯಾರ್ಥಿಗಳಿಗೆ	-10.6308
नंतर	-10.6308
▁आमतौर	-10.6308
▁മാറ്റി	-10.6308
ಂದ	-10.631
സോ	-10.6315
▁ಜಾರಿಗೆ	-10.6315
▁સમયથી	-10.6317
▁योगदान	-10.6319
▁ચા	-10.6322
▁അധികം	-10.6325
▁રોક	-10.6325
▁લઇ	-10.6325
▁ആർക്കും	-10.6326
▁કાર્યક્રમો	-10.6326
▁હુમલો	-10.6327
▁સલામત	-10.633
▁ಕೆಲವೇ	-10.6331
▁ಜಗತ್ತಿನಲ್ಲಿ	-10.6333
▁ಪಟ್ಟಿಯಲ್ಲಿ	-10.6334
▁उपयोगकर्ता	-10.6335
ಯೊ	-10.6335
▁मात्रा	-10.6336
▁ಪತ್ನಿ	-10.6337
▁ಕ್ರೀಡಾ	-10.6337
▁जाणार	-10.6346
▁ವ	-10.6346
▁ತಿಳಿಸ	-10.6347
▁ಸೂಪರ್	-10.635
▁ફી	-10.635
ഒരു	-10.6351
▁પ્રતિક્રિયા	-10.6352
ವನ್ನೂ	-10.6353
▁ಸೇರ	-10.6354
▁വായിക്ക	-10.6355
▁ತನಿಖೆ	-10.6355
▁અંતર	-10.6356
▁दिखाई	-10.6356
୍ୟ	-10.6357
ില്ലെങ്കിൽ	-10.6358
▁ટૂંક	-10.6359
▁മിനിറ്റ്	-10.6362
▁ಕ್ರೆಡಿಟ್	-10.6363
▁ವಿನಿಮಯ	-10.6363
ാമ	-10.6364
क्	-10.6365
പ്പെടുന്നു	-10.6367
▁સપોર્ટ	-10.6369
▁ಫಲಿತಾಂಶ	-10.6371
ച്ച്	-10.6371
▁મુદ્દાઓ	-10.6372
▁ઘટાડવા	-10.6374
▁ವೈಜ್ಞಾನಿಕ	-10.6378
▁എഴുത	-10.6379
▁अत्यंत	-10.6379
ിക്കാൻ	-10.638
വൻ	-10.6382
▁ಕಂಪೆನಿ	-10.6386
▁लोकांना	-10.6387
▁ಕ್ಷಣ	-10.6387
▁ಗಂಭೀರ	-10.6388
ಷ್ಟೇ	-10.639
▁ବିଷୟରେ	-10.6392
▁പുസ്തകം	-10.6393
▁സംഭവ	-10.6394
▁ಪಕ್ಷದ	-10.6395
▁ಹೇಗಾದರೂ	-10.6396
▁തോന്നി	-10.64
ुन	-10.6401
्ड	-10.6401
▁सैन्य	-10.6402
मुझे	-10.6407
▁പഠന	-10.6408
▁ಕೊರತೆ	-10.6413
ઇડ	-10.6415
▁રાજા	-10.6417
ર્મ	-10.642
▁അധിക	-10.642
▁મંદિર	-10.6429
▁સૂચવે	-10.643
ಿಗಾಗಿ	-10.643
di	-10.6431
▁જીતી	-10.6431
▁ಸಚಿವಾಲಯ	-10.6433
▁બજારમાં	-10.6433
▁കേൾക്ക	-10.6433
▁ಇದ್ದ	-10.6434
▁പ്രാദേശിക	-10.6437
▁co	-10.6439
▁आपली	-10.6441
▁ಮೌಲ್ಯ	-10.6442
िश	-10.6443
▁ಸರ್ಕಾರವು	-10.6444
▁ಮಳೆ	-10.6444
▁ವಯಸ್ಸು	-10.6445
▁സൃഷ്ടിക്ക	-10.6445
्व	-10.6445
ମି	-10.6446
▁सच	-10.6447
▁વ્યવહાર	-10.6449
ફર	-10.6449
▁ದರ	-10.6451
▁ସା	-10.6451
la	-10.6452
▁ಯಾರಾದರೂ	-10.6453
▁न्यायालय	-10.6458
્સના	-10.6458
▁लिंक	-10.6463
ia	-10.6465
ಂಬ	-10.6467
▁કાર્યવાહી	-10.6468
▁આપતા	-10.6471
▁ಸಂಖ್ಯೆಯನ್ನು	-10.6471
ವೊ	-10.6472
▁ટ્રેન	-10.6472
▁ફેસબુક	-10.6474
ખા	-10.6475
▁അത്തരം	-10.6475
▁ಗೊತ್ತು	-10.6476
▁रखना	-10.6476
െന്നും	-10.6476
▁ಹೋರಾಟ	-10.6479
▁ફેડરલ	-10.6479
▁ಅಪಾಯವನ್ನು	-10.648
▁ફ્રેન્ચ	-10.6483
▁ഏക	-10.6483
ಫಾ	-10.6483
▁ಮಧ್ಯ	-10.6484
▁ಕ್ಕೂ	-10.6486
આઇ	-10.6488
▁खाद्य	-10.6489
▁केल्या	-10.6491
റു	-10.6493
पे	-10.6493
▁ವಿಸ್ತರಿಸ	-10.6494
▁ಗ್ರಾಹಕರಿಗೆ	-10.6495
રુ	-10.6496
ിട്ട്	-10.65
▁ચંદ્ર	-10.6501
▁ഭാഗം	-10.6501
▁ವಾರಗಳ	-10.6501
▁ಜರ್ಮನ್	-10.6503
▁आसानी	-10.6503
▁ನಡೆಯಲಿದೆ	-10.6503
▁વા	-10.6505
▁ಏನಾದರೂ	-10.6505
▁ಯಾರ	-10.651
▁બાકી	-10.6511
▁ଆସି	-10.6512
▁ಗಡಿ	-10.6521
▁જાણતા	-10.6523
▁ಬಲವಾದ	-10.6523
ക്കുന്ന	-10.6523
▁ଗତ	-10.6528
▁शुल्क	-10.653
▁જરૂરિયાતો	-10.653
▁ಆನ್	-10.653
▁ಹೆಚ್ಚಿಸಲು	-10.6531
▁ಮುಖ	-10.6531
▁ಹಕ್ಕುಗಳ	-10.6533
▁ಪಡೆಯುವ	-10.6534
▁ನಮ್ಮನ್ನು	-10.6535
▁शिक्षक	-10.6536
▁മന്ത്രി	-10.6538
ଥିଲି	-10.6538
▁હાલ	-10.6541
▁માનસિક	-10.6542
▁લેખક	-10.6543
▁ઘટકો	-10.6543
▁ડો	-10.6544
▁વિનંતી	-10.6545
▁कधीच	-10.6546
ેલ	-10.6548
▁गेली	-10.6548
▁ચાલે	-10.6549
ಎಫ್	-10.6553
▁સ્વતંત્રતા	-10.6554
ण्यास	-10.6558
▁ಯ	-10.6559
ଉ	-10.6559
▁વ્યાજ	-10.6561
▁ಕಾರ್ಯಾಚರಣೆ	-10.6561
▁ತೂಕ	-10.6561
▁ಕಂಡ	-10.6563
फे	-10.6564
▁ಚಾ	-10.6564
୨	-10.6565
ಾದ್ಯಂತ	-10.6566
▁મળ્યો	-10.6569
▁രാവിലെ	-10.6569
▁ಸಂದೇಶ	-10.6571
ಪರ್	-10.6574
▁ಧರಿಸ	-10.6576
▁ಶ್ರೀಮಂತ	-10.6577
▁ಪತ್ರ	-10.6578
▁तारीख	-10.658
ક્ટ	-10.658
▁ಹೆಜ್ಜೆ	-10.6585
▁ପ୍ରାୟ	-10.6585
▁राज	-10.659
ंक	-10.659
▁ಒಂದನ್ನು	-10.6593
▁वाटत	-10.6595
▁ತಯಾರಿಸ	-10.6596
▁સૂર્ય	-10.6601
▁ತೆಗೆದುಹಾಕ	-10.6603
▁പ്രതീക്ഷ	-10.6603
▁ಇಂಧನ	-10.6604
▁വീട്	-10.6605
▁લાભો	-10.6605
▁चा	-10.6607
▁येईल	-10.6609
ol	-10.661
▁ಸಮಾಜ	-10.6612
▁ಇತರರು	-10.6614
▁अंग्रेजी	-10.6614
▁ઉપચાર	-10.6617
▁നൽകാൻ	-10.6627
▁ಅಂತ್ಯ	-10.6633
આઈ	-10.6635
▁ಯಾವಾಗ	-10.6635
▁સ્તરે	-10.6636
ಂಡಿ	-10.6637
▁കഴിഞ്ഞു	-10.664
▁ವ್ಯಕ್ತಿಯು	-10.6641
ંચ	-10.6642
▁व्यावसायिक	-10.6646
▁जिन्हें	-10.6647
▁ଉ	-10.6647
▁ಐತಿಹಾಸಿಕ	-10.6648
▁ತಿದ್ದುಪಡಿ	-10.6648
▁चांगला	-10.6649
▁संशोधन	-10.6653
ंच्या	-10.6659
▁मुले	-10.6661
▁ಹೇಳಲು	-10.6663
ുന്നതും	-10.6663
▁ಅನಿಲ	-10.6666
▁നടപടി	-10.6668
૨	-10.6669
▁ಬಸ್	-10.6669
િટ	-10.667
्म	-10.6671
▁ಮಿಲಿಟರಿ	-10.6671
▁ಸಂಸ್ಥೆಗಳು	-10.6671
▁એટલા	-10.6674
▁संस्था	-10.6674
▁ಲಿಂಕ್	-10.6678
▁ಒಳಗೊಂಡಿರುತ್ತದೆ	-10.6682
▁ഏതാനും	-10.6682
ുണ്ടായിരുന്നു	-10.6684
दर	-10.6684
▁ನಿಯಮ	-10.6687
▁झालं	-10.6687
તર	-10.6687
▁ଶେଷ	-10.6688
▁ಅಧಿಕಾರಿ	-10.6691
▁निजी	-10.6694
▁ली	-10.6696
▁रूसी	-10.6696
मला	-10.6697
ുമെന്നും	-10.6698
ത്തേക്ക്	-10.6704
▁सेवाओं	-10.6705
▁एल	-10.6705
▁ದೋಷ	-10.6705
ാലും	-10.6707
ૃ	-10.6712
▁കട	-10.6712
▁खान	-10.6713
▁चिकित्सा	-10.6714
▁पश्चिम	-10.6715
ിക്കുന്നു	-10.6716
▁പുറത്തു	-10.6716
▁રસ્તો	-10.6717
▁મિ	-10.6718
▁ಇದ್ದರೆ	-10.672
▁લા	-10.6725
▁ಮೂಲದ	-10.6728
ക്കാൻ	-10.6728
▁પાડવા	-10.673
▁ક્લિક	-10.6732
नुसार	-10.6736
▁ಚಿ	-10.6739
▁മെയ്	-10.674
▁બેઠક	-10.674
ણી	-10.6748
▁മെഡിക്കൽ	-10.6749
ಯರ್	-10.675
▁നേരത്തെ	-10.6754
▁ಸಂಸ್ಥೆಯ	-10.6756
वीं	-10.6756
▁ಮೀ	-10.6757
യേ	-10.6759
▁ಬ್ಯಾಟರಿ	-10.676
ଂ	-10.6761
▁હજારો	-10.6763
▁सुबह	-10.6768
▁തൊഴിൽ	-10.6768
▁ମୃତ୍ୟୁ	-10.6768
▁तथापि	-10.6769
▁ફંડ	-10.677
▁कुठे	-10.6771
▁મશીન	-10.6772
▁કોલ	-10.6773
▁અંગ્રેજી	-10.6773
▁સમાજ	-10.6775
▁माता	-10.6776
▁स्वागत	-10.6779
▁ചിത്ര	-10.678
▁बदलाव	-10.6783
▁સલામતી	-10.6787
▁വളർച്ച	-10.6787
▁જગ્યાએ	-10.6788
▁बु	-10.679
▁स्टेशन	-10.6793
▁थीं	-10.6798
▁യുദ്ധ	-10.68
▁सकारात्मक	-10.6801
▁ಮತ್ತೊಮ್ಮೆ	-10.6801
िका	-10.6801
▁ഫെബ്രുവരി	-10.6804
ഡോ	-10.6806
▁યોર્ક	-10.6806
▁કલા	-10.6807
▁બેન્ક	-10.6809
कि	-10.6811
▁ವಿಶ್ವವಿದ್ಯಾನಿಲಯ	-10.6812
▁तलाश	-10.6813
▁കളിക്ക	-10.6814
▁પ્રતિબંધ	-10.6814
▁હાજર	-10.6817
▁ಆದೇಶ	-10.6819
ಮತ್ತು	-10.682
▁વરસાદ	-10.682
ಕೊಂಡ	-10.6822
▁ನಿರೀಕ್ಷೆ	-10.6823
▁ವಿಷಯದ	-10.6825
▁ಬಂದಾಗ	-10.6827
▁അദ്ദേഹത്തെ	-10.6828
▁ಸಂಪ್ರದಾಯ	-10.6828
अलग	-10.6831
▁सुरु	-10.6834
▁കണ്ടെത്താൻ	-10.6838
▁ಆಧಾರಿತ	-10.684
▁प्रमाण	-10.6842
▁कोर्ट	-10.6845
▁ಪ್ರತಿಶತ	-10.6845
▁दूसरा	-10.6845
ിനായി	-10.6847
▁എന്ത	-10.6852
▁ખુબ	-10.6852
ാണ	-10.6853
ಪ್ಪ	-10.6855
▁മത്സര	-10.6857
▁കൊടുക്ക	-10.6861
र्न	-10.6862
കാല	-10.687
▁એકબીજા	-10.687
▁ಸೀಮಿತ	-10.6871
▁सरल	-10.6872
▁പ്രതി	-10.6874
▁આવવા	-10.6876
▁ટેકો	-10.6877
▁टीवी	-10.6879
▁ईमेल	-10.6881
ನಿಮ್ಮ	-10.6881
en	-10.6881
▁ನೃತ್ಯ	-10.6883
ത്തിനുള്ള	-10.6884
▁ಅಭಿಪ್ರಾಯ	-10.6888
▁कर्मचारी	-10.6889
▁ଭାବରେ	-10.6889
▁ಸಂಕೀರ್ಣ	-10.689
▁કંપનીના	-10.6891
▁ವ್ಯಕ್ತಪಡಿಸ	-10.6892
ंनी	-10.6893
▁ഭാഗ	-10.6894
▁દિવસની	-10.6896
▁સમજ	-10.6896
▁ತೆಗೆದುಕೊಂಡ	-10.6897
▁ಮಾರ್	-10.6899
▁ತಿಂಗಳಲ್ಲಿ	-10.6899
▁पैदा	-10.69
▁कितना	-10.6902
▁તેણીએ	-10.6903
ಮೆಂಟ್	-10.6904
▁પૂરતી	-10.6906
▁जेव्हा	-10.6906
▁હાજરી	-10.6908
un	-10.6909
▁સ્વતંત્ર	-10.691
▁ಶಾಲೆ	-10.6912
▁ಜವಾಬ್ದಾರಿ	-10.6914
▁ड	-10.6916
▁કેટલી	-10.6916
▁ધાર્મિક	-10.6916
▁ಇಬ್ಬರೂ	-10.6916
▁വളരെയധികം	-10.6917
▁(""	-10.6919
▁આખરે	-10.6919
ad	-10.6921
▁અમેરિકાના	-10.6924
▁सर्वोत्तम	-10.6924
▁ହ	-10.6926
▁પ્લાન્ટ	-10.6926
▁തീയതി	-10.6927
രായ	-10.6927
▁अधिनियम	-10.6933
▁ഒറ്റ	-10.6934
▁काहीही	-10.6935
ത്തെക്കുറിച്ച്	-10.6936
ദ്യോഗിക	-10.694
▁ଦେଇ	-10.6942
▁લઈને	-10.6944
▁ഭയ	-10.6946
▁પરિવહન	-10.6949
▁ಅಭಿವೃದ್ಧಿಪಡಿಸ	-10.695
▁മരിക്ക	-10.6951
ବାକୁ	-10.6955
એલ	-10.6957
▁करायला	-10.6958
▁चीजें	-10.6959
നായി	-10.6961
▁युवा	-10.6962
▁દુનિયા	-10.6963
गो	-10.6963
ಮಾನ	-10.6963
▁ଏଥିରେ	-10.6965
▁વર્ષનો	-10.6965
▁स्क्रीन	-10.6968
▁ದಶಕದಲ್ಲಿ	-10.6969
▁પહેલેથી	-10.6969
▁କେହି	-10.6969
ಿರ	-10.6972
▁mo	-10.6974
ଚ	-10.6974
▁ഇംഗ്ലീഷ്	-10.6975
▁દેવામાં	-10.6976
▁લોન્ચ	-10.6977
▁ಬಳಕೆದಾರರ	-10.698
▁ઉપ	-10.698
▁ಕಳೆದುಕೊಂಡ	-10.698
▁അതുപോലെ	-10.6983
▁ഉൾപ്പെടെ	-10.6986
▁ಸಾಂಸ್ಕೃತಿಕ	-10.699
▁ભાગે	-10.699
▁સ્	-10.699
ದ್ದಾಗ	-10.6992
▁ಸಂಕೇತ	-10.6993
▁हवाई	-10.6996
▁ವಿಶಿಷ್ಟ	-10.6996
▁୧୯	-10.6998
▁ಹೊ	-10.7001
ക്സ്	-10.7008
▁कॅ	-10.7008
▁ಟ್ರಂಪ್	-10.7008
▁ഒടുവിൽ	-10.7008
▁મૂકી	-10.7009
▁ମାସ	-10.701
കോ	-10.7012
▁कहाँ	-10.7012
▁ಪಕ್ಷ	-10.7013
▁ഒന്നു	-10.7014
▁ಪರಿಪೂರ್ಣ	-10.7016
▁ಭಾಗವಾಗಿದೆ	-10.7019
▁निर्भर	-10.7019
▁നോക്ക	-10.7021
▁ದಿನಗಳು	-10.7025
▁ದೇಶಗಳ	-10.7029
▁ವಿಷಯಗಳ	-10.7029
વાય	-10.7031
ർത്ത	-10.7032
▁ભૌતિક	-10.7033
ിന	-10.7034
▁દોરી	-10.7035
▁बि	-10.7038
▁गेला	-10.7039
▁ಪ್ರಸಾರ	-10.7039
▁ಅಮೆರಿಕಾ	-10.704
▁देखना	-10.7045
▁એન્જિન	-10.7047
▁ವಿಧಿಸ	-10.7048
▁ನಟ	-10.7048
▁લેશે	-10.7049
▁ग्राहकों	-10.7052
▁ನದಿ	-10.7053
▁ಶೈಲಿ	-10.7053
▁ಬದಲಾಗಿ	-10.7055
इन	-10.7058
▁માંગે	-10.7058
▁કુ	-10.7059
▁ഒക്ടോബർ	-10.7061
▁ನಡೆಸಿದ	-10.7061
▁അവകാശ	-10.7063
▁ಮಾಡಿತು	-10.7063
▁કરતું	-10.7064
▁आयु	-10.7065
▁ಕಾರಣವಾಗಬಹುದು	-10.7065
▁અર્થતંત્ર	-10.7067
▁ಗಮನಾರ್ಹ	-10.7067
▁താങ്കൾ	-10.7069
▁એફ	-10.7069
▁മി	-10.7073
യ്ക്കു	-10.7077
अर	-10.7078
▁ಪ್ರಾಚೀನ	-10.708
▁अंदर	-10.7081
▁ಪ್ಲೇ	-10.7082
▁સાથેના	-10.7083
ସ୍ତ	-10.7084
▁നടന്നു	-10.7087
▁જોયું	-10.7088
▁छोटी	-10.7089
▁ନାମ	-10.709
▁ചരിത്ര	-10.7092
▁अमेरिकन	-10.7094
▁કોલેજ	-10.7096
ನೀ	-10.7097
▁છોકરી	-10.7101
സർ	-10.7103
▁ದಾರಿ	-10.7104
▁समुदाय	-10.7107
ers	-10.7108
ଙ୍ଗ	-10.7112
▁પ્રાથમિક	-10.7113
ಲ್ಲಾ	-10.7114
▁जनवरी	-10.7114
▁કરેલા	-10.7114
▁പലരും	-10.7115
▁ಅಂಶಗಳನ್ನು	-10.7119
यों	-10.7119
ात्मक	-10.7119
ଡ଼	-10.7119
▁ഡിജിറ്റൽ	-10.712
▁ರನ್	-10.7122
▁ತನಕ	-10.7123
▁સ્ટેટ્સમાં	-10.7124
▁ಕಾನೂನಿನ	-10.7126
▁कथा	-10.713
▁തിരികെ	-10.7134
ഷി	-10.7134
▁મુખ્યત્વે	-10.7137
▁વિરોધ	-10.7137
▁ભાગમાં	-10.714
ಪೋ	-10.7141
▁મૂલ્યાંકન	-10.7142
▁સહ	-10.7143
▁छह	-10.7145
▁જેટલા	-10.7147
▁ह्या	-10.7148
▁દેશની	-10.7153
▁માન્યતા	-10.7156
▁ಹಾರ್ಡ್	-10.7158
▁നടക്കുന്ന	-10.7158
▁લાગી	-10.7159
ಥ	-10.716
सर	-10.716
▁മരിച്ച	-10.7161
pa	-10.7161
▁ನೈಜ	-10.7166
▁ഡെ	-10.7166
▁તેમાંથી	-10.7168
▁ହୋଇଥାଏ	-10.7168
ಒಂದು	-10.7169
▁ಟೆಸ್ಟ್	-10.7171
▁ફિલ્મો	-10.7172
▁ପାଇ	-10.7174
▁ଭ	-10.7174
▁സോ	-10.7182
▁गांधी	-10.7188
▁അഞ്ചു	-10.7189
▁ಸಹೋದರ	-10.719
▁ಮರಳಿ	-10.7194
▁ಭಾಗವನ್ನು	-10.7197
ીને	-10.7198
▁ವ್ಯಕ್ತಿಗಳು	-10.7199
સ્ટર	-10.7199
▁પ્રવૃત્તિ	-10.7203
▁વિસ્તૃત	-10.7205
▁સુપર	-10.7205
▁પાડવામાં	-10.7206
▁ಸಾಧ್ಯವಾದಷ್ಟು	-10.7207
▁ನೀಡಲಾಗುತ್ತದೆ	-10.7209
▁ಚಿತ್ರದ	-10.7209
▁खाली	-10.7212
ઓના	-10.7214
▁वय	-10.7216
▁പേരും	-10.722
▁ಮಾರ್ಗವಾಗಿದೆ	-10.7222
▁ಬಿಲಿಯನ್	-10.7222
▁घ	-10.7225
ಸಿಸ್	-10.723
▁ತೋರಿಸುತ್ತದೆ	-10.723
ma	-10.7231
▁जातात	-10.7232
ಟಿಂಗ್	-10.7234
▁પગાર	-10.7236
ഞ്ച	-10.7237
ത്തിലുള്ള	-10.7238
▁ગે	-10.7239
▁ಯೋಜಿಸ	-10.7239
▁ઉત્તમ	-10.7239
▁ಇತ್ತು	-10.7241
ങ്	-10.7241
▁അന്ന്	-10.7242
दी	-10.7243
ಸೋ	-10.7243
ಸ್ನಲ್ಲಿ	-10.7243
▁ಅದಕ್ಕಿಂತ	-10.7244
▁ಇವರ	-10.7244
▁ଏମିତି	-10.7244
▁ಆತ	-10.7246
▁ಹೆಚ್ಚಿಸ	-10.7247
▁વિશ્લેષણ	-10.7247
▁പറയുന്ന	-10.7249
ുകളെ	-10.7255
▁पृष्ठ	-10.7262
▁जिन्होंने	-10.7262
ಬಹುದಾಗಿದೆ	-10.7262
લેટ	-10.7264
▁रिकॉर्ड	-10.7264
▁കൈകാര്യം	-10.7264
ହା	-10.7266
ेत	-10.7267
▁ಒಳಗೊಂಡಿರುವ	-10.7268
റുകൾ	-10.7271
ಗೊ	-10.7272
ଧ	-10.7274
▁यूरोप	-10.7274
▁काहीच	-10.7274
▁ಖಂಡಿತವಾಗಿಯೂ	-10.7276
▁बता	-10.7277
પુર	-10.7277
ಯಾಗಿತ್ತು	-10.7278
▁मई	-10.7286
▁ಕಡೆ	-10.7286
▁ಉದ್ದ	-10.7288
ಬೇಕಾಗಿಲ್ಲ	-10.729
▁ઑનલાઇન	-10.729
▁ધીમે	-10.729
▁લશ્કરી	-10.7292
▁ઊંચી	-10.7293
▁तंत्रज्ञान	-10.7293
▁ಆನ್ಲೈನ್ನಲ್ಲಿ	-10.7293
me	-10.7295
▁ब्रिटिश	-10.7296
▁ಬೆಳಿಗ್ಗೆ	-10.7296
સં	-10.7296
ಿದನು	-10.7296
▁അപേക്ഷ	-10.7297
ति	-10.7298
▁ରହି	-10.7298
▁सिनेमा	-10.7302
▁મેનેજમેન્ટ	-10.7302
▁સમજવા	-10.7302
ಟ್ಸ್	-10.7302
▁ओळख	-10.7303
ଙ୍କର	-10.7306
▁ಅಂಡ್	-10.7307
▁അനുഭവ	-10.7308
▁તાજેતરમાં	-10.7309
വെ	-10.7315
▁हत्या	-10.7317
▁खिलाड़ी	-10.7319
▁ಆರಂಭ	-10.732
▁ಸುರಕ್ಷತೆ	-10.7328
▁സംഭവിച്ച	-10.7328
▁ચલાવવા	-10.7329
▁ಲಭ್ಯವಿರುವ	-10.7335
▁પાત્ર	-10.7336
▁ಪಠ್ಯ	-10.7336
▁મુ	-10.7338
▁ಬಳಕೆದಾರ	-10.7339
▁സംരക്ഷിക്ക	-10.7339
രം	-10.734
▁ಹಸಿರು	-10.734
▁ഭൂമി	-10.7341
ിരിക്കുകയാണ്	-10.7341
▁ಇಲ್ಲದಿದ್ದರೆ	-10.7343
▁જીત	-10.7343
▁പരീക്ഷ	-10.7344
િલ	-10.7345
▁ದಾಖಲಿಸ	-10.7346
ायचे	-10.7347
▁യൂണിവേഴ്സിറ്റി	-10.7348
▁नदी	-10.7348
ാനായി	-10.735
▁ಮೌಲ್ಯಮಾಪನ	-10.7351
▁ಸೇವೆಗಳ	-10.7354
▁କରାଯାଇଥିଲା	-10.7354
▁આંખ	-10.7354
▁શૈલી	-10.7355
▁ಸೇಂಟ್	-10.7357
▁ತಕ್ಷಣ	-10.7357
▁જેવું	-10.736
▁ഇതേ	-10.736
▁ಸ್ಪಷ್ಟವಾಗಿ	-10.7362
▁ବଡ଼	-10.7364
സ്ഥ	-10.7364
ହି	-10.7366
▁ಸಿದ್ಧ	-10.7367
▁ನಿಮಗಾಗಿ	-10.7371
ംഗ	-10.7371
टो	-10.7373
▁ಸ್ನೇಹಿತರು	-10.7374
പ്പെടുന്ന	-10.7374
▁ಹತ್ತಿರ	-10.7378
ಥಿ	-10.738
▁ಮತ್ತಷ್ಟು	-10.7382
ಷಿ	-10.7384
କ୍ଷ	-10.7388
▁ઓછો	-10.7388
▁મહિને	-10.7391
▁अभि	-10.7392
▁ગા	-10.7393
▁સપાટી	-10.7393
▁સખત	-10.7394
▁યુનિયન	-10.7394
am	-10.7396
ીસ	-10.7398
▁പോകാൻ	-10.7399
એન	-10.7401
▁എങ്കിൽ	-10.7405
▁हाँ	-10.7407
▁കാഴ്ച	-10.7411
▁ದೈನಂದಿನ	-10.7411
▁ഡ	-10.7415
▁ಸೂಚನೆ	-10.7417
धा	-10.7417
▁ഇയാൾ	-10.742
▁સંગઠન	-10.7422
▁വാഹന	-10.7424
▁ಯೋಗ	-10.7425
▁സംഗീത	-10.7426
ವೋ	-10.7426
ಿಕೊಳ್ಳ	-10.7427
▁യാതൊരു	-10.7429
▁കഴിക്ക	-10.7429
ିଂ	-10.743
▁બરાબર	-10.7432
▁വികസന	-10.7432
ಲ್ಸ್	-10.7434
▁हासिल	-10.7435
▁ತಾಣ	-10.7435
▁तेथे	-10.7437
▁ಮಾಡಿಕೊಳ್ಳ	-10.7438
ವಾಗುತ್ತದೆ	-10.7439
ंचे	-10.7439
▁સોફ્ટવેર	-10.744
ીક	-10.7441
▁ದೇವರು	-10.7442
▁വേറെ	-10.7444
▁ಪ್ರೀತಿಸ	-10.7444
▁नेता	-10.7445
ಯಲ್ಲ	-10.7445
▁ವರ್ಷಕ್ಕೆ	-10.7445
▁ಬಿಜೆಪಿ	-10.7449
▁ജൂൺ	-10.7449
ಪೊ	-10.7451
▁ଦ୍ୱାରା	-10.7451
▁ടിവി	-10.7451
▁ಇವು	-10.7451
▁કલ્પના	-10.7455
▁whatsapp	-10.7458
▁સમીક્ષા	-10.7459
▁જૂની	-10.746
▁പൊലീസ്	-10.7463
▁ബോ	-10.7463
▁દેવ	-10.7464
▁പെൺകുട്ടി	-10.7464
▁ଗ	-10.7465
▁ઘરની	-10.7466
▁ಯಾಕೆ	-10.7467
▁കാണാം	-10.7469
▁ಫುಟ್ಬಾಲ್	-10.7469
െയും	-10.7471
ಿಸಿ	-10.7473
▁નહી	-10.7474
▁ವ್ಯಾಪಕವಾಗಿ	-10.7474
ನಿಯಾ	-10.7475
▁അവസരം	-10.7475
ଣ୍ଡ	-10.7478
▁અનન્ય	-10.7481
ଯ	-10.7483
▁વિગતો	-10.7483
▁ഒരുപക്ഷേ	-10.7484
▁ಸಂಗ್ರಹಿಸ	-10.7485
▁ನಿರಂತರ	-10.7486
▁ನಡೆಸಲು	-10.7487
▁ट	-10.7491
▁ബാക്കി	-10.7492
▁ಕ್ರೀಡೆ	-10.7493
જન	-10.7495
യോഗ	-10.7495
sc	-10.7496
ଅ	-10.7496
▁संपत्ति	-10.7502
▁ಹೊಂದಿದ	-10.7503
દાર	-10.7504
▁ಚೀನಾದ	-10.7505
▁ଧରି	-10.7505
എസ്	-10.7506
▁ಮುನ್ನ	-10.7509
കൊണ്ട്	-10.751
▁ಪ್ರವೇಶಿಸ	-10.751
▁ಒಟ್ಟಾರೆ	-10.7511
തര	-10.7513
▁ಜ್ಞಾನ	-10.7515
▁લેખ	-10.7516
▁લખ્યું	-10.7519
▁કરીશું	-10.7521
▁राह	-10.7522
▁દાયકામાં	-10.7527
▁ನಡೆಯಿತು	-10.7527
▁फे	-10.7529
▁પિ	-10.7532
▁ವಿಷಯದಲ್ಲಿ	-10.7533
ಗಳಷ್ಟು	-10.7533
▁ഞങ്ങള	-10.7533
▁ರೂಪಿಸ	-10.7534
▁ಕಡೆಗೆ	-10.7536
▁നമ്പർ	-10.7537
▁സർ	-10.7537
▁ಎಕ್ಸ್	-10.7539
▁ભવિષ્યમાં	-10.7541
▁ಹಂತದ	-10.7548
▁ವಲಯ	-10.7549
▁વડા	-10.7552
▁നിങ്ങള	-10.7553
▁ವಿಶ್ಲೇಷಣೆ	-10.7554
▁എല്ലായ്പ്പോഴും	-10.7554
▁കമ്പ്യൂട്ടർ	-10.7554
▁લીધે	-10.7554
ുന്നതാണ്	-10.7555
ഐ	-10.7558
▁રાત્રે	-10.756
▁ಹೊತ್ತಿಗೆ	-10.7561
രോ	-10.7563
▁दिसंबर	-10.7563
▁സ്കൂൾ	-10.7563
▁നേടിയ	-10.7565
▁આંખો	-10.7566
ರಿಂಗ್	-10.7566
ಲೈ	-10.7568
ന്ന്	-10.7568
▁ଜଣ	-10.7569
▁വിൻഡോസ്	-10.757
▁ನೀಡಲಾಗಿದೆ	-10.7575
▁പ്രകൃതി	-10.7575
▁देण्यात	-10.7576
▁નિયમ	-10.7578
▁હવા	-10.7583
पो	-10.7583
▁अभिनेता	-10.7584
▁പ്രവർത്തനങ്ങൾ	-10.7586
ીકરણ	-10.7589
ढ	-10.759
▁ઇન્ડિયા	-10.759
▁ડર	-10.7596
▁covid	-10.76
▁ക്യാമറ	-10.7601
▁മതി	-10.7601
▁साली	-10.7601
▁സേവനങ്ങൾ	-10.7603
▁એચ	-10.7603
▁ಹೋಮ್	-10.7607
ଥାଏ	-10.7608
▁પૂરા	-10.7609
▁દુનિયામાં	-10.761
▁प्रकल्प	-10.7611
▁આપ	-10.7612
sa	-10.7613
▁આગ	-10.7614
▁झ	-10.7614
▁हल	-10.7614
പ്പെടുത്ത	-10.7617
▁कंपनियों	-10.7619
▁ಪ್ರಾರಂಭಿಸ	-10.762
▁तेजी	-10.762
▁स्थानीय	-10.7622
▁बिक्री	-10.7622
ಚ್ಚ	-10.7623
com	-10.7624
▁धन	-10.7628
▁ചിലപ്പോൾ	-10.7629
▁ଏପରି	-10.7631
▁दर्द	-10.7632
▁ಬಿಲ್	-10.7634
▁ശക്തമായ	-10.7635
▁સ્ટેશન	-10.7635
ಗಳಿಲ್ಲ	-10.7635
▁વર્ષોથી	-10.7637
ಬಲ್ಲ	-10.7638
▁റഷ്യ	-10.7638
▁एकूण	-10.764
ରୀ	-10.7641
बे	-10.7641
▁ip	-10.7642
ഞ്ഞു	-10.7642
▁વધે	-10.7643
▁૨	-10.7645
▁બીજો	-10.7647
%)	-10.7649
▁जवळ	-10.765
▁ತನ್ನದೇ	-10.7651
▁दृश्य	-10.7652
▁संघर्ष	-10.7652
हे	-10.7653
▁ನ್ಯಾಯ	-10.7653
▁સંઘર્ષ	-10.7655
गर	-10.7656
ಲಾಗುತ್ತಿದೆ	-10.766
▁നേട	-10.766
ಸೇ	-10.766
ಭಾ	-10.7663
▁कोड	-10.7664
માન	-10.7665
ાં	-10.7666
▁ഉൾപ്പെടുന്നു	-10.7666
ುತ್ತಾಳೆ	-10.7667
▁ବିବାହ	-10.767
▁સમુદ્ર	-10.767
▁रहता	-10.767
▁കാലം	-10.7674
▁ನಂತಹ	-10.7674
▁પૃષ્ઠ	-10.7677
▁कमरे	-10.7677
▁ಶುಕ್ರವಾರ	-10.7679
വരുടെ	-10.7681
▁ಬಂಡವಾಳ	-10.7682
▁જુદી	-10.7682
▁सोपे	-10.7682
ಜರ್	-10.7683
▁अंतरिक्ष	-10.7685
▁जण	-10.7685
▁વિમાન	-10.7687
▁રશિયન	-10.7688
▁નહોતી	-10.7691
▁લાવવા	-10.7692
▁सुमारे	-10.7694
▁मिली	-10.7694
▁ಸೇವಾ	-10.7694
▁ಪ್ರಾಣಿ	-10.7695
એફ	-10.7697
▁આરામ	-10.7698
▁ಪರಿಶೀಲಿಸ	-10.7698
ಫೆ	-10.7703
▁ಬಳಸಿಕೊಂಡು	-10.7704
▁ഇന്നത്തെ	-10.7704
▁ಭಾರತಕ್ಕೆ	-10.7705
▁ಫಿ	-10.7705
▁તકનીકી	-10.7709
ആർ	-10.7709
▁ನ್ಯಾಷನಲ್	-10.771
▁ಸೇವೆಯನ್ನು	-10.771
▁റഷ്യൻ	-10.7712
▁ನೆ	-10.7712
ശി	-10.7712
▁ଉଭୟ	-10.7716
▁શરીરમાં	-10.7716
▁ಆಡಲು	-10.7717
▁അനു	-10.7718
▁സ്ത്രീകൾ	-10.772
▁રસી	-10.772
▁ಸೇವೆಗಳು	-10.7721
▁સીધી	-10.7721
▁ದೀರ್ಘ	-10.7721
▁ആവശ്യമായ	-10.7723
gb	-10.7724
▁રન	-10.7726
▁ಭಾಗವಹಿಸ	-10.7727
म्प	-10.7728
▁दुसऱ्या	-10.7729
▁ಆದ್ಯತೆ	-10.773
▁ખ્યાલ	-10.7732
▁ಪ್ರಕರಣ	-10.7733
▁ಹೆಚ್ಚ	-10.7736
ter	-10.7736
गत	-10.7737
ಕಿಂಗ್	-10.7737
▁ଟଙ୍କା	-10.7738
▁ದೃಶ್ಯ	-10.7739
પણે	-10.7741
▁ಮಂತ್ರಿ	-10.7743
▁ಪ್ರಕಟಿಸ	-10.7743
ുകൾക്ക്	-10.7743
▁ತ್ವರಿತ	-10.7743
▁ಮಾಡುವಾಗ	-10.7744
ಲಿಯ	-10.7746
▁ಸಹಾಯಕ	-10.7747
▁परमेश्वर	-10.7747
▁ಚಾಲನೆ	-10.7747
ತೆಗೆದುಕೊಳ್ಳಬಹುದು	-10.7747
▁સંચાલિત	-10.7749
▁फैसला	-10.775
se	-10.7751
▁കഴിയ	-10.7752
▁ସମସ୍ତେ	-10.7753
▁ट्रेन	-10.7753
▁ಸಮಾನ	-10.7754
▁राजनीतिक	-10.7756
▁राज्यों	-10.7757
ുണ്ടോ	-10.7759
▁ಬಿಡ	-10.776
ाशी	-10.776
▁કહેવું	-10.7766
▁ബ്ലോഗ	-10.7769
▁ಬೇಡಿಕೆ	-10.7771
▁ಬ್ಯಾ	-10.7773
▁କା	-10.7777
▁बो	-10.7777
▁પ્રગતિ	-10.7777
▁ತು	-10.7777
▁વડાપ્રધાન	-10.7777
▁પૂરું	-10.7778
▁चर्च	-10.7783
▁कधीही	-10.7784
▁प्रस्ताव	-10.7785
▁ಲಾರ್ಡ್	-10.7786
im	-10.7787
▁ಪ್ರಾ	-10.7787
▁ಲೀಗ್	-10.7795
▁પદ	-10.7796
ತ್ಯ	-10.7796
ಿಕೆ	-10.7799
▁ಡೇ	-10.7801
र्क	-10.7806
▁ಪತ್ರಿಕೆ	-10.7807
▁സന്തോഷ	-10.7808
▁ಮಾಡಿದರೆ	-10.781
▁लाइन	-10.7811
▁ವಿಶ್ರಾಂತಿ	-10.7811
▁बिलियन	-10.7811
▁आर	-10.7812
▁जल्द	-10.7816
▁എന്നീ	-10.7818
▁ಇರಿಸ	-10.7818
▁સેન્ટર	-10.7818
▁રશિયા	-10.7819
▁ഇതിനകം	-10.782
▁ಹೋಲಿಸಿದರೆ	-10.782
▁ಸಂಜೆ	-10.782
ಕಾರಿ	-10.782
▁ಮಧ್ಯಮ	-10.7823
▁એના	-10.7823
▁बँक	-10.7823
▁ಹೆಚ್ಚಳ	-10.7824
▁औषध	-10.7827
ವೆಲ್	-10.7828
റാ	-10.7828
▁જીવ	-10.7829
ಹೋಗ	-10.7829
પ્લ	-10.7831
સ્ક	-10.7831
▁ಮೋ	-10.7832
▁કૉલ	-10.7837
▁મુશ્કેલી	-10.7838
▁માલ	-10.7839
▁ಪುಟ	-10.7839
▁କହି	-10.784
▁ઘ	-10.7842
▁હકીકતમાં	-10.7843
▁उत्पन्न	-10.7844
▁પ્રાચીન	-10.785
▁ನಿರಂತರವಾಗಿ	-10.7851
▁जानता	-10.7853
▁सांग	-10.7853
▁મહત્તમ	-10.7856
▁തരത്തിലുള്ള	-10.7856
▁तुम्हारे	-10.7857
ഫി	-10.7858
▁देगा	-10.7858
ગર	-10.7861
▁ജൂലൈ	-10.7862
ನಾದ	-10.7862
▁कठीण	-10.7865
▁मौजूद	-10.7866
शास्त्र	-10.7869
णं	-10.7869
▁ലാ	-10.787
▁ദി	-10.7872
▁ಹೆಸರಿನ	-10.7872
▁ನಿಯಮಗಳು	-10.7873
▁डाल	-10.7874
डो	-10.7875
▁લીધા	-10.7878
▁ಚರ್ಚಿಸ	-10.7878
▁ಬೋ	-10.7878
▁ભાગો	-10.7881
▁ನರೇಂದ್ರ	-10.7886
സ്ക	-10.7888
▁मीटर	-10.7892
हो	-10.7894
▁ಮೀಟರ್	-10.7899
▁ಪ್ರಕ್ರಿಯೆಯನ್ನು	-10.7904
▁હાર્ડ	-10.7906
▁वित्त	-10.7908
▁ಆಚರಣೆ	-10.7908
તિહાસિક	-10.7911
▁ದಾಖಲೆ	-10.7912
▁પદ્ધતિઓ	-10.7913
▁उठ	-10.7916
▁ಅನುಗುಣವಾಗಿ	-10.7917
एफ	-10.7917
▁ജോ	-10.7918
▁ಅನುಭವವನ್ನು	-10.7925
▁ಮಹಿಳೆಯರಿಗೆ	-10.7926
▁आधी	-10.7928
▁ಬಿಳಿ	-10.7928
▁छोटा	-10.7929
▁ಕೆಲ	-10.793
▁દર્દી	-10.793
▁ಕನಿಷ್ಟ	-10.7932
▁ପାଖରେ	-10.7933
▁ಅವಲಂಬಿಸಿ	-10.7935
▁બાકીના	-10.7936
▁एक्स	-10.7937
▁ಹೇಳುತ್ತದೆ	-10.7941
▁വെബ്സൈറ്റ്	-10.7943
▁പൊ	-10.7944
▁વચ્ચેના	-10.7945
▁ഉണ്ടാക	-10.7947
▁आधिकारिक	-10.7947
▁હિસ્સો	-10.7947
त्व	-10.7949
▁सफल	-10.7949
▁ತಂದೆಯ	-10.7951
de	-10.7953
ನಿಕ್	-10.7954
ps	-10.7954
ाना	-10.7955
▁കണ്ണ	-10.7959
▁സാമൂഹിക	-10.796
▁ಆಯೋಜಿಸ	-10.796
▁आहार	-10.796
▁हमारा	-10.7966
ാനാകും	-10.7969
ंत	-10.7969
ത്തന്നെ	-10.797
▁વપરાશ	-10.7971
ದಾ	-10.7971
▁ಹರಡ	-10.7971
▁കമ്പനിയുടെ	-10.7973
സം	-10.7975
ಯಂತೆ	-10.7975
ಘ	-10.7976
▁ದೂರು	-10.7976
▁કંપનીએ	-10.7977
व्या	-10.798
▁ಬಳಕೆಯ	-10.7982
▁થતી	-10.7982
▁सहमत	-10.7983
▁वातावरण	-10.7984
ેટ	-10.7987
▁ದೇವಾಲಯ	-10.7987
▁सिंह	-10.7989
▁સ્માર્ટફોન	-10.799
▁ફે	-10.799
▁लो	-10.7991
▁રોકવા	-10.7994
▁बने	-10.7995
▁लगाया	-10.7996
▁થ	-10.7997
▁ನೋಡಬಹುದು	-10.8
▁ठिकाणी	-10.8002
રૂપ	-10.8004
▁ಎಚ್ಚರಿಕೆ	-10.8005
▁ಮೊದಲಿಗೆ	-10.8006
जो	-10.8008
▁યોગદાન	-10.8009
ac	-10.8009
▁ಜಪಾನ್	-10.8011
ಗನ್	-10.8012
▁ಸ್ವರೂಪ	-10.8013
▁ವ್ಯಾಖ್ಯಾನ	-10.8015
▁ಗಳಿಸ	-10.8015
▁सत्य	-10.8016
ದಾರ	-10.8017
▁સુધારવા	-10.8018
▁ಆಧರಿಸಿ	-10.8024
na	-10.8024
ेगा	-10.8024
▁दावा	-10.8025
ान	-10.8027
▁ବିଭିନ୍ନ	-10.8027
▁നിനക്ക്	-10.8029
▁जिसने	-10.8029
▁ಬೀರುತ್ತದೆ	-10.803
ળી	-10.8031
▁ಭೂ	-10.8031
▁किमान	-10.8031
▁ടോ	-10.8032
▁पु	-10.8032
▁ઓપન	-10.8033
▁કરવાથી	-10.8033
▁प्राकृतिक	-10.8033
▁શ્રી	-10.8033
▁ହୋଇଥିବା	-10.8034
▁ತಲುಪ	-10.8035
और	-10.8035
પણ	-10.8036
▁ગતિ	-10.8038
ଶା	-10.804
▁କରନ୍ତି	-10.804
ce	-10.804
▁ವಸ್ತುಗಳ	-10.8042
▁नजर	-10.8046
▁ഇതൊരു	-10.8047
▁രോഗം	-10.8047
▁કરનાર	-10.8047
▁शांत	-10.805
▁जॉन	-10.8051
▁સ્પર્ધા	-10.8055
▁अजूनही	-10.8055
▁ಸಿಂಗ್	-10.8056
▁कठिन	-10.8061
▁ଆବଶ୍ୟକ	-10.8062
शे	-10.8066
▁શૈક્ષણિક	-10.8067
▁ದೇಹ	-10.8072
▁सेक्स	-10.8073
▁ಸಹಕಾರ	-10.8074
▁જાતે	-10.8074
▁બનશે	-10.8077
▁ಆಚರಿಸ	-10.808
▁યોજનાઓ	-10.8082
▁खास	-10.8083
▁ತಾಪಮಾನ	-10.8085
▁ഇഷ്ട	-10.8086
▁വിൽപ്പന	-10.8086
▁मुख्यमंत्री	-10.8086
▁प्रो	-10.8087
▁संप	-10.8088
▁ಭಾವನೆ	-10.8091
ುತ್ತ	-10.8094
▁રાત	-10.8094
▁ಆಟಗಾರ	-10.8095
ന്ത	-10.8096
▁ಅಂಗ	-10.8098
▁ಫ್ರಾನ್ಸ್	-10.8098
▁ಹೊಂದಲು	-10.8099
ીએ	-10.8099
▁നടത്തി	-10.81
ंद	-10.8103
▁വിവാഹ	-10.8105
▁उघड	-10.8106
▁നിൽക്ക	-10.811
▁ನಿರ್ದಿಷ್ಟವಾಗಿ	-10.8113
▁മാറ്റങ്ങൾ	-10.8114
കാ	-10.8115
▁ಮೀನು	-10.8116
ವಾಗಿಲ್ಲ	-10.8122
▁લી	-10.8123
▁പകരം	-10.8125
▁જણાવ્યા	-10.813
▁ಮುಂಚಿತವಾಗಿ	-10.8133
▁വാർത്ത	-10.8133
▁सुपर	-10.8133
▁प्रौद्योगिकी	-10.8136
▁ಕರ್ತವ್ಯ	-10.8136
▁എടുത്ത	-10.8137
▁કોર્ટ	-10.814
▁കി	-10.8143
▁गीत	-10.8144
▁પ્રધાન	-10.8145
▁फरक	-10.8145
▁ಪ್ರೀತಿಸುತ್ತೇನೆ	-10.8146
▁വിട	-10.8148
▁श्रेणी	-10.8149
രുടെ	-10.8149
പാ	-10.8149
▁થતો	-10.8152
▁ചിലർ	-10.8154
▁कांग्रेस	-10.8154
▁ചെയ്യണം	-10.8157
▁ശരാശരി	-10.8164
▁അക്കൌണ്ട്	-10.8166
▁સમૂહ	-10.8166
▁ആകെ	-10.8167
▁સ્થિતિમાં	-10.8167
▁സൈനിക	-10.8171
निक	-10.8173
▁કરેલ	-10.8173
▁ವಾರದ	-10.8175
▁मानक	-10.8176
▁ಪಾತ್ರವನ್ನು	-10.8177
▁અંદાજ	-10.8177
▁ന്യൂ	-10.8178
▁ಬಣ್ಣದ	-10.8179
▁बयान	-10.818
▁ആരാണ്	-10.8182
▁એકલા	-10.8183
▁ദിനം	-10.8185
▁अप्रैल	-10.8186
ଦା	-10.8187
▁୧୦	-10.8187
▁ವಿವರಣೆ	-10.8189
▁പെ	-10.8195
ുമെന്നാണ്	-10.8195
▁ଦଳ	-10.8197
▁रखते	-10.82
▁ಸಾಧಿಸಲು	-10.8201
▁സംഭവം	-10.8203
▁નેતા	-10.8205
▁शैली	-10.8208
▁ಶಬ್ದ	-10.8208
▁ಓದಿ	-10.8213
▁એડ	-10.8216
▁ಪರಿಚಯಿಸ	-10.8224
ದೇಶ	-10.8226
▁उठा	-10.8227
▁ଆମର	-10.8228
▁നിന്നാണ്	-10.8229
कल	-10.8229
ಚೆ	-10.8229
ಲ್ಪಟ್ಟಿದೆ	-10.8231
▁दल	-10.8231
▁ಭದ್ರತೆ	-10.8231
▁सहयोग	-10.8233
श्	-10.8234
▁असल्यास	-10.8234
▁ಆಟಗಾರರು	-10.8236
▁ಇದಲ್ಲದೆ	-10.8238
▁जि	-10.824
▁തീരുമാനം	-10.824
▁അടിസ്ഥാനമാക്കി	-10.8242
रण	-10.8242
▁କାହିଁକି	-10.8242
പോക	-10.8243
▁बढ़ा	-10.8245
મ્બ	-10.8245
▁വിശ്വസിക്ക	-10.8245
ಥ್	-10.8247
▁આશ્ચર્ય	-10.8248
▁विदेश	-10.8249
ോടൊപ്പം	-10.8249
▁आहेस	-10.8252
▁ഇന്നലെ	-10.8252
ନ୍ତି	-10.8253
▁ಮಾಡುತ್ತೇವೆ	-10.8253
▁ଘର	-10.8256
mo	-10.8259
▁କରିବ	-10.826
▁ಶುಲ್ಕ	-10.8262
▁ആറ്	-10.8263
▁ನಿರಾಕರಿಸ	-10.8264
▁അനുസരിച്ച്	-10.8264
▁ಸಂಶೋಧನಾ	-10.8264
ಪು	-10.8268
▁ഗവേഷണ	-10.8269
▁യുദ്ധം	-10.8269
കളിലും	-10.827
ne	-10.8271
▁നിക്ഷേപ	-10.8273
റെ	-10.8274
▁વર્ગ	-10.8275
▁व्हिडिओ	-10.8277
▁നവംബർ	-10.8277
▁बनने	-10.8279
▁ಸೂರ್ಯನ	-10.8282
▁ઓર્ડર	-10.8283
▁दिशा	-10.8284
▁ಕಳೆಯ	-10.8285
ೆಲ್ಲ	-10.8286
ുകയില്ല	-10.8288
▁અધિકારો	-10.8288
ाल	-10.8289
▁ബാങ്ക	-10.8292
▁ತಾವು	-10.8293
▁ಬದಲಾವಣೆಗಳನ್ನು	-10.8295
▁अन	-10.8295
sp	-10.8297
▁ಒಳಗಾಗ	-10.8299
▁केलेल्या	-10.8301
▁ಒಬ್ಬರು	-10.8305
ಸರ	-10.8306
▁સજા	-10.8306
▁बिल	-10.8308
▁പരാതി	-10.8309
ಹೋ	-10.8312
▁ଏଠାରେ	-10.8312
ગ્	-10.8312
▁कं	-10.8313
▁रख	-10.8313
യാണെന്ന്	-10.8316
▁ಬಳಕೆದಾರರಿಗೆ	-10.8317
▁ഇരുവരും	-10.8318
▁ಕಂಡುಹಿಡಿಯಲು	-10.832
▁തുറക്ക	-10.832
▁ಅಗತ್ಯವಿರುತ್ತದೆ	-10.8322
▁രണ്ട	-10.8324
▁બચાવવા	-10.8324
▁इसी	-10.8325
▁ಸಾವಿನ	-10.8325
▁വർഷവും	-10.8328
▁ಕ್ರಿಯೆ	-10.8328
▁उनमें	-10.8328
▁બ્રાન્ડ	-10.8328
▁આહાર	-10.8329
▁ಗಾ	-10.8331
▁സഹായിക്കും	-10.8332
വു	-10.8332
▁ಕಲಿಯ	-10.8334
ദാ	-10.8334
▁संविधान	-10.8334
▁છબી	-10.8334
▁ಒಕ್ಕೂಟ	-10.8335
▁കുറയ്ക്ക	-10.8336
▁ಬೃಹತ್	-10.8337
▁ಲೈನ್	-10.8343
▁વીડિયો	-10.8344
▁സുരക്ഷാ	-10.8345
▁ಗೃಹ	-10.8347
▁അതേസമയം	-10.8347
▁ମେ	-10.8348
वें	-10.835
▁ಎಂದಿದ್ದಾರೆ	-10.835
▁काल	-10.8352
▁आए	-10.8353
▁जल्दी	-10.8354
▁परिस्थिती	-10.8354
▁आत	-10.8356
പോ	-10.8356
▁દૈનિક	-10.8356
▁તકો	-10.8357
वरील	-10.8359
ंमध्ये	-10.8368
ro	-10.8371
▁ಸಿಗ	-10.8374
▁અનુકૂળ	-10.8375
▁नोकरी	-10.8376
▁ಪ್ರಮಾಣವನ್ನು	-10.8377
▁ಉತ್ಪನ್ನಗಳ	-10.8378
▁गुण	-10.8379
▁चांगली	-10.8379
▁બાહ્ય	-10.8379
▁જનરલ	-10.8379
▁सिर	-10.838
▁ટો	-10.8382
▁विदेशी	-10.8382
ts	-10.8383
▁ಸ್ಥಿರ	-10.8384
▁मुली	-10.8385
▁लगातार	-10.8385
▁પરિબળો	-10.8385
▁ଉପ	-10.8387
▁ഫലം	-10.8391
▁आदि	-10.8392
र्म	-10.8393
▁क्र	-10.8393
▁ಉತ್ಪಾದನೆ	-10.8395
ರುತ್ತದೆ	-10.8395
▁ವೇದಿಕೆ	-10.8395
▁રહેવું	-10.8396
▁അവരിൽ	-10.8399
ation	-10.8402
ಥಾ	-10.8403
▁जमा	-10.8406
യിലൂടെ	-10.8406
▁ಉಪಯುಕ್ತ	-10.8408
▁रहना	-10.8409
▁नियमित	-10.841
ಿಸುತ್ತದೆ	-10.8411
▁લાઇન	-10.8412
તાં	-10.8414
▁ಕಾಯ್ದೆ	-10.8419
रु	-10.842
त्य	-10.8421
ક્યુ	-10.8422
പോലെ	-10.8424
▁ಪರ್ವತ	-10.8427
બર	-10.8428
▁જર્મન	-10.8428
▁ಬಾಹ್ಯಾಕಾಶ	-10.843
▁ಸಂಭಾವ್ಯ	-10.843
▁કસરત	-10.8433
▁ગૂગલ	-10.8433
▁ಹೆಂಡತಿ	-10.8434
▁ಸೋಮವಾರ	-10.8436
એચ	-10.8437
▁വൈറസ്	-10.8441
▁स्प	-10.8443
ल्स	-10.8445
ಶನ್	-10.8445
▁ವಿಧದ	-10.8449
▁स्रोत	-10.8449
▁me	-10.8449
▁પ્રભાવિત	-10.845
▁ದೆಹಲಿ	-10.8451
मैन	-10.8452
▁പേരിൽ	-10.8453
െന്നു	-10.8454
▁शारीरिक	-10.8456
▁ಹೇಳುವ	-10.8456
▁મિશન	-10.8456
ಧಿ	-10.8458
▁विश्लेषण	-10.8459
ગી	-10.846
ಹು	-10.8461
▁വ്യക്തിഗത	-10.8462
▁മാറ	-10.8463
▁બાળકને	-10.8465
▁સંદેશ	-10.8466
▁ಬಾಹ್ಯ	-10.8468
▁ବ୍ୟକ୍ତି	-10.8468
os	-10.8469
ವನು	-10.847
▁മുടി	-10.847
▁चीनी	-10.8473
▁न्याय	-10.8475
▁ಶಾಲಾ	-10.8477
▁ವೃತ್ತಿ	-10.8479
▁ಜಗತ್ತಿನ	-10.8481
▁ବେଳେ	-10.8482
▁ફરજ	-10.8483
▁ಇಲ್ಲಿದೆ	-10.8484
▁આપવાની	-10.8484
ില്ലെന്ന്	-10.8484
▁બન્યું	-10.8485
▁बातचीत	-10.8485
ઘ	-10.8486
▁आसपास	-10.8488
▁સીધા	-10.8488
▁ಪ್ರತಿಯೊಬ್ಬರೂ	-10.8489
ಹೆ	-10.8489
▁രാജ്യങ്ങളിൽ	-10.849
ക്സ	-10.8491
▁હાઉસ	-10.8492
▁नोट	-10.8493
▁ಬಯಸುತ್ತೇನೆ	-10.8496
▁दु	-10.8497
▁വായ്പ	-10.8497
ಕೊಳ್ಳ	-10.8498
▁റോ	-10.8499
▁उत्तम	-10.8501
ഹാ	-10.8502
▁उपाय	-10.8502
▁ಸ್ಮಾರ್ಟ್ಫೋನ್	-10.8504
ેલી	-10.8505
▁ಆತ್ಮ	-10.8505
▁ન્યુ	-10.8506
▁କେନ୍ଦ୍ର	-10.8507
▁ಬದಲಾಗ	-10.8508
ಿದ್ದವು	-10.8508
▁માલિક	-10.8508
േണ്ടി	-10.8509
ലുകൾ	-10.8509
▁હોટેલ	-10.8511
▁വിശ്വാസ	-10.8513
▁મળીને	-10.8513
▁vi	-10.8514
▁ಭಾಗದಲ್ಲಿ	-10.8515
▁എയർ	-10.8515
द्वारे	-10.8516
ಖಚಿತಪಡಿಸಿಕೊಳ್ಳಲು	-10.8517
▁फ़	-10.8518
▁ಸ್ಪರ್ಧೆ	-10.8521
▁ગેમ	-10.8521
▁ಸುಧಾರಿಸಲು	-10.8523
▁पूर्वी	-10.8524
▁સાઇટ્સ	-10.8524
▁नौकरी	-10.8524
▁સંરક્ષણ	-10.8527
ସା	-10.8527
▁ಸರ್ವರ್	-10.853
ମାନ	-10.8537
▁साजरा	-10.854
▁ભાગીદારી	-10.854
ക്കാര	-10.8541
കു	-10.8541
പരമായ	-10.8542
▁മെച്ചപ്പെടുത്ത	-10.8542
▁ಮಾತುಕತೆ	-10.8543
▁ઑ	-10.8544
▁പ്രായ	-10.8544
ेंट	-10.8545
▁ಸ್ಥಾನವನ್ನು	-10.8545
ग्	-10.8546
▁ಹೆಚ್ಚಿಸುತ್ತದೆ	-10.8548
▁നമുക്ക	-10.8549
▁નદી	-10.855
▁ઘટનાઓ	-10.855
▁ಪ್ರಗತಿ	-10.8551
▁રા	-10.8552
▁ଭିତରେ	-10.8553
▁ಗಾಲ್ಫ್	-10.8553
▁ಬು	-10.8554
▁ഇതാ	-10.8555
▁बरेच	-10.8557
ನ್ಯಾ	-10.8557
▁ഫല	-10.8558
▁ಸದಸ್ಯರ	-10.8559
િકા	-10.8561
લિંગ	-10.8562
▁झोप	-10.8564
▁ಒಳಗೊಂಡಂತೆ	-10.8567
▁ಸೆಟ್	-10.857
▁ಹೊಂದಿರಬೇಕು	-10.8571
ದಲ್ಲಿದೆ	-10.8572
▁નિષ્ફળ	-10.8572
▁अद्याप	-10.8573
▁आण	-10.8575
▁ઉંમરના	-10.8576
▁ખા	-10.8577
▁આકાર	-10.8577
ियो	-10.8578
▁परिषद	-10.8579
▁पुरुषों	-10.8585
▁പരമാവധി	-10.8585
ಚು	-10.8585
▁लाल	-10.8586
▁પ્રવાહ	-10.8587
▁ट्रम्प	-10.8589
▁કાગળ	-10.8592
▁ಪ್ರವೇಶವನ್ನು	-10.8592
▁ધ્યેય	-10.8593
▁ലി	-10.8596
▁ನಿರ್ದೇಶಕ	-10.8596
േഴ്സ്	-10.8597
▁विरोध	-10.8598
▁ಮರದ	-10.86
േയും	-10.8601
▁क्षण	-10.8603
▁ରଖି	-10.8603
▁ನೋಟ	-10.8603
▁കുട്ടികളുടെ	-10.8604
▁म्हटले	-10.8605
▁કોઈને	-10.8606
▁शानदार	-10.8608
▁ഓർമ്മ	-10.8608
▁മൊത്തം	-10.861
▁मुलगी	-10.8611
▁મેનેજર	-10.8618
િસ્ટ	-10.8618
▁પુરાવા	-10.8619
▁ഏതു	-10.8619
▁उत्कृष्ट	-10.8621
▁ಶೀಘ್ರದಲ್ಲೇ	-10.8621
▁રાખવું	-10.8622
▁ಶಕ್ತಿಯ	-10.8623
▁ಪರ	-10.8624
▁न्यूयॉर्क	-10.8624
ટલ	-10.8626
▁ગ્રાહકોને	-10.8627
▁കുടുംബം	-10.8627
▁പണി	-10.8627
▁वर्ल्ड	-10.8629
▁ഒഴിവാക്ക	-10.8629
▁കര	-10.8631
કારો	-10.8631
▁ಪಟ್ಟಿಯನ್ನು	-10.8631
▁એને	-10.8632
ല്ലേ	-10.8632
▁ಏಕ	-10.8634
▁ಪೂರಕ	-10.8634
▁ಸ್ನೇಹಿತ	-10.8635
▁મહત્વ	-10.8635
▁ತ್ವರಿತವಾಗಿ	-10.8636
▁जगात	-10.8636
▁ಜಾಹೀರಾತು	-10.8639
▁ಕೇಳಲು	-10.8642
▁શહેરમાં	-10.8648
▁बचा	-10.8649
ಾತ್ಮಕ	-10.865
▁जरूरी	-10.865
▁ಬಯಸುವುದಿಲ್ಲ	-10.8653
▁सूर्य	-10.8654
▁അൽ	-10.8655
▁પ્રદેશ	-10.8659
▁ചാ	-10.866
वत	-10.8661
▁કોરોના	-10.8661
▁विवरण	-10.8663
ನಮ್ಮ	-10.8665
▁पार्क	-10.8667
ಫರ್	-10.8667
▁नेहमीच	-10.8668
▁ಮಾತನಾಡಲು	-10.8669
▁ഇനിയും	-10.8669
ಜು	-10.867
▁അവള	-10.867
▁ചോദിക്ക	-10.867
▁ಕೇಳಿ	-10.8672
▁କରେ	-10.8672
▁हृदय	-10.8674
▁विजय	-10.8674
▁સત્ય	-10.8674
▁प्रशासन	-10.8676
സെ	-10.8677
▁सफलता	-10.8678
▁ಕೈಗಾರಿಕಾ	-10.8679
ಸ್ಟಾ	-10.868
▁કેમેરા	-10.868
ഓ	-10.8681
▁ಹೆಣ್ಣು	-10.8681
▁बजे	-10.8682
▁കേട്ട	-10.8686
ti	-10.8686
ಗಳನ್ನೂ	-10.869
▁રંગો	-10.869
▁രാജ്യത്ത്	-10.8692
▁કાળા	-10.8695
ચે	-10.8695
वादी	-10.8696
ಗಳಾದ	-10.8699
▁વધારાની	-10.8699
▁ಒಳ	-10.87
▁ಲಂಡನ್	-10.8702
▁दवा	-10.8704
▁ഷോ	-10.8705
ಗೊಳ್ಳ	-10.8708
बल	-10.8709
▁ತಿಳಿಸಿದರು	-10.871
▁ಅನುವು	-10.871
▁क्रेडिट	-10.8713
▁തുക	-10.8714
▁પુખ્ત	-10.8717
▁സഹായിക്ക	-10.872
ണ്ണ	-10.872
▁यु	-10.8722
▁અધિકારીઓ	-10.8722
▁ತಮ್ಮದೇ	-10.8723
િકલ	-10.8723
▁अनुसंधान	-10.8723
ଦ୍	-10.8723
▁પાર્ક	-10.8725
▁દેવા	-10.8725
▁બ્રિટિશ	-10.8726
ાયેલા	-10.8728
▁પામ્યા	-10.8728
▁ಇಂಗ್ಲೆಂಡ್	-10.8728
▁ಪರಮಾಣು	-10.8733
▁आराम	-10.8734
▁चीज	-10.8734
▁तकनीक	-10.8736
▁निर्देश	-10.8736
▁ഉപയോഗിച്ച	-10.8738
▁वर्षीय	-10.8738
▁તૈયારી	-10.8739
▁ಅವಲಂಬಿಸಿರುತ್ತದೆ	-10.874
▁ನಾಟಕ	-10.8746
▁സാങ്കേതികവിദ്യ	-10.8748
▁ഡോ	-10.8749
દુ	-10.8749
▁എളുപ്പത്തിൽ	-10.8749
लर	-10.875
▁કરતો	-10.8751
▁ಹಾಡ	-10.8752
ai	-10.8752
▁સ્થાને	-10.8753
▁ಉತ್ಪಾದನಾ	-10.8753
▁અહેવાલ	-10.8755
▁અગત્યનું	-10.8755
▁वही	-10.8765
▁ಆಗಿರಬಹುದು	-10.8766
▁जाएंगे	-10.8768
▁ಡ	-10.8768
▁રમી	-10.8769
▁ಪವಿತ್ರ	-10.8769
▁रोज	-10.8769
ുണ്ടായ	-10.877
▁अधिकारियों	-10.8772
▁નવો	-10.8773
▁बिजली	-10.8773
▁પાછો	-10.8773
▁फॉर्म	-10.8774
ത്തിന	-10.8775
▁for	-10.8776
▁ಸಂಬಂಧವನ್ನು	-10.8778
▁જવું	-10.8779
▁ಅನುಕೂಲ	-10.8781
▁ಗೆದ್ದ	-10.8781
▁खराब	-10.8782
▁માસિક	-10.8787
ത്തിന്റെയും	-10.8787
▁പരിശോധന	-10.8788
▁ഹൃദയ	-10.8788
▁പ്രായം	-10.8789
bi	-10.879
▁રાજ્યમાં	-10.8791
▁રમવા	-10.8792
▁ಹುಡುಕಲು	-10.8792
▁ಮಂಡಳಿ	-10.8794
▁ವೆ	-10.8795
ସେ	-10.8799
▁നിർമ്മിച്ച	-10.8799
ેન	-10.8803
▁નકારાત્મક	-10.8806
▁નવ	-10.8806
▁સ્ટાર	-10.8807
▁ಕಂ	-10.8807
▁मोठे	-10.881
▁करावे	-10.8813
▁दोस्तों	-10.8813
▁વિશ્વભરમાં	-10.8816
ଷ୍ଟ	-10.8818
▁ജനങ്ങൾ	-10.882
▁કનેક્ટ	-10.882
▁വരുത്ത	-10.882
▁ಆಯ್ಕೆಯನ್ನು	-10.8821
▁શીખવા	-10.8822
▁ಬೇಡ	-10.8823
▁करार	-10.8823
▁ವಿಧಾನವನ್ನು	-10.8823
▁સ્વરૂપ	-10.8824
ब्ल	-10.8825
രിയ	-10.8825
▁યુરોપિયન	-10.8828
ർക്ക	-10.8828
▁ಗುಂಪಿನ	-10.8831
ನೆಟ್	-10.8836
▁ബ്രിട്ടീഷ്	-10.8836
ch	-10.8837
▁पड़ता	-10.8839
▁मास्टर	-10.884
▁માથા	-10.884
ಿಗ	-10.8842
▁બિંદુ	-10.8843
▁તેવું	-10.8843
▁પ્રધાનમંત્રી	-10.8844
രിക്ക	-10.8844
પૂર્વક	-10.8844
▁સૈનિકો	-10.8844
▁એપ	-10.8845
ಲ್ಪಡುತ್ತದೆ	-10.8845
▁पदार्थ	-10.8846
ನಂತೆ	-10.8846
▁સેના	-10.885
▁ಗಮನಿಸ	-10.8851
पन	-10.8851
ळा	-10.8852
കൂടി	-10.8853
▁શરીરના	-10.8854
▁શિક્ષક	-10.8856
▁ടീം	-10.8857
▁ನೀಡಿದ್ದಾರೆ	-10.8857
▁ଭାରତରେ	-10.8858
▁ಅಂಗಡಿ	-10.886
▁मान्यता	-10.886
▁स्वप्न	-10.886
▁പരിധി	-10.886
ാനാവില്ല	-10.8861
ીના	-10.8862
ರೀ	-10.8862
▁ડાય	-10.8862
▁मौसम	-10.8863
ാണിത്	-10.8863
▁पो	-10.8866
▁ನಿಮಿಷ	-10.8867
▁મકાન	-10.8867
▁સાફ	-10.8868
▁രക്ഷ	-10.887
▁ವ್ಯವಹಾರವನ್ನು	-10.887
ಸ್ಥ	-10.8871
▁അതൊരു	-10.8871
ತ್ವ	-10.8872
▁ആശങ്ക	-10.8873
ಂಕ್	-10.8873
▁രാജ്യം	-10.8875
ચર	-10.8875
▁મૂકવામાં	-10.8876
▁२०१	-10.8878
▁ಕಾಫಿ	-10.8881
▁pro	-10.8883
▁വിഷയ	-10.8886
▁ವ್ಯಾಪಕ	-10.8887
▁ലോ	-10.8888
अप	-10.8889
▁मुलगा	-10.889
▁ಅಂಶಗಳು	-10.8891
ಗಳಂತೆ	-10.8893
▁തുറന്നു	-10.8893
▁മരണം	-10.8898
▁સર	-10.8899
▁പോസ്റ്റ	-10.8899
▁ചെലവ	-10.89
▁કાનૂની	-10.8902
▁ಚಿಕಿತ್ಸೆಯ	-10.8904
▁હોસ્પિટલમાં	-10.8906
▁ನಿರ್ಧರಿಸಲು	-10.8908
▁ಹೌಸ್	-10.8909
▁હોવો	-10.8912
▁તને	-10.8912
▁പുറത്ത്	-10.8912
ट्स	-10.8916
▁ഉടൻ	-10.8917
▁ମି	-10.8918
▁ರಕ್ಷಿಸ	-10.8919
മായിരിക്കും	-10.8919
धार	-10.8921
▁એપ્લિકેશન્સ	-10.8921
▁મીટર	-10.8921
▁જુ	-10.8923
▁ವಿರೋಧಿ	-10.8924
▁યુનાઈટેડ	-10.8925
▁शक्यता	-10.8925
▁गिर	-10.8925
▁സൌജന്യ	-10.8926
▁શ્વાસ	-10.8927
▁लेना	-10.8927
▁ದ್ವೀಪ	-10.8928
▁घेऊ	-10.8928
▁મિલકત	-10.893
▁ವಿವಾದ	-10.8932
▁એવોર્ડ	-10.8932
નર	-10.8934
▁जानेवारी	-10.8934
▁महिन्या	-10.8934
▁ആക	-10.8935
ଗୁଡ଼ିକ	-10.8937
▁વિકસિત	-10.8937
▁ಹಣಕಾಸಿನ	-10.8937
ଣ୍ଟ	-10.8937
▁ಪುರುಷರ	-10.8938
ત્	-10.894
▁અત્યારે	-10.894
ावे	-10.894
▁ഹെ	-10.8941
▁അതായത്	-10.8942
▁ನಿನಗೆ	-10.8942
▁बढ़ाने	-10.8943
▁ಕಲ್ಪನೆ	-10.8943
र्ड	-10.8943
▁ಸಮಿತಿ	-10.8944
▁पाठ	-10.8945
िम	-10.8945
▁ફોટા	-10.8946
ಧಾ	-10.8946
ಟಲ್	-10.8948
▁ಬಂಧಿಸ	-10.8949
▁ಆಫ್ರಿಕಾ	-10.8951
▁डिवाइस	-10.8954
▁ಸ್ಟೇಟ್ಸ್ನಲ್ಲಿ	-10.8954
▁ଏଭଳି	-10.8954
▁બનાવો	-10.8955
ുന്നതിനു	-10.8957
▁വർദ്ധിപ്പിക്ക	-10.896
▁વાંચવા	-10.8961
െടുക്ക	-10.8962
▁രൂപകൽപ്പന	-10.8964
▁സോഫ്റ്റ്വെയർ	-10.8964
▁વળતર	-10.8964
▁വർഷമായി	-10.8964
▁૨૦૧	-10.8964
ળા	-10.8965
▁ಸಂಬಂಧಿತ	-10.8966
▁રચાયેલ	-10.8967
मधून	-10.8969
▁കിട്ട	-10.8969
▁મર્યાદા	-10.897
▁ಪ್ರತಿಶತದಷ್ಟು	-10.8971
▁એરપોર્ટ	-10.8971
ca	-10.8971
▁ಸ್ಟಾರ್	-10.8971
an	-10.8973
ಲಿನ್	-10.8973
ୂ	-10.8979
▁തുറന്ന	-10.8979
र्ज	-10.8984
खा	-10.8984
▁રિલીઝ	-10.8984
▁ಪರಿ	-10.8987
▁ತುರ್ತು	-10.8988
୩	-10.8988
▁സാധിക്ക	-10.899
ಕೇ	-10.8993
േറ്റ	-10.8993
▁પ્લાન	-10.8994
▁ପ୍ରଦାନ	-10.8995
▁ಇತಿಹಾಸದಲ್ಲಿ	-10.8996
ಸ್ತ	-10.8997
▁ചരിത്രം	-10.8997
▁ಜಲ	-10.8998
▁देत	-10.8998
▁બચત	-10.8999
▁ಬಂದು	-10.9
റേ	-10.9003
▁ಲ್ಯಾ	-10.9006
▁ಸಂಯೋಜನೆ	-10.9006
▁જ્હોન	-10.9007
द्र	-10.9007
▁ಮಿತಿ	-10.9009
स्प	-10.9012
▁ಮನವಿ	-10.9013
▁રેખા	-10.9014
▁જણાવે	-10.9015
બુ	-10.9015
नं	-10.9017
▁പഠിക്ക	-10.9017
▁હાઈ	-10.9017
▁କରାଯିବ	-10.9017
ಲ್ಯಾಂಡ್	-10.9017
▁ನೋಂದಣಿ	-10.9018
▁ಡೈ	-10.9022
ಸ್ಟಿ	-10.9025
▁હુમલા	-10.9025
▁ಒದಗಿಸಲು	-10.9026
▁લેવાય	-10.9028
യോട്	-10.9029
▁ജല	-10.9029
ಬಲ್	-10.9032
▁भिन्न	-10.9032
▁ಪರಿಶೀಲಿಸಿ	-10.9033
▁इन्	-10.9034
▁ಬೆಂಕಿ	-10.9034
▁उसी	-10.9035
▁स्वस्थ	-10.9036
▁મેળવે	-10.9037
▁ರಹಸ್ಯ	-10.9039
व्य	-10.904
ിപ്പിക്ക	-10.9041
▁પોતાનું	-10.9042
હો	-10.9042
▁नवीनतम	-10.9043
▁ન્યાય	-10.9043
▁વૈજ્ઞાનિક	-10.9045
▁મિશ્રણ	-10.9046
થો	-10.905
▁ଆମେରିକା	-10.9052
▁વિચારી	-10.9052
▁सम्मान	-10.9053
ರ್ಸ್	-10.9053
▁ಜನ್ಮ	-10.9054
▁વયના	-10.9054
▁કાળજી	-10.9056
▁ರೋಗದ	-10.9056
▁તીવ્ર	-10.9057
▁നടന്നത്	-10.9057
▁विंडोज	-10.906
ಿಂದಲೂ	-10.9061
▁ಸೋಂಕು	-10.9063
ള്ള	-10.9063
▁कक्षा	-10.9065
यां	-10.9066
▁પ્રશંસા	-10.9066
▁राशि	-10.9067
▁ವಿವಾಹ	-10.9069
कभी	-10.9069
▁ವ್ಯಾಖ್ಯಾನಿಸ	-10.9072
▁ಪೊ	-10.9072
ऊ	-10.9072
▁ಚಾಲಕ	-10.9072
सु	-10.9073
▁ସ୍ୱାସ୍ଥ୍ୟ	-10.9073
▁યુરોપ	-10.9073
fa	-10.9074
ॉल	-10.9075
▁મારું	-10.9076
ൃ	-10.9076
▁ಸೃಷ್ಟಿಸ	-10.9077
▁ವಾಯು	-10.9078
▁ಬಯಸುತ್ತಾರೆ	-10.908
▁ಶಿ	-10.908
▁ગાળાના	-10.908
▁व्यवस्था	-10.908
▁જોડાણ	-10.9083
▁କରୁ	-10.9084
▁मां	-10.9086
▁ಪಟ್ಟಣ	-10.9086
▁ಇಡ	-10.9086
▁ಸಂಭವಿಸ	-10.9086
▁എടുത്തു	-10.9086
▁અમેરિકી	-10.9087
▁रन	-10.9087
▁संवाद	-10.9089
▁वैज्ञानिक	-10.9091
▁ಹೆಸರ	-10.9092
▁സ്വീകരിക്ക	-10.9092
▁मुफ्त	-10.9094
ിട്ട	-10.9095
ଘ	-10.9095
િય	-10.9096
▁ଚ	-10.9096
▁ಪ್ರದರ್ಶಿಸ	-10.9096
▁ପରିବର୍ତ୍ତନ	-10.91
▁ಸೆಂಟರ್	-10.9102
ಕ್ಯಾ	-10.9104
▁ನಿಯಮಗಳನ್ನು	-10.9106
ಯಲ್ಲಿರುವ	-10.9107
▁गैस	-10.9107
ಟೇ	-10.9107
▁ಅನು	-10.9108
शि	-10.911
▁ബ്ലോഗ്	-10.9111
▁તાજેતરના	-10.9115
▁જાણકારી	-10.9118
▁സത്യ	-10.9118
▁സഹായം	-10.9122
▁ಸ್ಥಳಗಳಲ್ಲಿ	-10.9123
▁સુનિશ્ચિત	-10.9125
ക്കുറിച്ചുള്ള	-10.9125
▁ವಿಶ್ವದಾದ್ಯಂತ	-10.9125
▁लीग	-10.9128
▁સ્વપ્ન	-10.9128
▁सोड	-10.913
▁कोणी	-10.913
▁वार्षिक	-10.9131
▁तु	-10.9131
▁ಲೈವ್	-10.9133
▁ഹോ	-10.9133
▁અગ્રણી	-10.9135
▁ତିନି	-10.9135
▁बनाना	-10.9138
▁ഉൽപ്പന്നങ്ങൾ	-10.9139
▁રાજ	-10.914
▁എന്താ	-10.9141
▁મત	-10.9141
▁ડ્રાઇવ	-10.9143
ഷന	-10.9144
▁ಆಹಾರವನ್ನು	-10.9145
▁માગે	-10.9147
▁സ്ഥാന	-10.9148
▁ଯୋଜନା	-10.9149
ಶಾಸ್ತ್ರ	-10.915
ृ	-10.915
भर	-10.9152
▁સિદ્ધાંત	-10.9153
ପା	-10.9154
▁ആവശ്യ	-10.9154
ോളം	-10.9155
▁ಸಾಹಿತ್ಯ	-10.9156
નાર	-10.9162
▁കൊ	-10.9162
▁ವಾಸಿಸುವ	-10.9163
യെന്ന്	-10.9166
▁ನಿರ್ಮಿಸಲು	-10.9166
निया	-10.9166
▁ಆಳವಾದ	-10.9167
▁ठेवा	-10.9171
▁આવેલ	-10.9172
▁એજન્સી	-10.9173
ರಹಿತ	-10.9175
▁માગો	-10.9178
▁નાગરિકો	-10.9178
કુ	-10.9179
▁ಮಾಹಿತಿಯ	-10.918
चर	-10.9181
▁निर्माता	-10.9189
one	-10.919
▁तथ्य	-10.919
▁બંધારણ	-10.9191
▁बजाय	-10.9192
ೃ	-10.9192
ಶಾ	-10.9193
▁લેતા	-10.9194
▁પ્રેરણા	-10.9194
▁കാർഡ്	-10.9196
▁सलाह	-10.9196
तून	-10.9197
▁पहिले	-10.9197
▁നേരിട്ട്	-10.92
ದಿದ್ದರೂ	-10.9201
▁निकल	-10.9203
लैंड	-10.9206
▁ನಿದ್ರೆ	-10.9208
▁കല	-10.9209
▁ફ્રી	-10.9209
▁જેટલી	-10.921
▁डिसेंबर	-10.9211
▁ધરાવતી	-10.9211
▁ಬೆಳಕಿನ	-10.9211
▁जागा	-10.9212
▁ವಿಶ್ವಾಸಾರ್ಹ	-10.9212
करण	-10.9213
▁अस्पताल	-10.9215
▁വിദ്യാർത്ഥി	-10.9217
ക്കുന്നു	-10.9225
▁સિટી	-10.9226
▁ತಿಳಿಯಲು	-10.9226
▁સંકળાયેલા	-10.9228
ત્ર	-10.9229
▁ಸೈ	-10.9234
गु	-10.9236
▁സർക്കാര	-10.9237
ഗാ	-10.9238
साथ	-10.9241
▁അപകട	-10.9242
ಯಲ್	-10.9244
ಕಾರ್	-10.9245
▁ಅಂದಾಜು	-10.9246
▁ಸ್ಥಳವನ್ನು	-10.9249
▁કહેવા	-10.9249
शील	-10.925
▁ವ್ಯವಹಾರದ	-10.925
ಲ್ಡ್	-10.9251
ક્શન	-10.9251
▁ವಿಸ್ತರಣೆ	-10.9253
▁കോൺഗ്രസ്	-10.9253
▁സന്തോഷം	-10.9255
▁इंग्रजी	-10.9256
▁mp	-10.9259
▁പ്രവർത്തനം	-10.9259
▁काळात	-10.9259
▁തീരുമാനിച്ചു	-10.926
▁ಫಲಿತಾಂಶಗಳನ್ನು	-10.9261
▁येते	-10.9262
വരും	-10.9263
▁ನರ	-10.9263
▁કટોકટી	-10.9263
▁जहाँ	-10.9263
▁ସବୁଠାରୁ	-10.9264
▁ରହିବ	-10.9264
▁ಸುರಕ್ಷಿತವಾಗಿ	-10.9265
एस	-10.9269
▁सम्मेलन	-10.927
▁ଦେଶର	-10.9274
▁ક્લબ	-10.9274
ಖ	-10.9276
▁ಹೊರತಾಗಿಯೂ	-10.9278
▁रा	-10.928
▁અડધા	-10.9281
▁ഉൽപ്പന്ന	-10.9281
▁ಕಾಲದಲ್ಲಿ	-10.9284
शिवाय	-10.9286
ci	-10.9286
ಡೀ	-10.9287
ഹ്	-10.9287
સુ	-10.9288
▁दूसरों	-10.9288
▁तरफ	-10.9288
▁चीजों	-10.9288
ଲୁ	-10.929
▁ପ୍ରସ୍ତୁତ	-10.9291
▁ಮುಂಬೈ	-10.9291
▁બાંધકામ	-10.9291
▁શાસન	-10.9292
ूर	-10.9294
തിനു	-10.9294
ത്തിലൂടെ	-10.9295
▁अपराध	-10.9295
▁અભિગમ	-10.9295
▁उपयोगकर्ताओं	-10.9296
▁പരിപാടി	-10.9298
▁મુંબઈ	-10.9298
▁കണ്ടെത്തി	-10.9298
▁z	-10.9299
ಫೈ	-10.9299
વુ	-10.9301
▁ಅರ್ಥಮಾಡಿಕೊಳ್ಳ	-10.9302
▁દંડ	-10.9303
▁തുടര	-10.9303
▁ક્રિયા	-10.9306
▁કારણોસર	-10.9306
▁शेयर	-10.9306
▁वाच	-10.9306
ರಿಸ	-10.9306
ିଆ	-10.9307
ଦିନ	-10.9308
▁ನೀಡಿತು	-10.9311
▁म्हणतात	-10.9311
▁સપ્તાહ	-10.9312
અપ	-10.9315
▁ಅವಕಾಶವನ್ನು	-10.9316
▁ಮಹತ್ವದ	-10.9317
ીન	-10.9318
▁സംബന്ധിച്ച്	-10.9318
▁सड़क	-10.9319
▁लड़ाई	-10.932
▁સંદર્ભ	-10.9321
ପ୍ର	-10.9321
▁ವಿಳಾಸ	-10.9321
si	-10.9322
▁मनुष्य	-10.9323
जर	-10.9325
▁വെല്ലുവിളി	-10.9327
▁ક્યારે	-10.9329
▁ಚಟುವಟಿಕೆ	-10.933
▁ವರ್ಗಾವಣೆ	-10.933
▁खबर	-10.933
▁ಸೆಲ್	-10.9332
▁આરોપ	-10.9333
▁ഏതാണ്ട്	-10.9333
▁ಹುಡುಗ	-10.9334
▁काहीतरी	-10.9338
ಸೊ	-10.9341
▁ಪತಿ	-10.9342
ಚರ್	-10.9347
▁ଲୋକଙ୍କ	-10.9348
▁ಆಗಿದ್ದು	-10.9348
▁फ्रांस	-10.9351
ેજ	-10.9351
▁कलाकार	-10.9354
▁ഉപകരണങ്ങൾ	-10.9357
ଫ	-10.9359
യുടെയും	-10.9359
▁ആധുനിക	-10.9361
▁എന്നോട്	-10.9362
▁ಕಂಡುಬರುತ್ತದೆ	-10.9363
▁પ્રતિનિધિત્વ	-10.9365
എം	-10.9365
▁ಬ್ಯಾಂಡ್	-10.9365
▁ಕಟ್ಟ	-10.9365
▁નજીકના	-10.9366
▁ല	-10.9367
▁പ്രണയ	-10.9367
▁കരുതുന്നു	-10.937
▁ಆಯ್ಕೆಗಳನ್ನು	-10.9371
ग्र	-10.9371
മാൻ	-10.9373
▁परवानगी	-10.9383
▁ಹೊಂದಿದ್ದರು	-10.9385
ni	-10.9385
▁ಕರೆಯ	-10.9386
અર	-10.9386
▁झाल्या	-10.9388
▁ಆಗಾಗ್ಗೆ	-10.939
▁जर्मन	-10.939
ોર	-10.9393
▁ಮಟ್ಟವನ್ನು	-10.9394
▁മനോഹരമായ	-10.9394
ುವುದಾಗಿ	-10.9395
▁ಆಳ	-10.9396
▁പ്രതിരോധ	-10.9397
▁ಮರಣ	-10.9398
▁बहु	-10.94
▁സമാധാന	-10.9402
▁ചെയ്തിരുന്നു	-10.9404
▁ସ୍ଥାନ	-10.9405
▁तेज	-10.9405
▁ಟಾ	-10.9406
▁ശേഷി	-10.9407
▁દિશામાં	-10.9408
▁ಕಾಂ	-10.9408
▁अनु	-10.9409
▁अॅ	-10.9409
▁ଶ	-10.941
▁अंक	-10.9411
▁വിളിക്ക	-10.9412
▁घरेलू	-10.9414
▁ಔಷಧಿಗಳನ್ನು	-10.9415
▁അനുമതി	-10.9418
▁ಮುಖ್ಯಮಂತ್ರಿ	-10.9418
▁માટેનો	-10.9419
ഗോ	-10.942
▁५	-10.942
▁जिंदगी	-10.9421
▁તંદુરસ્ત	-10.9421
▁ಸೌಂದರ್ಯ	-10.9421
▁ചിത്രങ്ങൾ	-10.9422
▁ಕೈಗೊಳ್ಳ	-10.9422
▁പുസ്തക	-10.9423
▁ટ્રેક	-10.9424
ിംഗ	-10.9425
▁വൈ	-10.9432
पिता	-10.9432
ંધ	-10.9433
▁അമേരിക്കയിൽ	-10.9434
▁પહેલાથી	-10.9435
्ल	-10.9436
▁ଫିଲ୍ମ	-10.9437
ಟ್ರಿ	-10.9438
സ്ട്ര	-10.9438
▁ಅನನ್ಯ	-10.9439
▁ವರ್ಲ್ಡ್	-10.9439
▁शांति	-10.9441
▁પાર	-10.9441
ii	-10.9442
▁ଶିକ୍ଷା	-10.9445
▁खात्री	-10.9446
▁ಆಶ್ಚರ್ಯ	-10.9447
▁ವೈದ್ಯರ	-10.9451
:)	-10.9451
▁चि	-10.9452
ത്തെയും	-10.9453
▁विद्यापीठ	-10.9453
ಾಯಿತು	-10.9456
▁ಗಾಳಿ	-10.9458
▁અનુભવી	-10.9458
▁ರಷ್ಯಾ	-10.9459
▁સ્થિર	-10.9459
झा	-10.9459
▁കണ്ടെത്തിയ	-10.946
▁प्रदर्शित	-10.9461
▁શક્તિશાળી	-10.9461
▁നേടി	-10.9462
▁ವಿಷಯಗಳು	-10.9464
▁आश्चर्य	-10.9464
▁अन्न	-10.9464
▁एखाद्या	-10.9465
▁ಮುಂದುವರಿಸ	-10.9466
▁ഉണ്ടായ	-10.9467
ಓ	-10.9467
▁चाहती	-10.9469
પિતા	-10.947
▁പത്ര	-10.9471
▁കുട്ടികളെ	-10.9472
▁जीव	-10.9472
▁ಚಿತ್ರಗಳನ್ನು	-10.9472
▁ಹುಡುಗಿ	-10.9474
▁നമ്മള	-10.9476
ભા	-10.9476
▁ശുപാർശ	-10.9478
▁विद्यार्थी	-10.9478
▁કેટલા	-10.9479
▁ಶಾ	-10.9479
▁ಇದೊಂದು	-10.9479
▁ಅವಳನ್ನು	-10.9482
▁वर्णन	-10.9482
▁દીઠ	-10.9482
▁മനുഷ്യൻ	-10.9483
▁स्टोर	-10.9489
▁મોટાભાગની	-10.9489
▁ഫി	-10.9493
▁भारी	-10.9494
▁ବିଶ୍ୱ	-10.9495
▁ತಾನು	-10.9496
▁പ്രിയപ്പെട്ട	-10.9496
▁ഇത്തവണ	-10.9498
▁തടയ	-10.9498
▁ನೀರನ್ನು	-10.9499
▁હિ	-10.9499
▁समिति	-10.95
▁ಹೋ	-10.9502
▁അല	-10.9506
▁ಕಾಣಿಸಿಕೊಂಡ	-10.9506
▁रोक	-10.9507
▁ആഭ്യന്തര	-10.9507
നിങ്ങൾ	-10.9507
▁ಬ್ರಿಟನ್	-10.9509
at	-10.951
▁मतदान	-10.9511
▁ആപ്പിൾ	-10.9511
▁ಅಧ್ಯಯನಗಳು	-10.9511
▁സ്ഥല	-10.9512
▁പിന്തുണയ്ക്ക	-10.9512
▁अर्ज	-10.9513
▁પુત્રી	-10.9514
▁फरवरी	-10.9514
▁રહેવાની	-10.9514
▁स्वतंत्रता	-10.9514
ಎಸ್	-10.9514
▁ફાઇલો	-10.9515
▁अल	-10.9517
▁ତେଣୁ	-10.9518
ಂಡರ್	-10.9518
▁दुकान	-10.9518
▁ढ	-10.9518
▁રેડ	-10.9519
▁બદલવા	-10.952
▁વિપરીત	-10.9521
▁ಭೌತಿಕ	-10.9521
ds	-10.9521
▁आयोजन	-10.9522
▁ಕಳೆದುಕೊಳ್ಳ	-10.9523
▁જીવનની	-10.9523
▁ಮಹಾ	-10.9523
▁मिशन	-10.9524
▁ಸ್ಥಾಪನೆ	-10.953
ંદ	-10.9531
▁रद्द	-10.9532
▁ಮಾಡಿಕೊಂಡ	-10.9532
▁ಯಶಸ್ವಿ	-10.9533
▁ಪ್ರಬಲ	-10.9534
▁സെപ്റ്റംബർ	-10.9536
▁प्ले	-10.9536
▁પ્રકૃતિ	-10.9536
ap	-10.9537
▁જટિલ	-10.9538
▁ഹോം	-10.9538
▁ಕಾರಣವಾಗುತ್ತದೆ	-10.9538
▁જર્મની	-10.9538
▁ಬೆಳಕು	-10.9539
▁മോദി	-10.9539
▁തീരുമാന	-10.9541
▁માન	-10.9542
▁जुलै	-10.9543
▁हटा	-10.9545
▁ಪಾರ್ಕ್	-10.9546
▁ପୁଣି	-10.9546
▁वी	-10.9547
▁લોકોમાં	-10.9548
▁चुकी	-10.9548
▁ગ્રે	-10.955
▁ಹೇಳುವುದಾದರೆ	-10.955
▁വായിച്ച	-10.9551
▁संसद	-10.9553
▁ಪೂರೈಸ	-10.9554
▁चुका	-10.9554
▁ರೇ	-10.9555
▁उपकरणों	-10.9558
▁ಬಯಸುತ್ತೀರಿ	-10.9558
▁ನಿಧಿ	-10.9558
▁ಇತರೆ	-10.9558
▁स्त्री	-10.9558
▁ವಾಷಿಂಗ್ಟನ್	-10.9561
▁ചിന്ത	-10.9561
पण	-10.9561
▁ಉಲ್ಲೇಖ	-10.9562
▁ट्विटर	-10.9562
▁ફરિયાદ	-10.9564
▁આકર્ષક	-10.9564
▁ತಾಯಿಯ	-10.9566
▁ಎಡ	-10.9566
ga	-10.9567
ಬು	-10.9572
▁മുഖ	-10.9577
▁ಅನುಮೋದನೆ	-10.9579
ത്തേ	-10.958
▁സഹായ	-10.9582
no	-10.9582
▁बीमा	-10.9583
▁क्ल	-10.9586
ുകളിലും	-10.9587
▁ತಮ್ಮನ್ನು	-10.9587
ಪುರ	-10.9588
▁ಜಾಲ	-10.9589
▁किंमत	-10.9592
▁ഗ്രാമ	-10.9592
▁આદર્શ	-10.9592
▁नस	-10.9592
▁ಅರ್ಥಮಾಡಿಕೊಳ್ಳಲು	-10.9594
▁ಸಿದ್ಧಾಂತ	-10.9594
મર	-10.9595
ನಲ್ಲ	-10.9596
▁संग्रह	-10.9596
▁പ്ലേ	-10.9596
ઝે	-10.9599
▁कहां	-10.96
▁ઉત્પન્ન	-10.9604
▁ಮುಂತಾದ	-10.9604
▁ଦୁଇଟି	-10.9606
▁જેટલું	-10.9608
▁ગુજરાત	-10.961
ತರ	-10.961
▁વ્યાખ્યાયિત	-10.9611
▁st	-10.9612
▁ಹೋಗುವ	-10.9612
ന്മാർ	-10.9613
ബാ	-10.9614
ರಾದರು	-10.9614
▁വേ	-10.9614
▁મગજ	-10.9615
▁ಅನುಮತಿಸ	-10.9615
▁काढ	-10.9615
▁പ്രത്യേകിച്ചും	-10.9622
▁ಹಿಂತಿರುಗಿ	-10.9622
▁നാഷണൽ	-10.9622
▁ಕೌಶಲ್ಯ	-10.9623
▁पढ़	-10.9624
▁ಪದವನ್ನು	-10.9624
▁तुमचा	-10.9627
▁બસ	-10.9628
▁ସମସ୍ୟା	-10.9628
▁ಹೇಳಿ	-10.9629
▁नरेंद्र	-10.9629
▁કાઢી	-10.963
▁देऊ	-10.9631
▁प्रभु	-10.9631
യൂ	-10.9632
ുകളാണ്	-10.9633
▁തികച്ചും	-10.9633
▁ಸಮಗ್ರ	-10.9634
▁ശബ്ദം	-10.9637
▁ಪಾಪ್	-10.9637
▁നീക്കം	-10.9639
▁ಜಂಟಿ	-10.9639
▁എളുപ്പമാണ്	-10.964
▁हात	-10.964
▁ಬರ್	-10.9644
▁સમયની	-10.9645
▁പഠനം	-10.9645
വിൽ	-10.9647
▁तुमचे	-10.9647
▁ऑक्टोबर	-10.9647
ಸ್ಕ್	-10.9648
▁ಯುರೋಪ್	-10.9648
▁അന	-10.965
▁लगाने	-10.965
▁മണിക്കൂറ	-10.965
▁ಬಂದರು	-10.9651
▁പരിസ്ഥിതി	-10.9651
ನಿಂಗ್	-10.9651
्ज	-10.9651
▁समाचार	-10.9655
▁पति	-10.9655
▁തുടക്കം	-10.9656
▁[.	-10.9657
ાત્મક	-10.9657
▁ಪರಿಣಾಮಕಾರಿಯಾಗಿ	-10.9657
▁शाळा	-10.966
▁માંથી	-10.9664
▁ಭಾರತವು	-10.9665
തിന്റെ	-10.9665
▁ધરપકડ	-10.9666
▁ಪಂದ್ಯ	-10.9667
▁ಮಾಡಿಕೊಡುತ್ತದೆ	-10.9667
▁દરેકને	-10.9667
▁ଗ୍ରହଣ	-10.9668
ಕನ್	-10.9669
▁നിലനിർത്ത	-10.9669
ಮೀ	-10.9669
▁ಶತಕೋಟಿ	-10.9669
▁ಸುತ್ತಲೂ	-10.967
ip	-10.967
▁घेतले	-10.9671
▁ವರ್ಷಗಳು	-10.9673
▁બેટરી	-10.9673
▁પ્રિય	-10.9674
▁રૂમમાં	-10.9674
▁വന്നത്	-10.9676
▁दुसरा	-10.9677
ാണെങ്കിൽ	-10.9677
▁നടക്കുന്നത്	-10.9677
▁फुटबॉल	-10.968
ଛ	-10.9683
▁दररोज	-10.9684
▁ಮೂಲತಃ	-10.9684
▁ಪೇ	-10.9684
ാവുന്നതാണ്	-10.9685
▁പുറത്ത	-10.9685
▁ಶಿಕ್ಷಕ	-10.9688
पैकी	-10.969
▁ma	-10.9692
▁આનો	-10.9693
▁એકસાથે	-10.9694
▁ಪ್ರಾರ್ಥನೆ	-10.9695
▁തീരുമാനിക്ക	-10.9695
mi	-10.9695
▁ವೈಶಿಷ್ಟ್ಯ	-10.9695
▁സംവിധാന	-10.9696
ಂಟಿ	-10.9702
▁ತೋರುತ್ತದೆ	-10.9702
▁પરિચિત	-10.9702
▁നാളെ	-10.9703
▁सुना	-10.9704
▁ಜನಿಸಿದರು	-10.9706
▁നടക്ക	-10.9706
▁പോകുന്ന	-10.9708
▁ನಾಳೆ	-10.9709
ಾಡ	-10.9709
▁દીધું	-10.9709
▁વધવા	-10.971
ണോ	-10.971
▁ಸಾವು	-10.9711
ಲ್ಪಟ್ಟಿತು	-10.9712
▁અસ્તિત્વમાં	-10.9712
▁സമൂഹ	-10.9714
ಯಾನ್	-10.9716
▁തിരിച്ചറിയ	-10.9717
ിലുള്ള	-10.9719
▁പോകുന്നു	-10.9723
▁किताब	-10.9723
ലു	-10.9723
ಗಳಲ್ಲಿನ	-10.9724
▁ಆಸ್ಟ್ರೇಲಿಯಾ	-10.9726
▁संकट	-10.9728
ഠ	-10.973
ज्ञ	-10.973
▁ಮಟ್ಟ	-10.9734
▁समीक्षा	-10.9735
▁സ്നേഹം	-10.9735
▁सदस्यों	-10.9739
ುವಿಕೆಯನ್ನು	-10.9739
▁ମଧ୍ୟରୁ	-10.9741
▁ಆರೋಗ್ಯದ	-10.9742
વાદી	-10.9742
▁ରାଷ୍ଟ୍ରପତି	-10.9742
ଣି	-10.9747
▁ಕ್ರಮಗಳನ್ನು	-10.9747
▁વિગતવાર	-10.9749
▁ಖಾನ್	-10.975
▁ರಕ್ಷಿಸಲು	-10.9751
▁ಹೊಂದಿದ್ದು	-10.9751
▁ઓવર	-10.9753
▁iphone	-10.9753
▁കരാർ	-10.9753
▁ചൈനീസ്	-10.9753
▁ಬಳಕೆಯನ್ನು	-10.9754
ાના	-10.9754
▁କଲେ	-10.9755
▁ശാസ്ത്ര	-10.9757
▁କ୍ଷେତ୍ରରେ	-10.976
▁तस्वीर	-10.976
▁എത്തിയ	-10.976
▁ପ୍ରତିଶତ	-10.9764
▁रिलीज	-10.9764
▁दिसत	-10.9766
▁કૃપા	-10.9768
▁સંસ્કરણ	-10.9768
▁ಈಗಲೂ	-10.9769
▁ಬೆಳೆಯ	-10.9769
▁भाई	-10.977
ವಿನ್	-10.977
▁ಅಂತರ	-10.9771
▁ଅପେକ୍ଷା	-10.9771
▁ഇതിനെ	-10.9772
▁ಆಕ್ರಮಣ	-10.9772
▁മാധ്യമ	-10.9773
▁ଏଥିପାଇଁ	-10.9775
ಿದ್ದಾಳೆ	-10.9776
ിരിക്ക	-10.9777
ഉ	-10.9778
ફાઇ	-10.9782
ha	-10.9785
▁યોગ	-10.9785
▁ભૂતપૂર્વ	-10.9786
▁ಇಸ್ರೇಲ್	-10.9786
ଆଇ	-10.9786
▁എത്ത	-10.9787
▁ಪ್ರೀತಿಯ	-10.9788
▁घेत	-10.9789
▁വീ	-10.9789
▁વાહનો	-10.9789
▁ಕೀ	-10.979
▁ಭವಿಷ್ಯ	-10.9792
ವರನ್ನು	-10.9793
▁માછલી	-10.9793
▁ശബ്ദ	-10.9796
ગે	-10.9796
▁ಸಂಘಟನೆ	-10.9796
ೊಂದಿಗಿನ	-10.9797
▁ಪ್ರಯೋಜನ	-10.9798
જ્યારે	-10.98
▁પ્રકારનાં	-10.9801
ब्र	-10.9802
યે	-10.9802
▁ಪ್ರವೇಶಿಸಲು	-10.9804
ಬೊ	-10.9805
▁टाक	-10.9805
▁ನಕ್ಷೆ	-10.9805
ಿಗಿಂತ	-10.9806
▁करु	-10.9809
▁ആവശ്യം	-10.981
▁ಜನನ	-10.9811
ભર	-10.9811
▁जापान	-10.9812
▁ಪುನಃ	-10.9813
▁सुन	-10.9814
▁സാഹചര്യത്തിൽ	-10.9816
▁ಪ್ರಕ್ರಿಯೆಯ	-10.9816
▁ಆಟಗಳು	-10.9817
▁କିଏ	-10.9817
▁ईश्वर	-10.9819
▁ಡಿಗ್ರಿ	-10.982
▁રસ્તા	-10.982
बार	-10.982
જેમ	-10.9821
▁എഴുതിയ	-10.9821
▁शे	-10.9822
▁असल्याचे	-10.9824
▁એક્ટ	-10.9824
▁ರಾಜ್ಯದಲ್ಲಿ	-10.9825
▁पड	-10.9826
▁दहा	-10.9827
▁तुमची	-10.9828
▁खरं	-10.9828
▁टो	-10.9828
ಕರು	-10.983
▁સર્વ	-10.983
▁अभिनेत्री	-10.983
ುತ್ತಿದ್ದೆ	-10.9832
▁ലൈംഗിക	-10.9834
▁જીવનના	-10.9834
▁യോഗ	-10.9834
ഇത്	-10.9835
प्रमाणे	-10.9835
▁ഉണ്ടെങ്കിൽ	-10.9838
ઓએ	-10.9841
▁വാർഷിക	-10.9841
▁ದೀರ್ಘಕಾಲದ	-10.9841
▁પુનઃ	-10.9842
▁ഇരിക്ക	-10.9842
ത്തും	-10.9843
▁ತೆರೆಯ	-10.9844
▁ಕೋವಿಡ್	-10.9845
▁जिनमें	-10.9845
▁ನೋಡೋಣ	-10.9846
പ്പി	-10.9849
▁ആറു	-10.9851
ದಿಂದಾಗಿ	-10.9852
▁ઓસ્ટ્રેલિયા	-10.9853
▁पुनर्	-10.9856
▁କହିଥିଲେ	-10.9857
▁परि	-10.9858
▁મંત્રી	-10.986
▁लक्षात	-10.986
▁उदाहरणार्थ	-10.986
ियाँ	-10.986
▁અભાવ	-10.9861
▁स्टार	-10.9861
▁युग	-10.9861
▁ബാധിച്ച	-10.9861
▁ગૃહ	-10.9863
▁ഉടമ	-10.9864
▁സ്നേഹ	-10.9864
▁દા	-10.9864
▁વધારાના	-10.9867
▁घोषित	-10.9867
▁સ્ટેટ	-10.9868
रिया	-10.987
▁നിര	-10.987
ुर	-10.9871
▁ભાર	-10.9872
▁દિવસોમાં	-10.9872
▁खुशी	-10.9873
ନ୍ତ	-10.9873
▁ಸ್ಮಾರ್ಟ್	-10.9875
▁പേടി	-10.9878
▁ಪ್ರಕಟಣೆ	-10.9878
▁ಕೊಲೆ	-10.9878
ാക്കി	-10.988
▁un	-10.988
▁ಪರಿವರ್ತನೆ	-10.9882
സ്സ	-10.9883
കർ	-10.9884
▁കാത്തിരിക്ക	-10.9887
▁देंगे	-10.9888
▁વાતાવરણ	-10.9894
▁बै	-10.9896
▁ಹೊಂದಿರಬಹುದು	-10.9896
▁ಆರೈಕೆ	-10.9899
ಉದಾಹರಣೆಗೆ	-10.99
ಬೇ	-10.99
▁दाखव	-10.9901
▁રોજગાર	-10.9903
ફે	-10.9904
▁വരുന്നു	-10.9905
▁പാടില്ല	-10.9906
▁जनता	-10.9908
▁जाएं	-10.9909
▁ಅಪ್ಪ	-10.991
▁भूमि	-10.9912
▁अपडेट	-10.9912
▁ರೂಪಾಂತರ	-10.9912
▁സത്യം	-10.9914
▁જીવંત	-10.9916
▁ಪಾಠ	-10.992
▁ಬದಲಿಸ	-10.992
▁સ્રોત	-10.9921
▁जान	-10.9925
▁വ്യക്തമാക്കി	-10.9925
▁નરેન્દ્ર	-10.9927
▁ಸೂಕ್ಷ್ಮ	-10.9928
ാർ	-10.9929
▁മുന്നിൽ	-10.9929
▁સુપ્રીમ	-10.9931
പ്രവർത്തിക്കുന്ന	-10.9934
▁ಮಾರ್ಗವನ್ನು	-10.9934
▁ಬೈ	-10.9934
▁રેડિયો	-10.9938
કર્તા	-10.9938
ाबद्दल	-10.9939
ತ್ತಿ	-10.9939
▁നെ	-10.9943
cl	-10.9945
▁મારફતે	-10.9946
▁അധികാര	-10.9947
▁ಮಾಡುತ್ತೇನೆ	-10.9947
▁સ્ટોક	-10.9947
▁मुझसे	-10.995
▁ಶಾಲೆಯ	-10.995
▁घरात	-10.995
▁ಮಾಡುತ್ತಿದ್ದಾರೆ	-10.995
▁କରିପାରିବେ	-10.9951
▁महत्वाचे	-10.9951
▁यासाठी	-10.9951
▁ಭವಿಷ್ಯದಲ್ಲಿ	-10.9951
▁ಆಫ್ರಿಕನ್	-10.9952
▁ಇರುವುದಿಲ್ಲ	-10.9954
ಕಾಲ	-10.9957
ವಾಗಿರುತ್ತವೆ	-10.9957
▁मिळेल	-10.9957
▁കാണുന്ന	-10.9957
▁મૂકવા	-10.9959
▁സ്ഥാപിക്ക	-10.996
▁यश	-10.996
▁ಮೌಲ್ಯವನ್ನು	-10.9961
ામાં	-10.9962
ಪಡಿಸ	-10.9962
▁ഇതിനു	-10.9964
▁वजह	-10.9964
▁ಸ್ವ	-10.9966
▁ત્યારથી	-10.9966
▁ನಗರದಲ್ಲಿ	-10.9968
▁കടന്നു	-10.9969
▁ಸಿಟಿ	-10.9969
▁कॉ	-10.9972
▁ನಡೆಯುತ್ತಿದೆ	-10.9973
▁पूर्णपणे	-10.9974
▁വാങ്ങാൻ	-10.9975
▁ചെയ്ത്	-10.9976
▁नाहीये	-10.9977
▁ಪ್ರಧಾನಮಂತ್ರಿ	-10.9979
▁साध	-10.998
▁अंतर्गत	-10.998
▁ಅವಧಿಯ	-10.9984
▁ગીતો	-10.9985
ત્વ	-10.9986
▁ಪೋ	-10.9987
▁ലക്ഷ്യ	-10.9988
▁ഭരണ	-10.999
▁ಮಾಡಿಲ್ಲ	-10.9991
પ્સ	-10.9991
▁ಹಬ್ಬ	-10.9992
▁ದಿನವನ್ನು	-10.9993
▁नव	-10.9993
▁മുമ്പ	-10.9993
ळी	-10.9994
ുമെന്ന	-10.9996
▁ಮುಂದುವರಿಯ	-10.9998
ଓ	-10.9998
वान	-11.0001
▁ನಿಖರವಾಗಿ	-11.0003
રિક	-11.0003
▁બાર	-11.0005
▁મૂડી	-11.0006
നിന്നു	-11.0007
▁प्रोग्राम	-11.0008
▁ಕಪ್	-11.0008
▁യൂ	-11.0008
▁આપણને	-11.0009
▁आत्म	-11.0011
▁सत्र	-11.0012
ുള്ളത്	-11.0012
▁ಸರಬರಾಜು	-11.0014
▁സംവിധാനം	-11.0014
ଯାଏ	-11.0015
▁લાગતું	-11.0017
न्या	-11.0019
ീസ്	-11.0019
▁ആശുപത്രി	-11.002
▁इंतजार	-11.0021
▁पहिली	-11.0021
▁ಅಸಾಧ್ಯ	-11.0021
टन	-11.0022
▁જા	-11.0023
ವಾರ	-11.0024
▁રોકાણકારો	-11.0025
▁પૂરો	-11.0025
▁आयुष्यात	-11.0026
▁नसते	-11.0026
ss	-11.0026
▁जन	-11.0027
ರಾಗ	-11.003
ee	-11.0031
രാണ്	-11.0031
ંસ	-11.0031
ൻസ	-11.0031
▁પ્લે	-11.0032
▁पोहोच	-11.0032
▁୨୦୧	-11.0035
▁निधन	-11.0036
▁સમૃદ્ધ	-11.0036
ಪರಿಗಣಿಸಲಾಗುತ್ತದೆ	-11.0037
േഷൻ	-11.0037
ତୁ	-11.0039
▁तकनीकी	-11.004
▁വിമാന	-11.0042
▁कोरिया	-11.0043
▁ವಿದ್ಯಾರ್ಥಿಗಳ	-11.0044
ದಂತಹ	-11.0045
▁पहा	-11.0045
▁ಸೇವಿಸ	-11.0047
▁संचार	-11.0047
▁ભેટ	-11.0048
ಯಾದರೂ	-11.0049
ापासून	-11.0049
▁ಮಗಳು	-11.0051
▁നിയമങ്ങൾ	-11.0052
▁ನೀಡುತ್ತಾರೆ	-11.0052
▁કેન્દ્રીય	-11.0052
▁അവൾക്ക്	-11.0054
ർജ	-11.0055
▁ಪರಿಣಾಮಗಳನ್ನು	-11.0055
ಯನ್	-11.0058
▁कविता	-11.0059
man	-11.0059
▁ರೋಗಿಯ	-11.006
ಲಾಗದ	-11.0062
▁હવામાન	-11.0062
ുമ	-11.0063
▁संस्कृति	-11.0064
▁પરિવારના	-11.0069
▁ହେବାକୁ	-11.0071
▁പണ	-11.0071
▁ગુ	-11.0072
कु	-11.0072
▁क्लब	-11.0072
▁ବହୁ	-11.0073
▁ചോദ്യ	-11.0074
▁ലളിതമായ	-11.0075
▁ನೆಲದ	-11.0076
▁પ્રાણી	-11.0077
▁କୋ	-11.0077
▁श्री	-11.0078
▁ಸಮರ್ಥ	-11.0078
▁इं	-11.0079
▁ಟೈ	-11.008
ଳା	-11.0081
ಠ	-11.0081
▁ಗೌರವಿಸ	-11.0083
▁ସେମାନଙ୍କୁ	-11.0083
▁एड	-11.0084
▁असणे	-11.0086
▁ലോകത്ത്	-11.0087
▁करेगी	-11.0089
▁रहें	-11.0089
▁१०	-11.009
▁ಬಿಸಿ	-11.0092
▁બનાવવાની	-11.0092
▁ರಾಜ್ಯಗಳು	-11.0094
▁വിട്ടു	-11.0095
▁औसत	-11.0096
▁ಕಲಿಸ	-11.0096
क्त	-11.0097
▁घेतली	-11.0098
വീ	-11.0099
▁ಸಾಯ	-11.0099
▁हां	-11.01
▁സ്ഥാപന	-11.01
ച്	-11.0103
ല്യ	-11.0104
▁कोणतीही	-11.0105
▁ಸ್ಥಾಪಿಸಲಾಯಿತು	-11.0105
▁ಹಿಟ್	-11.0106
▁સ્થળો	-11.0109
ms	-11.011
▁ભાવ	-11.011
ಬಹುದೆಂದು	-11.0114
म्ब	-11.0115
▁वैयक्तिक	-11.0115
सि	-11.0116
▁હોસ્પિટલ	-11.0116
▁മനസ്സിലാക്ക	-11.0116
▁ऐतिहासिक	-11.0119
बाबत	-11.0119
▁ನಾಲ್ಕನೇ	-11.0119
▁निकाल	-11.012
ପାରେ	-11.012
▁अनुमान	-11.0122
ફા	-11.0123
▁उतर	-11.0124
▁റാ	-11.0124
▁સ્ટાફ	-11.0125
▁ನಿರೀಕ್ಷಿಸ	-11.0125
▁ആരംഭിക്ക	-11.0126
ർജ്ജ	-11.0126
િવ	-11.013
▁गृह	-11.013
▁വേഗത്തിൽ	-11.013
▁बेटी	-11.0132
▁जलवायु	-11.0134
▁હકારાત્મક	-11.0134
▁લાગણી	-11.0136
પલ	-11.0136
▁हार	-11.0136
▁ಸಾಗ	-11.0137
▁शब्दों	-11.0138
▁મધ્યમ	-11.014
▁मिळाले	-11.0142
▁दबाव	-11.0142
▁വിദ്യാർത്ഥികൾ	-11.0142
▁आपूर्ति	-11.0143
▁લખી	-11.0143
▁करियर	-11.0144
▁कितने	-11.0146
▁लेते	-11.0146
▁ಮೇಲ್ವಿಚಾರಣೆ	-11.0146
▁ಅರ್ಹತೆ	-11.0147
▁ಗಮನಿಸಿ	-11.0149
▁हिस्से	-11.0149
▁ಕೇಂದ್ರೀಕರಿಸ	-11.015
▁ଫ	-11.0153
▁ಫ	-11.0154
હી	-11.0154
▁ಪಟ್ಟು	-11.0154
▁ସେବା	-11.0156
▁મોટે	-11.0157
▁ઠીક	-11.0157
ଡ୍	-11.0159
▁थांब	-11.016
▁पूछा	-11.016
▁ನಿಷೇಧ	-11.0161
▁सम	-11.0161
नर	-11.0163
▁നീണ്ട	-11.0163
▁ಭ	-11.0169
▁ತಿಳಿದಿರುವ	-11.017
▁ಬರಹಗಾರ	-11.0171
▁ഒന്നാം	-11.0172
▁ಬೇಗ	-11.0174
▁ios	-11.0174
▁ಬಳಸುತ್ತಾರೆ	-11.0175
▁ಚಿತ್ರವನ್ನು	-11.0175
▁പേരെ	-11.0176
*	-11.0177
▁ಶಾಲೆಗೆ	-11.018
▁ದುರ್ಬಲ	-11.0183
രും	-11.0187
ಬೇಡ	-11.0187
▁ಪ್ರಾರಂಭವಾಯಿತು	-11.0188
▁ಉಳಿಯ	-11.0189
ಯದ	-11.0189
▁ഡൌൺലോഡ്	-11.0189
▁આઈ	-11.019
▁પ્રયત્નો	-11.019
▁करे	-11.0191
▁ಹತ್ಯೆ	-11.0191
▁પ્રાર્થના	-11.0191
▁ಪ್ರಯೋಜನಗಳನ್ನು	-11.0192
▁શાળામાં	-11.0194
▁ತಪ್ಪಿಸಲು	-11.0195
▁କମ୍ପାନୀ	-11.0195
▁ନିଷ୍ପତ୍ତି	-11.0195
▁ജനാധിപത്യ	-11.0195
▁जमीन	-11.0196
▁ಗಾಂಧಿ	-11.0196
▁મુક	-11.0198
▁നിരക്ക്	-11.0198
▁ସୁ	-11.0201
▁रविवार	-11.0202
▁માર્કેટ	-11.0202
▁ಬುಕ್	-11.0202
ಿರಬೇಕು	-11.0203
ଗା	-11.0205
▁ಟೆ	-11.0206
▁तुरंत	-11.0207
▁ಭಾನುವಾರ	-11.0207
ಎಚ್	-11.0209
എന്റെ	-11.0211
ುವುದಕ್ಕಾಗಿ	-11.0211
▁ಕಾರಣವಾಗಿದೆ	-11.0211
▁പ്രോഗ്രാം	-11.0214
ಗಳಿಗೂ	-11.0215
▁ഡോക്ടർ	-11.0216
▁ಖಾತೆಯನ್ನು	-11.0217
▁ಪುರುಷ	-11.0218
▁ऑगस्ट	-11.0218
▁री	-11.0218
▁शासन	-11.0222
▁योग	-11.0224
▁ध	-11.0224
ವಾಗಲಿದೆ	-11.0225
▁હમણાં	-11.0226
ലീ	-11.0226
▁ಆಸ್ಪತ್ರೆ	-11.0228
▁കേസ്	-11.0228
▁അഭിപ്രായ	-11.0228
▁ದಿನದಲ್ಲಿ	-11.0229
▁पल	-11.0229
▁વ્યવસાયિક	-11.023
▁પરિવારો	-11.023
▁બચાવ	-11.0232
മർ	-11.0232
ion	-11.0233
▁ભૂલી	-11.0235
▁ಹೋದ	-11.0238
▁ದೇಶಗಳು	-11.0239
▁ಅಂತ್ಯದ	-11.024
ദ്ര	-11.024
▁देती	-11.024
▁ತಿಳಿದ	-11.024
▁પહોંચવા	-11.0242
્ટ	-11.0244
▁खालील	-11.0249
▁സുഹൃത്തുക്കള	-11.025
▁ડિસ્ક	-11.0252
▁ഫുട്ബോൾ	-11.0253
▁ಪರೀಕ್ಷಿಸ	-11.0253
बो	-11.0255
▁કેનેડા	-11.0255
lo	-11.0256
മീ	-11.0256
ಗೊಳಿಸುತ್ತದೆ	-11.0259
▁મહેનત	-11.0261
▁ಸೇರಿವೆ	-11.0262
ವೈ	-11.0262
▁ಡಿಸ್ಕ್	-11.0263
▁നൽകും	-11.0265
▁ಬರೆಯಲು	-11.0268
▁અમલ	-11.0269
▁ನಡೆಯುತ್ತದೆ	-11.027
ക്കെതിരെ	-11.0271
ड़ा	-11.0271
▁ഫ	-11.0272
▁એકદમ	-11.0276
▁ऐक	-11.0276
ವ್ಯ	-11.0279
▁ഇടയിൽ	-11.0281
▁വ്യവസ്ഥ	-11.0283
ॉन	-11.0283
▁આફ્રિકન	-11.0284
▁ଶିଶୁ	-11.0284
ുചെയ്യ	-11.0285
▁ಪ್ರಶ್ನೆಗಳನ್ನು	-11.0288
▁വേഗത	-11.0289
▁യഥാർത്ഥത്തിൽ	-11.029
▁अवलंबून	-11.0292
▁કમાણી	-11.0292
્યૂ	-11.0292
▁വീട	-11.0292
▁થોડું	-11.0292
કાળ	-11.0293
▁નુકશાન	-11.0295
▁ಭಾಷಣ	-11.0295
▁ಭಾರೀ	-11.0296
ഗ്ര	-11.0296
▁शि	-11.0296
କାର	-11.0296
▁ಗ್ರಾಮ	-11.0297
▁ಪ್ರಶಸ್ತಿಯನ್ನು	-11.0297
ન્ક	-11.0298
▁ಶ್ರೇಷ್ಠ	-11.0299
▁ઇન્સ્ટોલ	-11.0299
▁ಕ್ರಿಸ್ಮಸ್	-11.0299
▁ഉപയോഗം	-11.03
);	-11.0303
▁ચૂકવવા	-11.0305
▁જૂથો	-11.0306
▁രജിസ്റ്റർ	-11.0307
▁હાથમાં	-11.031
▁चाहे	-11.0311
▁ಜೋಡಿ	-11.0311
▁ಶತಮಾನದಲ್ಲಿ	-11.0312
▁ನಮ್ಮಲ್ಲಿ	-11.0313
▁ನೀಡುತ್ತವೆ	-11.0314
▁ઝ	-11.0316
ଦେ	-11.0317
▁ફાયદો	-11.0319
लेल्या	-11.032
▁ब्रिटेन	-11.0322
▁લેવી	-11.0323
ବର୍ଷ	-11.0323
ുമായിരുന്നു	-11.0323
▁डाय	-11.0324
▁ഒര	-11.0325
▁ઉત્પાદક	-11.0326
▁सीमित	-11.033
▁ಪ್ರಾರಂಭಿಸಿದರು	-11.0335
▁चुके	-11.0335
▁भूल	-11.0336
▁ಸಂಗತಿ	-11.0337
▁गुंतवणूक	-11.0338
▁ಮಗುವಿಗೆ	-11.0338
▁ಪರದೆಯ	-11.0339
▁ଅନୁ	-11.0339
▁संदर्भ	-11.0341
▁સમિતિ	-11.0342
▁पुराने	-11.0342
ಲ್ಪಡ	-11.0345
▁അവസര	-11.0347
▁ಗೇಮ್	-11.035
▁ವಸತಿ	-11.035
▁પ્રખ્યાત	-11.035
▁શકતો	-11.0353
▁ഉണ്ടാവ	-11.0354
ುತ್ತಲೇ	-11.0355
▁बाळ	-11.0356
▁ઉંમરે	-11.0356
▁गर्म	-11.0357
▁കൊല്ല	-11.0358
ക്കാ	-11.0359
▁ನಿಷೇಧಿಸ	-11.0359
▁परिवहन	-11.0361
▁ಪ್ರತಿಕ್ರಿಯಿಸ	-11.0362
▁ದಂಡ	-11.0363
▁कसा	-11.0365
▁तरुण	-11.0365
प्ल	-11.0368
▁जुड़े	-11.0369
▁जम्मू	-11.0369
▁પોતાનો	-11.0373
▁ಅಂಶಗಳ	-11.0373
▁स्मार्टफोन	-11.0373
▁પડકાર	-11.0373
▁२००	-11.0373
▁રોગો	-11.0374
▁ऑफिस	-11.0375
▁यावर	-11.0377
▁बल	-11.0377
ತೆಗೆ	-11.0379
▁કહો	-11.0379
▁അറിവ	-11.0381
▁ಮಾತು	-11.0382
્સનો	-11.0383
സ്ത	-11.0383
▁ઊ	-11.0384
▁വനിതാ	-11.0385
▁આલ્બમ	-11.0385
▁ଆଶା	-11.0385
▁ನೀಡಬಹುದು	-11.0386
▁ಇದ್ದಾರೆ	-11.0386
છ	-11.0386
▁जैसी	-11.0393
ಆದರೆ	-11.0393
▁ആക്സസ്	-11.0393
ಬೇಕಿದೆ	-11.0396
▁પોપ	-11.0397
▁അംഗീകരിക്ക	-11.04
▁വിവര	-11.0402
▁ಪ್ರಾಣಿಗಳ	-11.0403
▁शुक्रवार	-11.0404
▁सर्वोच्च	-11.0404
▁ಪ್ರವಾಸೋದ್ಯಮ	-11.0407
▁സ്ഥാനം	-11.0409
▁ରୋଗ	-11.0409
▁ഇന്ന	-11.0411
ઝર	-11.0411
ाचं	-11.0411
▁വരുമാന	-11.0412
ೆಯ	-11.0419
▁होत्या	-11.0421
▁ആവശ്യമുള്ള	-11.0421
▁बहुतेक	-11.0422
▁झालेल्या	-11.0425
▁મહત્વની	-11.0426
▁ಎನ್ನ	-11.0426
▁कृषि	-11.0428
▁વલણ	-11.0432
▁नियंत्रित	-11.0432
▁ସୁରକ୍ଷା	-11.0432
▁ಫೆ	-11.0432
▁तय	-11.0433
ುವಂತಹ	-11.0434
▁જોઇ	-11.0434
ण्याचे	-11.0434
ಬೋ	-11.0435
કરણ	-11.0436
▁ദൈവം	-11.0436
▁થતા	-11.0438
રની	-11.0438
्क	-11.0438
▁आती	-11.0439
▁ಅಷ್ಟೇ	-11.044
▁ಮಂಗಳವಾರ	-11.0447
▁આપ્યા	-11.0448
દિ	-11.0449
ವನ	-11.0449
▁એસ્ટેટ	-11.0449
▁ಉತ್ಪನ್ನದ	-11.0449
▁एकमात्र	-11.0451
▁ધોરણે	-11.0451
▁ભાઈ	-11.0454
▁ଜନ୍ମ	-11.0455
▁नोव्हेंबर	-11.0455
▁ബെ	-11.0455
കരമായ	-11.0456
▁जाणून	-11.0456
▁ആയിരിക്കും	-11.0456
ઢ	-11.0457
▁ನ್ಯಾಯಾಲಯ	-11.0457
▁on	-11.0458
▁କରିବାର	-11.0458
▁ಇನ್ಸ್ಟಿಟ್ಯೂಟ್	-11.0459
▁ആള	-11.046
▁റീ	-11.0461
▁यांना	-11.0461
▁ನೀವೇ	-11.0462
▁അയാളുടെ	-11.0464
▁ಅಪಘಾತ	-11.0466
▁माल	-11.0468
▁ಕಾಣುತ್ತದೆ	-11.0471
▁महाराष्ट्र	-11.0471
▁જાણીએ	-11.0471
▁મળવા	-11.0472
स्टर	-11.0472
सारखे	-11.0474
▁વિજય	-11.0475
▁दृष्टिकोण	-11.0475
ാറ	-11.0475
ಟ್ಟ	-11.0477
▁രണ്ടും	-11.0479
▁വശ	-11.0481
ଟେ	-11.0481
▁आतापर्यंत	-11.0482
▁प्रतिनिधित्व	-11.0483
ोर	-11.0483
▁ചെയ്തിട്ടുണ്ട്	-11.0486
▁જઇ	-11.0487
▁દસ્તાવેજો	-11.0488
▁വ്യാപാര	-11.049
▁ଦିବସ	-11.0491
▁અસરો	-11.0492
ವಿಲ್ಲದ	-11.0493
▁ಸ್ಥಾನದಲ್ಲಿ	-11.0494
▁ટોચના	-11.0495
▁कहाः	-11.0498
▁सीधे	-11.0499
▁फायदा	-11.0499
ಸ್ಟ	-11.0499
▁बढ़ावा	-11.05
▁ಶಿಕ್ಷೆ	-11.0501
નની	-11.0502
નલ	-11.0504
▁ಮನ	-11.0505
▁ಆರೋಪ	-11.0505
au	-11.0506
▁प्रार्थना	-11.0506
▁બ્લેક	-11.0507
▁फंड	-11.0508
▁ಇಂಗ್ಲೀಷ್	-11.0511
▁प्रतिबंध	-11.0511
રસ	-11.0511
യിലുള്ള	-11.0512
ર્ન	-11.0512
▁ಸಂಶೋಧಕರು	-11.0512
▁मि	-11.0513
ರೈ	-11.0514
▁आंदोलन	-11.0514
▁વિદ્યાર્થીઓને	-11.0515
▁कायम	-11.0516
▁ഉപയോഗിക്കുന്നത്	-11.0519
ോട	-11.0519
▁ಸ್ಕೂಲ್	-11.052
લર	-11.052
▁ಇದಕ್ಕಾಗಿ	-11.0523
▁यशस्वी	-11.0526
▁കവിത	-11.0526
▁વાળ	-11.0527
ಂಟು	-11.0531
▁ಅಕಾಡೆಮಿ	-11.0534
▁राम	-11.0535
▁ನಟಿ	-11.0537
▁सोमवार	-11.0537
▁સંકેત	-11.0537
▁સાચી	-11.0538
▁इंग्लैंड	-11.0542
ଯିବ	-11.0542
േണ്ടതില്ല	-11.0543
▁ಶಾಶ್ವತ	-11.0543
▁ಕಲಿತ	-11.0543
ಲೆಟ್	-11.0544
९	-11.0544
▁ହଜାର	-11.0544
▁ಅಲ್ಲದೇ	-11.0545
▁अपेक्षा	-11.0545
▁അതോ	-11.0545
ಳ್ಳ	-11.0545
▁ବୃଦ୍ଧି	-11.0547
देश	-11.055
ುತ್ತೆ	-11.055
▁ಪಾಕಿಸ್ತಾನದ	-11.0551
▁દૂધ	-11.0554
▁સદીના	-11.0558
▁एफ	-11.0558
▁ಸಂಭವಿಸುತ್ತದೆ	-11.0558
▁ಬ್ರಾಂಡ್	-11.0559
▁બદલાઈ	-11.0559
▁पेज	-11.0559
▁घेऊन	-11.056
▁അച്ഛൻ	-11.0562
▁അതിർത്തി	-11.0566
വള	-11.0566
▁ಹೊಂದಿತ್ತು	-11.0568
▁इलाज	-11.057
▁വാക്കുകൾ	-11.0571
तू	-11.0571
મેટ	-11.0572
▁ಜನಸಂಖ್ಯೆಯ	-11.0573
▁ಪ್ರತಿಯೊಬ್ಬ	-11.0576
▁ટેબલ	-11.0576
ನಾಗ	-11.0576
विषयी	-11.0578
▁કલાકો	-11.0579
▁આખા	-11.058
▁शा	-11.058
▁વ્યવસાયો	-11.0581
▁ಪಾನೀಯ	-11.0582
▁ବନ୍ଦ	-11.0583
▁एयर	-11.0584
▁ഭാഗമായി	-11.0585
▁માર્ક	-11.0585
▁નિકાસ	-11.0586
▁ನಷ್ಟು	-11.0586
▁ಫಾರ್ಮ್	-11.0586
▁रशिया	-11.059
▁છેલ્લી	-11.059
▁ಪೂರೈಕೆ	-11.059
▁സംഭവിക്ക	-11.059
ುತ್ತೀರಾ	-11.059
▁ಸಂವಿಧಾನ	-11.0592
▁फ्ल	-11.0593
▁ആര	-11.0593
▁पसंदीदा	-11.0594
▁ಆತಂಕ	-11.0594
യെക്കുറിച്ച്	-11.0595
▁പത്തു	-11.0595
▁എത്തി	-11.0595
▁રાજ્યના	-11.0596
▁ପରୀକ୍ଷା	-11.0598
▁तनाव	-11.0598
▁રેલવે	-11.0602
सो	-11.0605
▁મુદ્દો	-11.0606
▁વિતરણ	-11.0606
▁ଦରକାର	-11.0606
▁ಒಳಗೊಂಡ	-11.061
▁तट	-11.0612
▁ચળવળ	-11.0614
▁സ്കൂളിൽ	-11.0614
▁ಕೋಣೆ	-11.0615
▁राजकीय	-11.0618
▁ದೃಷ್ಟಿ	-11.0618
ಹಿಸ	-11.0618
ଗ୍ର	-11.0622
जि	-11.0624
▁ആളുകൾക്ക്	-11.0625
▁ಚಿನ್ನದ	-11.0626
ತ್ರ	-11.0627
▁ವೇತನ	-11.0627
▁ખાલી	-11.0627
▁സ്വാതന്ത്ര്യ	-11.0628
മ്	-11.0629
▁ಇದರರ್ಥ	-11.063
▁പൂർണ്ണമായും	-11.0632
▁भारतातील	-11.0633
▁बच्चा	-11.0634
▁ಪರಿಚಯ	-11.0634
▁ವೇಗದ	-11.0634
▁വ്യത്യാസം	-11.0635
ଖା	-11.0637
▁પક્ષો	-11.0637
▁एप्रिल	-11.0638
▁તણાવ	-11.0638
▁ವಾತಾವರಣ	-11.0639
▁നഗരം	-11.0639
▁ಲೀ	-11.064
▁कैंसर	-11.0642
▁ജനറൽ	-11.0642
▁पुत्र	-11.0643
▁ತಂಡವು	-11.0643
ચાર	-11.0643
▁ಧನಾತ್ಮಕ	-11.0646
ಂಟ	-11.0649
ଶ୍	-11.065
▁ಕಾರ್ಮಿಕ	-11.065
▁കാരണ	-11.0651
રૂ	-11.0654
▁નોંધણી	-11.0654
▁લોક	-11.0655
▁अधिकतम	-11.0655
▁ಸರಳವಾಗಿ	-11.0657
डि	-11.0658
▁छान	-11.0658
▁നടത്താൻ	-11.066
ವಾಗಿರಬಹುದು	-11.0661
▁રોકડ	-11.0661
▁कितनी	-11.0662
▁आवडत	-11.0663
▁ഘട്ട	-11.0663
લ્ટ	-11.0663
▁ತೋರ	-11.0664
▁ನೀಲಿ	-11.0664
▁ಬಳಕೆಗೆ	-11.0665
▁പരിഹരിക്ക	-11.0666
▁प्रतीक्षा	-11.0666
bo	-11.0666
▁બ્રિટન	-11.0667
▁೨೦೦	-11.0668
▁ચેક	-11.0668
▁दशलक्ष	-11.067
▁ಬಹಿರಂಗಪಡಿಸ	-11.0671
वां	-11.0672
▁प्रस्तुत	-11.0673
▁ઇવેન્ટ	-11.0673
വർഷ	-11.0674
▁ഉള്ളത്	-11.0674
▁ചേര	-11.0676
▁साफ	-11.068
▁જાતિ	-11.0681
▁നല്ലത്	-11.0682
▁अचानक	-11.0682
ep	-11.0684
▁ಮೈಕ್ರೋಸಾಫ್ಟ್	-11.0686
▁ज्यादातर	-11.0687
▁નામો	-11.0687
▁ആരംഭിച്ച	-11.0687
▁ಹೊಂದಿರುತ್ತವೆ	-11.0687
ીયા	-11.0689
▁ପାକିସ୍ତାନ	-11.069
▁മൂ	-11.069
▁തോന്ന	-11.0691
▁അനുഭവം	-11.0694
▁अफ्रीका	-11.0694
▁സാധിക്കും	-11.0695
▁ആളുകളെ	-11.0695
▁ಬಳಸಿದ	-11.0698
▁തീര	-11.0701
▁महिन्यात	-11.0701
ക്കൊപ്പം	-11.0701
▁ಪ್ರಾಯೋಗಿಕ	-11.0702
▁હેલ્થ	-11.0702
ાસ	-11.0702
ಲಾಗಿಲ್ಲ	-11.0703
▁ପିଲା	-11.0705
▁पकड़	-11.0707
▁ടെ	-11.0707
▁വരുന്നത്	-11.0708
▁ಅಕ್ಷರ	-11.0712
ाम	-11.0713
▁ಮಾಡಬೇಕೆಂದು	-11.0713
જુ	-11.0716
▁ಕೃತಿ	-11.0717
▁ವಿಶ್ವಾಸ	-11.0717
▁જેમાંથી	-11.0718
▁ഇമെയിൽ	-11.0719
▁પેઢી	-11.0719
▁ಚೀನೀ	-11.0721
▁ಕಲ್ಪಿಸ	-11.0727
▁ଘରେ	-11.073
▁स्पर्धा	-11.073
▁पाहू	-11.0731
ಿದ್ದಳು	-11.0733
▁ऑ	-11.0734
മാർക്ക്	-11.0735
▁માટેનું	-11.0736
▁ब्रांड	-11.074
▁ભાવિ	-11.074
स्ट्र	-11.074
▁ಲ	-11.0741
ीस	-11.0742
ियर	-11.0746
▁ଯାଇ	-11.075
റിൽ	-11.075
▁खत्म	-11.075
▁मुलांना	-11.0753
▁ಅನ್ವಯ	-11.0754
▁महा	-11.0756
▁પ્રત્યે	-11.0757
▁ಸ್ನಾಯು	-11.0758
▁ನಿರ್ದೇಶನ	-11.0758
ಕೊಂಡು	-11.0762
▁છેલ્લે	-11.0763
ଗୁଡିକ	-11.0766
▁સેન્ટ	-11.0766
▁ഫ്രഞ്ച്	-11.0767
ാകും	-11.0767
ിടത്തോളം	-11.0768
▁कौशल	-11.0769
▁ಮುಂದುವರೆಸ	-11.0771
▁ಪಡೆದುಕೊಳ್ಳ	-11.0775
▁ആക്രമണ	-11.0778
▁ഉപ	-11.0779
िटी	-11.0779
▁लक्षण	-11.078
▁प्राथमिक	-11.0781
▁ഭൂ	-11.0782
▁ଅର୍ଥ	-11.0782
▁ડિરેક્ટર	-11.0783
▁ಜಾರ್ಜ್	-11.0783
▁ಕಾಣಿಸಿಕೊಳ್ಳ	-11.0784
ऱ्या	-11.0786
▁ઇતિહાસમાં	-11.0786
ક્	-11.0788
▁നദി	-11.0788
ടെ	-11.0789
▁અસ્તિત્વ	-11.0791
▁ശാരീരിക	-11.0791
▁പ്രദേശ	-11.0792
▁ಅನುಕೂಲಕರ	-11.0792
ಪಲ್	-11.0793
▁આંકડા	-11.0794
▁ಬಳಸಿಕೊಳ್ಳ	-11.0794
▁કરેલી	-11.0795
▁ഫാ	-11.0796
▁ખર્ચાળ	-11.0796
▁ಟ್ವೀಟ್	-11.0796
▁ನಾನ	-11.0798
▁कनाडा	-11.0799
▁માપ	-11.08
▁ನಿಟ್ಟಿನಲ್ಲಿ	-11.0803
▁ശ്രമിക്കുക	-11.0804
▁कर्ज	-11.0804
▁ಖ	-11.0804
▁ಕೆನಡಾ	-11.0808
▁പറ്റി	-11.0811
▁ಆಂಡ್ರಾಯ್ಡ್	-11.0811
▁ಘೋಷಣೆ	-11.0811
ನರು	-11.0812
▁ડ્રગ	-11.0814
തിനേക്കാൾ	-11.0815
▁ನಿಮ್ಮೊಂದಿಗೆ	-11.0818
▁ધાર	-11.0819
▁പ്രോത്സാഹിപ്പി	-11.082
▁ଖୁସି	-11.082
▁apple	-11.082
▁ಕ್ರಿಶ್ಚಿಯನ್	-11.0821
▁मौजूदा	-11.0822
રેટ	-11.0824
ેસ	-11.0826
▁દસ્તાવેજ	-11.0826
▁ଚା	-11.0827
▁અધિકારી	-11.0827
▁संक्रमण	-11.0828
▁ચહેરા	-11.0828
ിട്ടുള്ളത്	-11.0829
▁પ્રોડક્ટ	-11.083
▁೨	-11.083
▁is	-11.0832
▁ಪತ್ತೆ	-11.0835
▁ચ	-11.0837
▁ടെസ്റ്റ്	-11.0838
ಿಕೊಳ್ಳಲು	-11.0841
▁सेंटर	-11.0843
થા	-11.0843
▁ଠାରୁ	-11.0846
▁ಸಮರ	-11.0846
ପାରିବେ	-11.0846
▁હેતુઓ	-11.0846
▁ನೋಡಿದ	-11.0846
▁എക്സ്	-11.085
ംഗ്	-11.0851
વાન	-11.0851
ઇસ	-11.0851
गार	-11.0854
▁અધ્યક્ષ	-11.0856
▁નેતૃત્વ	-11.0856
▁એન્	-11.0858
▁નોકરીઓ	-11.0859
▁એપલ	-11.0861
▁ತಿರುಗ	-11.0862
▁കാണുക	-11.0862
▁करनी	-11.0863
▁ನಡೆಯುವ	-11.0864
▁कार्रवाई	-11.0864
્સે	-11.0865
ിനോട്	-11.0865
▁ફોર	-11.0865
ೆಲ್ಲಾ	-11.0866
▁കൊണ്ടു	-11.0866
ವೀ	-11.0867
▁ಮಹಾನ್	-11.0868
▁સાંસ્કૃતિક	-11.0869
▁ಸೈನ್ಯ	-11.0871
▁लंबी	-11.0873
ങ്ങളുണ്ട്	-11.0874
▁હસ્તાક્ષર	-11.0877
ಶೀಲ	-11.0879
ନେ	-11.0879
ಯಿಲ್ಲ	-11.088
▁ચેતવણી	-11.0881
▁अधिकृत	-11.0881
ಅಸ್ತಿತ್ವದಲ್ಲಿರುವ	-11.0882
ವರೆಗಿನ	-11.0882
▁ଚେଷ୍ଟା	-11.0885
ಲಿನ	-11.0885
▁મંત્રાલય	-11.0885
▁ಸಮಸ್ಯೆಗಳು	-11.0886
▁ಪರ್ಯಾಯ	-11.0889
▁इच्छित	-11.089
▁ಬಟ್ಟೆ	-11.089
બ્ર	-11.089
▁बोलत	-11.0891
र्ण	-11.0891
▁ಗ್ರೇಟ್	-11.0892
▁સબ	-11.0892
▁ട്രംപ്	-11.0892
▁പകുതി	-11.0894
▁നിയന്ത്രണ	-11.0894
▁ഹൈ	-11.0896
ಂಪ್	-11.0897
▁ಹುದ್ದೆ	-11.0897
▁ति	-11.0898
ಜನ	-11.0899
▁पाठ्यक्रम	-11.0901
▁ખોટું	-11.0902
▁ಒಪ್ಪಂದದ	-11.0902
पाल	-11.0902
▁ହୁଏ	-11.0905
▁जाहीर	-11.0906
्त	-11.0908
ોનું	-11.0909
▁വിജയം	-11.091
▁ಜಾರಿ	-11.0911
▁പള്ളി	-11.0912
ंवर	-11.0912
▁ग्रह	-11.0913
▁ವಿಜಯ	-11.0917
▁പോകുന്നത്	-11.0919
बू	-11.0919
▁ജീവൻ	-11.0926
▁કૉલેજ	-11.0926
િટી	-11.0928
▁ಪೂರ್ಣಗೊಳಿಸ	-11.0929
▁કંઇ	-11.093
▁सप्टेंबर	-11.093
▁ഗെയിമ	-11.0931
▁സ്റ്റേറ്റ്	-11.0931
▁ടീമ	-11.0932
▁html	-11.0934
▁ग्रुप	-11.0934
▁माझं	-11.0934
▁ഏജൻസി	-11.0934
▁ಚಲಿಸ	-11.0935
▁ഉപയോഗിക്കാം	-11.0936
▁खरे	-11.0938
▁મેડિકલ	-11.0938
▁ಕೈಯಲ್ಲಿ	-11.0939
▁સમ	-11.094
प्त	-11.094
▁ಕಣ	-11.094
▁ಇಂಥ	-11.094
▁ବ୍ୟାଙ୍କ	-11.0942
▁ಪಾಲಿ	-11.0942
▁निम्न	-11.0943
▁ખાન	-11.0943
ଯାଇଛି	-11.0943
વેર	-11.0945
▁ഉപയോഗ	-11.0945
▁ಸಾಂಕ್ರಾಮಿಕ	-11.0947
ಾಗಿದ್ದು	-11.0949
ൻഡ	-11.095
▁સમર્પિત	-11.0951
▁ನಿರ್ಣಾಯಕ	-11.0951
▁કોર્ટે	-11.0953
ंब	-11.0954
▁પ્રકારો	-11.0956
▁സഹായിക്കുന്നു	-11.0959
र्थ	-11.0962
▁എഫ്	-11.0962
▁ಮುದ್ರಣ	-11.0963
▁आत्मा	-11.0963
▁असतील	-11.0965
▁തന്ന	-11.0967
▁विस्तृत	-11.0967
ರೆಯ	-11.0968
▁ಬೆಳೆಸ	-11.0969
ವಾದದ್ದು	-11.097
▁उनसे	-11.0971
▁सॉफ्टवेयर	-11.0972
ಿಕೊಂಡು	-11.0972
▁સેકન્ડ	-11.0976
▁സംഗീതം	-11.0976
▁ବିକାଶ	-11.0978
▁વાપરવા	-11.0982
▁ರಾಷ್ಟ್ರಗಳ	-11.0982
▁હાંસલ	-11.0984
▁ફૂટબોલ	-11.0984
േക്ക	-11.0985
ನ್ನೇ	-11.0985
▁आते	-11.0986
દર	-11.0987
▁યાત્રા	-11.0989
रों	-11.0989
▁लौट	-11.0989
▁ದೇಹದಲ್ಲಿ	-11.099
▁એટલું	-11.0992
▁ജീവിക്ക	-11.0994
▁गाडी	-11.0994
▁ಕಾರ್ಯದರ್ಶಿ	-11.0996
▁महीनों	-11.0996
ಡಿಯ	-11.0997
ವಿಲ್ಲದೆ	-11.0999
യെന്ന	-11.1001
ಡಿಂಗ್	-11.1005
▁मुद्रा	-11.1005
त्	-11.1005
ಾದರೂ	-11.1006
ോടും	-11.1006
cc	-11.1007
▁ପାଳନ	-11.1008
▁બળ	-11.1009
▁പരിഗണിക്ക	-11.1011
▁मिले	-11.1011
po	-11.1014
▁ಮುಖ್ಯಸ್ಥ	-11.1015
▁ಪ್ಯಾರಿಸ್	-11.1015
▁ಒಪ್ಪಿಕೊಳ್ಳ	-11.1016
▁ಬದಲಾಯಿಸಲು	-11.1018
▁ભરતી	-11.1018
▁જાપાન	-11.102
ಕ್ಕಿ	-11.1022
▁सरकारने	-11.1023
▁राहत	-11.1023
▁हवे	-11.1023
▁જોવામાં	-11.1024
▁ଚାଲି	-11.1025
▁ജോൺ	-11.1025
▁સૉફ્ટવેર	-11.1026
▁ನೆರವು	-11.1026
▁अभियान	-11.1026
▁ವಸ್ತುಗಳು	-11.1026
വെന്ന്	-11.1026
▁લીગ	-11.1026
▁चलता	-11.1026
▁ಸಾಮಾನ್ಯವಾಗಿದೆ	-11.1027
▁ಪರಿಕಲ್ಪನೆ	-11.1029
▁આર્ટ	-11.1032
കാര്യ	-11.1034
▁ട	-11.1036
▁ಬಳಸುವುದು	-11.1036
▁જોડાયેલા	-11.1037
▁खंड	-11.1037
▁ತೃಪ್ತಿ	-11.1038
▁ಬ್ರ್ಯಾಂಡ್	-11.1038
▁खाना	-11.1039
▁ಸಂದರ್ಭ	-11.1039
ലോകമെമ്പാടുമുള്ള	-11.104
▁મોદીએ	-11.104
▁માર્ગદર્શિકા	-11.1041
▁പ്രോഗ്രാമ	-11.1043
▁बरोबर	-11.1046
▁ಆಕರ್ಷಕ	-11.1046
▁જણાવી	-11.1048
▁ಕರೆಯುತ್ತಾರೆ	-11.1049
▁ಯೋಜನೆಗಳನ್ನು	-11.105
▁डिज़ाइन	-11.1051
▁प्राचीन	-11.1051
▁ಉತ್ತಮವಾದ	-11.1054
▁द्वीप	-11.1055
▁લંડન	-11.1055
▁આઉટ	-11.1057
ાયા	-11.1057
▁കൂടുതല	-11.1058
▁પ્લાસ્ટિક	-11.1059
mb	-11.106
▁എൽ	-11.106
▁लिख	-11.106
ଦି	-11.106
▁સંમત	-11.1061
▁ભવિષ્ય	-11.1062
▁ബ്ര	-11.1063
▁ગુમાવી	-11.1063
▁ಶಾಲೆಯಲ್ಲಿ	-11.1064
િયર	-11.1064
▁રાહત	-11.1065
▁માસ્ટર	-11.1065
▁વર્ક	-11.1066
▁ହୋଇପାରେ	-11.1068
▁എളുപ്പ	-11.1068
▁ರಫ್ತು	-11.1071
▁ವ್ಯಾ	-11.1072
▁ಬಳಸುತ್ತದೆ	-11.1074
▁प्रारंभ	-11.1074
▁वक्त	-11.1074
ତିକ	-11.1075
▁കുട്ടികൾക്ക്	-11.1075
നായിരുന്നു	-11.1076
▁ಅಂಕ	-11.1078
▁हु	-11.1078
▁खाता	-11.1079
▁ಸೌಲಭ್ಯ	-11.1079
ಪ್ರತಿ	-11.1081
▁डो	-11.1081
▁പ്രോ	-11.1082
▁होम	-11.1083
ಿಂದಲೇ	-11.1084
▁വിശ്വസിക്കുന്നു	-11.1085
ଫି	-11.1086
टेक	-11.1086
▁ઇંચ	-11.1087
▁મિલ	-11.1087
▁નિર્ધારિત	-11.1088
▁കിടക്ക	-11.1092
ರೇಟ್	-11.1092
▁पर्यटन	-11.1092
▁ಟ್ರ್ಯಾಕ್	-11.1094
▁ସମ୍ପର୍କ	-11.1094
ಟ್ಟಿ	-11.1097
▁वै	-11.1097
▁ಮಾಡುತ್ತವೆ	-11.1098
ಣ್ಣ	-11.1098
कू	-11.1101
पत्र	-11.1102
▁ಫೈಲ್ಗಳನ್ನು	-11.1103
▁ಸೂಕ್ತವಾದ	-11.1103
ତ୍ର	-11.1105
ાર	-11.1105
▁ପ୍ରେମ	-11.1106
▁માન્ય	-11.1107
ರಾನ್	-11.1108
ಗ್ರಾ	-11.1111
िस्ट	-11.1112
▁સન્માન	-11.1112
▁രാജ്യത്തിന്റെ	-11.1113
टि	-11.1113
▁ଖାଦ୍ୟ	-11.1113
▁ಒಟ್ಟಾಗಿ	-11.1115
▁ಕಾರ್ಯಗಳನ್ನು	-11.1116
▁ಯಶಸ್ಸು	-11.1118
▁ತರಲು	-11.1119
▁പാട	-11.1121
▁ಹೊಂದಿದ್ದ	-11.1122
वह	-11.1123
▁માઇલ	-11.1123
▁സമാനമായ	-11.1125
▁ଘୋଷଣା	-11.1126
▁ପ୍ରତ୍ୟେକ	-11.1126
▁ಸುಪ್ರೀಂ	-11.1126
▁वायु	-11.1127
െന്നാണ്	-11.1128
യാക	-11.1129
ಿನಲ್ಲಿ	-11.1129
ಸಸ್	-11.113
▁ಮಾಡಿದಾಗ	-11.1133
▁ઈન્ટરનેટ	-11.1134
ഞങ്ങൾ	-11.1135
▁ಲಕ್ಷಣ	-11.1135
▁सोचा	-11.1137
▁ખરીદ	-11.1137
▁તબક્કામાં	-11.1138
▁ବେ	-11.114
▁ତାରିଖ	-11.1141
ಕ್ಸಿ	-11.1143
▁ശരീരം	-11.1144
▁ಪ್ರಾರಂಭಿಸಿ	-11.1145
▁ಭಾಷೆಯ	-11.1145
▁ओपन	-11.1148
▁ભર	-11.1151
ंसाठी	-11.1151
▁व्यायाम	-11.1151
▁ಮಾತಾಡ	-11.1153
▁ലഭിച്ചു	-11.1154
▁ચાઇના	-11.1155
▁ಶನಿವಾರ	-11.1155
ಿದ್ದೀರಾ	-11.1156
▁അവന	-11.1157
ll	-11.1158
▁ଆବଶ୍ୟକତା	-11.1159
▁કશું	-11.1162
▁નિષ્ણાતો	-11.1162
▁എഴുതി	-11.1165
ವಾದರೂ	-11.1165
▁संग्रहालय	-11.1168
▁കുറവ	-11.1168
▁ತಂತ್ರ	-11.1169
▁ಗುರು	-11.1169
ોલ	-11.117
▁उड़ान	-11.1172
સ્ટ્ર	-11.1173
▁बदलने	-11.1174
ങ്ങൾക്കും	-11.1177
▁ಉತ್ತಮವಾಗಿದೆ	-11.1178
▁ആഘോഷ	-11.118
▁मिनिट	-11.118
▁उल्लेख	-11.1181
▁नव्हतं	-11.1185
▁നേരെ	-11.1187
मेल	-11.1188
▁ડોક્ટર	-11.1189
▁તારા	-11.119
▁ಒಕ್ಕೂಟದ	-11.1193
ଡା	-11.1193
▁ಪರವಾಗಿ	-11.1195
▁રાજ્યોમાં	-11.1195
▁ಸೊ	-11.1195
▁ಯೇಸು	-11.1196
ಜೀ	-11.1197
▁mi	-11.1197
▁फायदे	-11.1198
▁फेब्रुवारी	-11.1198
▁നിറഞ്ഞ	-11.1199
▁നിലവിലെ	-11.1202
ನೌ	-11.1202
▁સાંભળવા	-11.1203
▁ସରକାରଙ୍କ	-11.1204
▁रु	-11.1204
ಬೇಕಾದರೆ	-11.1204
લિન	-11.1205
▁ଯେଉଁ	-11.1205
▁દેવું	-11.1209
▁वाईट	-11.121
▁ಪ್ರಾದೇಶಿಕ	-11.121
▁ರಾಕ್	-11.1211
▁લિંક	-11.1211
▁con	-11.1212
▁देर	-11.1213
▁ಆಮ್ಲ	-11.1214
നിൽ	-11.1217
▁समज	-11.1218
▁आबादी	-11.1219
▁बावजूद	-11.1219
▁ಕಾಲೇಜ್	-11.1219
ോടു	-11.1221
▁ಎಚ್ಚರಿಕೆಯಿಂದ	-11.1221
▁फ्रेंच	-11.1223
▁नकारात्मक	-11.1223
▁ಸಮ	-11.1224
▁ವಿಚಾರಣೆ	-11.1225
▁പറഞ്ഞാൽ	-11.1226
▁ಸಿಂ	-11.1229
▁बंगाल	-11.1232
▁ಪಡ	-11.1233
▁અલ	-11.1237
▁ಪರಿಣಾಮವನ್ನು	-11.1238
▁મોકલવામાં	-11.1239
▁କର	-11.1239
▁ಓಪನ್	-11.124
▁उपयोगी	-11.1241
▁ಸಾಧ್ಯವಾಗ	-11.1242
▁ಬೆಳೆದ	-11.1242
▁നിറം	-11.1242
▁भाव	-11.1242
▁ad	-11.1243
▁ಸೇ	-11.1244
▁ಜೇಮ್ಸ್	-11.1244
ರಸ್	-11.1245
▁ଜାରି	-11.1245
▁કરીશ	-11.1245
ફ્રે	-11.1245
▁ഡോളറ	-11.1248
▁भू	-11.1249
▁ವಿವರ	-11.1249
▁റെ	-11.1249
▁ಅಧಿಕೃತವಾಗಿ	-11.1252
▁કોશિકાઓ	-11.1253
▁തലമുറ	-11.1253
▁કલમ	-11.1255
▁ಎತ್ತರ	-11.1256
്യം	-11.1256
▁ದುಃಖ	-11.1257
▁प्रकृति	-11.1257
▁नव्या	-11.1259
▁માલિકી	-11.126
ದಲ್ಲೇ	-11.126
ക്കാണ്	-11.1261
ಮೂ	-11.1262
വുമില്ല	-11.1262
:-	-11.1263
▁ಪಾರ್ಟಿ	-11.1266
ിക്	-11.1267
▁कर्मचारियों	-11.127
▁ಸಕ್ಕರೆ	-11.127
▁એકત્રિત	-11.127
ment	-11.1271
▁ચાર્ટ	-11.1272
▁बनाता	-11.1272
▁ಇಂ	-11.1273
▁കാണുന്നത്	-11.1273
▁തേട	-11.1275
ೇಷನ್	-11.1276
▁ವಿಮಾ	-11.1276
▁ಓದಲು	-11.1277
ಯಾಯಿತು	-11.1278
ફી	-11.1278
▁शिक	-11.1279
▁धोरण	-11.128
▁जहाज	-11.128
▁भेज	-11.128
▁ಚಿಹ್ನೆ	-11.1282
▁ಅಸ್ವಸ್ಥತೆ	-11.1283
▁ફ્લ	-11.1283
ಮೈ	-11.1284
▁വിപണിയിൽ	-11.1285
▁सारी	-11.1287
▁मंच	-11.1287
મન	-11.1288
▁അനുവദിക്കുന്നു	-11.1295
▁ಮಾರ್ಗದರ್ಶಿ	-11.1296
▁मिलेगा	-11.1297
▁त्याच	-11.1297
▁સાંજે	-11.1297
▁આવશ્યકતા	-11.1298
▁उचित	-11.13
▁जंगल	-11.13
દ્ર	-11.1301
▁ಗೌಪ್ಯತೆ	-11.1304
▁કૃષિ	-11.1304
▁સ્કોર	-11.1304
▁भा	-11.1304
▁ഫോർ	-11.1305
dr	-11.1305
▁ನಿಜಕ್ಕೂ	-11.1306
▁અપડેટ	-11.1307
▁ಮಾತ್ರವಲ್ಲ	-11.1308
▁जटिल	-11.1308
▁ಪರ್	-11.1309
▁ಪ್ರಾರಂಭ	-11.131
▁एच	-11.1311
▁ಸ್ತನ	-11.1312
മാവ	-11.1316
▁क्षेत्रात	-11.1316
▁ನೂರಾರು	-11.1317
▁ಗುರುತಿಸಲು	-11.1318
ವಾಗುವ	-11.1323
▁ചിന്തിക്ക	-11.1323
▁पंजाब	-11.1325
▁ବାପା	-11.1326
▁ಕಣ್ಣಿನ	-11.1326
▁ટેક્સ્ટ	-11.1327
ठा	-11.1328
ेश	-11.1331
▁ವಿವರಗಳನ್ನು	-11.1333
▁विज्ञापन	-11.1334
▁ಭಾಷೆಯಲ್ಲಿ	-11.1337
▁ವಲಸೆ	-11.1338
▁ಪ್ರಕ್ರಿಯೆಯು	-11.1339
▁ಸಾಧ್ಯವಾಗಲಿಲ್ಲ	-11.1339
co	-11.1339
શ્	-11.1341
▁କେତେ	-11.1341
▁કહીએ	-11.1343
▁ഇൻസ്റ്റാൾ	-11.1343
▁ಟ್ವಿಟರ್	-11.1343
▁जिंक	-11.1343
▁ଫେରି	-11.1343
മായും	-11.1344
▁ಹಕ್ಕನ್ನು	-11.1347
▁କହିଲେ	-11.1348
▁കുറ്റ	-11.1349
▁અભ્યાસમાં	-11.1351
▁ഉൾപ്പെടുത്ത	-11.1351
▁പത്ത്	-11.1351
▁ബിസിനസ്സ	-11.1352
▁ભૂલો	-11.1352
▁ખંડ	-11.1352
കൾക്കും	-11.1353
▁സുഹൃത്ത	-11.1354
▁ट्र	-11.1354
▁संचालन	-11.1356
▁ହେଉ	-11.1358
କ୍ସ	-11.1359
▁ഇത്ര	-11.1362
▁ನಾನೇ	-11.1362
▁എന്തായാലും	-11.1364
▁ગોલ્ફ	-11.1364
▁അറിയാൻ	-11.1364
▁be	-11.1366
▁ସାରା	-11.1366
▁वन	-11.1367
▁ಮಾಡಲಾದ	-11.1368
▁ഭാഗമാണ്	-11.137
▁ഫയലുകൾ	-11.1371
▁ಜಾಗ	-11.1373
ട്ടോ	-11.1373
▁സഭ	-11.1373
▁ಸರ್ವ	-11.1374
▁ಕರ್ನಾಟಕ	-11.1376
▁പെട്ടെന്ന്	-11.1376
▁तरीही	-11.1377
▁ಗಿ	-11.1378
▁पाने	-11.1379
ଚି	-11.1382
▁બાદમાં	-11.1382
സൺ	-11.1383
▁પછીના	-11.1384
ശാ	-11.1384
▁ಪ್ಲಾಸ್ಟಿಕ್	-11.1386
യുമാണ്	-11.1387
▁એકમ	-11.1388
▁चैनल	-11.1388
▁ಪದಗಳನ್ನು	-11.1388
▁ಸಂಪರ್ಕವನ್ನು	-11.1388
▁વચન	-11.139
▁അടി	-11.1391
ല്	-11.1391
▁સવાલ	-11.1392
▁കാറ	-11.1393
▁અન	-11.1393
▁ದ್ರವ	-11.1394
▁चेहरे	-11.1394
▁ખુલ્લા	-11.1394
▁એશિયા	-11.1395
▁શાંત	-11.1395
em	-11.1396
▁മേഖലയിൽ	-11.1396
▁അതി	-11.1398
▁વ્યાખ્યા	-11.1399
▁ಬುಧವಾರ	-11.1399
▁वाटतं	-11.1399
▁ସାହାଯ୍ୟ	-11.1403
▁ಐಪ್ಯಾಡ್	-11.1403
▁દળો	-11.1403
▁ಲೇಖಕ	-11.1404
ിട്ടുണ്ടോ	-11.1404
▁ಮಾಡಬಹುದಾದ	-11.1404
દ્યોગિક	-11.1405
ामुळे	-11.1409
േക്ക്	-11.1409
▁देशात	-11.141
▁સહયોગ	-11.1412
▁ಆಸಕ್ತಿದಾಯಕ	-11.1414
▁दरवर्षी	-11.1416
▁કંપનીની	-11.1417
▁സ്വപ്നം	-11.1419
pl	-11.1419
▁ગાંધી	-11.142
▁ଭିଡିଓ	-11.142
▁શિક્ષકો	-11.142
▁સ્ટીલ	-11.1421
▁साधन	-11.1422
▁ହୋଇଥିଲେ	-11.1422
कों	-11.1423
▁બ્લોગ	-11.1425
▁ସଂ	-11.1425
▁जाओ	-11.1426
▁पेशेवर	-11.1427
▁ಬ್ಲಾಗ್	-11.1429
ഭാവ	-11.143
▁ಸಿಕ್ಕ	-11.1431
▁विवाह	-11.1435
▁ಫೋ	-11.1437
▁पात्र	-11.1438
▁कानूनी	-11.144
▁कशी	-11.1441
ab	-11.1443
▁ವಾಲ್	-11.1445
▁कार्यों	-11.1446
▁ಬಣ್ಣವನ್ನು	-11.1447
▁ತಪ್ಪ	-11.1447
▁એજન્ટ	-11.1449
മെന്റ്	-11.1449
▁ನಿನ್ನನ್ನು	-11.1449
▁વિશ્વસનીય	-11.145
େଲ	-11.145
▁ಪು	-11.145
▁ಪ್ರತಿಭಟನೆ	-11.1451
ुक	-11.1451
▁ରା	-11.1452
▁जोड़	-11.1456
▁ജനസംഖ്യ	-11.1459
▁वायरस	-11.1459
▁ರೇಡಿಯೋ	-11.146
ाया	-11.146
ଭା	-11.146
▁ಮೇಲ್ಮೈ	-11.1461
▁म्हणाला	-11.1462
▁ഇല്ലാതെ	-11.1464
▁ನೇಮಕ	-11.1464
▁അറസ്റ്റ്	-11.1464
▁ಫಲಿತಾಂಶಗಳು	-11.1464
▁ಚಕ್ರ	-11.1466
▁अंग	-11.1467
യാണോ	-11.1468
▁यूएस	-11.1468
▁മൂന്ന	-11.1469
▁ವಾಸಿಸ	-11.1471
▁સ્ત્રોત	-11.1472
▁પ્રસિદ્ધ	-11.1472
▁समस्याओं	-11.1473
▁જીવી	-11.1473
▁സിറ്റി	-11.1473
▁પ્રકાશન	-11.1473
▁બદલાય	-11.1475
▁ಬಹುಪಾಲು	-11.1477
▁ವಿಜೇತ	-11.1479
धि	-11.1479
▁താ	-11.148
▁संरचना	-11.148
▁ಸದಾ	-11.148
▁ಅಸೋಸಿಯೇಷನ್	-11.1481
▁पाहिले	-11.1481
▁ರಕ್ತದ	-11.1481
સ્પ	-11.1482
ന്ദ	-11.1483
रिक	-11.1483
ിച്ചത്	-11.1486
▁ಕಾರಣಗಳಿಗಾಗಿ	-11.1486
▁ತರಗತಿ	-11.1487
▁ಬೀಳ	-11.149
▁ऑपरेशन	-11.149
▁સ્પેસ	-11.1491
▁ವಿತರಣೆ	-11.1493
▁રીતો	-11.1494
▁ആരംഭിച്ചു	-11.1495
തെന്നും	-11.1497
ഫ്ര	-11.1498
▁વિદેશ	-11.1498
▁ഉപകരണം	-11.1499
▁കേ	-11.1502
▁വൈദ്യുതി	-11.1502
od	-11.1505
▁ઇંગ્લેન્ડ	-11.1507
ೊಬ್ಬ	-11.1509
ರಣ	-11.1509
▁read	-11.151
▁ರೂಪಾಯಿ	-11.1512
ിനൊപ്പം	-11.1512
▁नौ	-11.1512
▁ಹಿಂದಿರುಗ	-11.1514
സും	-11.1514
▁मुद्दों	-11.1516
▁എനിക്കറിയാം	-11.1516
ರವರೆಗೆ	-11.1517
▁બીમારી	-11.1519
▁ಜರ್ಮನಿಯ	-11.1519
▁ತಂತ್ರಜ್ಞಾನದ	-11.152
ેશ	-11.1521
▁ಲೋಕ	-11.1521
ುವುದಕ್ಕಿಂತ	-11.1522
ധി	-11.1522
▁ಹಡಗು	-11.1523
യ്ക്കായി	-11.1524
▁ಹೀಗ	-11.1528
▁न्यूनतम	-11.1529
▁इंडियन	-11.1529
ରୋ	-11.1529
ଲୋ	-11.1533
▁സൂപ്പർ	-11.1534
▁ಆಯೋಗ	-11.1534
ડિયા	-11.1535
ie	-11.1537
୯	-11.1537
▁ಹೆಚ್ಚಿನವು	-11.1538
▁पुष्टि	-11.1538
▁ತೆರಳ	-11.1538
▁ആശ്രയിച്ചിരിക്ക	-11.1539
▁फीसदी	-11.1539
ിനുള്ള	-11.1541
ದ್ರ	-11.1542
▁ટ્રમ્પ	-11.1542
▁फो	-11.1545
▁ഉയര	-11.1545
▁ವಿವರಿಸಲು	-11.1546
▁वर्षात	-11.1546
▁ചോദിച്ച	-11.1547
▁कॉफी	-11.1547
▁ટેક	-11.1548
hi	-11.1548
▁खरीदने	-11.1549
▁संभावित	-11.1551
ಿಗಳು	-11.1553
▁स्क	-11.1553
ങ്ങളുടെയും	-11.1554
ബോ	-11.1555
▁ଜ	-11.1555
▁ಚಿಲ್ಲರೆ	-11.1555
▁विक्री	-11.1556
▁ಅಲೆ	-11.1556
▁दूरी	-11.1557
▁ऑफ़	-11.1557
▁ജീവിതത്തിലെ	-11.1558
pr	-11.1558
▁प्रेरित	-11.1558
തൊ	-11.1559
▁ಆಸೆ	-11.1559
പ്പെടും	-11.1559
▁ഹോട്ടൽ	-11.156
ર્જ	-11.1562
કિ	-11.1564
ಪ್ಲಾ	-11.1568
ધા	-11.1569
▁പ്രഖ്യാപിച്ച	-11.157
▁ಪ್ರಕರಣಗಳು	-11.157
▁વાંચી	-11.1571
▁लड़	-11.1573
മാക്കി	-11.1573
▁ഗോ	-11.1573
▁हाई	-11.1573
▁ಬಡ	-11.1574
ಾಗಿದೆ	-11.1576
▁കിട്ടിയ	-11.1581
लेले	-11.1583
▁കൂടിയ	-11.1583
▁ಸಂವಿಧಾನದ	-11.1583
▁રદ	-11.1585
କର	-11.1585
બલ	-11.1586
▁प्रोजेक्ट	-11.1591
▁रेलवे	-11.1591
ઓનો	-11.1592
▁અઠવાડિયામાં	-11.1592
▁पै	-11.1592
▁લખવા	-11.1593
▁ഒരുമിച്ച്	-11.1593
▁ગ્રુપ	-11.1595
▁ഉണ്ടാക്ക	-11.1595
തോടെ	-11.1595
▁હોલ	-11.1597
▁ಸೂರ್ಯ	-11.1598
▁വിവരം	-11.16
▁ಉತ್ಪನ್ನವನ್ನು	-11.1601
▁ನಡೆಸುವ	-11.1601
▁ફિ	-11.1602
▁રૂ	-11.1603
▁करेल	-11.1603
▁પેટ	-11.1603
ണമെന്ന	-11.1603
▁മില്യൺ	-11.1604
▁ജീവിതത്തിന്റെ	-11.1605
ಹಾರ	-11.1605
▁പോവ	-11.1605
▁സംരംഭ	-11.1606
ಲ್ಪಡುತ್ತವೆ	-11.1608
ेंस	-11.1609
▁નિવેદન	-11.1611
▁પુરસ્કાર	-11.1612
▁પડ	-11.1613
▁മത്സരം	-11.1613
mm	-11.1614
ಶೀ	-11.1615
ಗರ್	-11.1617
▁ନିର୍ବାଚନ	-11.162
કેટ	-11.1621
▁ମିଳି	-11.1621
ୌ	-11.1621
ख़	-11.1622
ುವಿಕೆಯ	-11.1623
छ	-11.1625
▁ಜೋಡಿಸ	-11.1625
▁ಸ್ಥಾಪಿಸಲು	-11.1626
▁કમિશન	-11.1626
ത്വ	-11.1626
▁ಏರಿಕೆ	-11.1626
▁સિંગલ	-11.1629
▁ವೆಚ್ಚವನ್ನು	-11.163
▁ಸಮೀಕ್ಷೆ	-11.163
um	-11.1633
▁നടപ്പാക്ക	-11.1634
ul	-11.1634
▁ಪರೀಕ್ಷೆಯನ್ನು	-11.1635
▁ನಾವೆಲ್ಲರೂ	-11.1635
▁बुधवार	-11.1637
ांशी	-11.164
ir	-11.1642
▁અંતર્ગત	-11.1644
▁ಚುನಾವಣಾ	-11.1644
▁દીકરી	-11.1644
▁કાશ્મીર	-11.1645
ಧಾರ	-11.1646
▁ಮುಂಚೆ	-11.1646
▁ग्रामीण	-11.1648
തായിരുന്നു	-11.165
▁ഫലങ്ങൾ	-11.1651
▁y	-11.1652
▁વ્યક્તિની	-11.1652
▁જોશો	-11.1652
▁તેટલી	-11.1653
▁બહુવિધ	-11.1653
▁ତଥା	-11.1654
ંત	-11.1656
▁एशिया	-11.1656
▁फ्री	-11.1657
▁തുടക്കത്തിൽ	-11.166
▁કલાકારો	-11.166
▁स्वातंत्र्य	-11.1661
▁ಜಮ್ಮು	-11.1661
പ്ല	-11.1662
▁ಮರಳ	-11.1663
▁उपस्थित	-11.1663
▁ಬೀರ	-11.1663
ટેક	-11.1664
तुम	-11.1664
▁ಮಿಶ್ರಣ	-11.1667
▁ಸ್ಥಿತಿಯನ್ನು	-11.1668
ിപ്പ	-11.1669
▁मुताबिक	-11.167
▁പ്രതിസന്ധി	-11.167
▁दाखल	-11.167
▁ચી	-11.1671
ायचं	-11.1671
્મ	-11.1673
▁സൈറ്റ്	-11.1673
ദേശ	-11.1673
ായിരുന്ന	-11.1675
▁ಔಟ್	-11.1675
ढ़	-11.1677
▁ಶುದ್ಧ	-11.1678
▁ડાયાબિટીસ	-11.1679
▁સ્વરૂપો	-11.1679
▁ಏಜೆನ್ಸಿ	-11.1684
ಕ್ಟರ್	-11.1685
▁ಹೊಂದಿರುತ್ತಾರೆ	-11.1685
▁ಕೊಠಡಿ	-11.1685
▁ಮಾಡಬಾರದು	-11.1686
▁പതിപ്പ്	-11.1687
▁ചോദ്യങ്ങൾ	-11.169
▁ಪೋಷಕರು	-11.1692
▁फल	-11.1692
किंग	-11.1692
▁જતા	-11.1692
▁സർവകലാശാല	-11.1693
▁વિજેતા	-11.1695
▁મતદાન	-11.1697
▁पड़ा	-11.1698
▁am	-11.1698
▁ಕಾರಣಕ್ಕಾಗಿ	-11.1699
▁आखिरी	-11.17
▁ಹಾಕಿ	-11.17
ವಾನ್	-11.1701
▁બ્રિટીશ	-11.1701
▁તેમાંના	-11.1702
ಪೇ	-11.1703
ವಾದಿ	-11.1704
▁કાયદેસર	-11.1706
્લી	-11.1706
▁ಬೊ	-11.1707
ലേ	-11.1707
▁નેતાઓ	-11.1708
▁ಇತಿಹಾಸದ	-11.1708
▁വിഭാഗ	-11.1708
▁ಸವಾಲು	-11.1709
va	-11.1709
તાને	-11.171
▁ಯಶಸ್ವಿಯಾಗಿ	-11.171
▁औद्योगिक	-11.171
▁ചെലവ്	-11.1714
▁അറിയിക്ക	-11.1714
▁ಲೋ	-11.1714
▁ಪೂರೈಸಲು	-11.1716
▁शहरों	-11.1717
ದಿನ	-11.1717
▁आलं	-11.1717
▁ମସିହାରେ	-11.1719
▁നടത്തുന്ന	-11.1719
▁വെള്ള	-11.1719
▁સંદર્ભમાં	-11.1721
ಇನ್	-11.1721
▁આફ્રિકા	-11.1723
▁ಕಲಾ	-11.1724
▁स्थिर	-11.1724
▁મજા	-11.1725
▁यादी	-11.1727
▁પૂછો	-11.1728
▁असतं	-11.1729
ઠા	-11.1729
▁જિલ્લા	-11.173
िक्स	-11.1731
ટિક	-11.1732
▁निर्यात	-11.1733
વાનું	-11.1734
▁જવાની	-11.1735
▁മേ	-11.1736
▁ಚುನಾವಣೆಯಲ್ಲಿ	-11.1737
ଏସ	-11.174
▁ಸಂಪನ್ಮೂಲ	-11.174
▁कायदा	-11.174
▁ಕೈಗೊಂಡ	-11.1741
▁मेहनत	-11.1741
pi	-11.1743
▁അതിന	-11.1743
ક્ર	-11.1744
▁പ്രൊഫഷണൽ	-11.1746
▁मौका	-11.1746
▁ആകുന്നു	-11.1748
िप	-11.175
▁बेच	-11.1751
▁વેચવા	-11.1751
യാണു	-11.1752
▁മാർക്കറ്റിംഗ്	-11.1753
▁बॉक्स	-11.1753
▁મોટર	-11.1753
▁લખ	-11.1755
▁સ્વીકાર	-11.1756
कृत	-11.1758
नों	-11.1759
ക്കുക	-11.176
▁ಮನುಷ್ಯನ	-11.1762
▁രാജ്യങ്ങൾ	-11.1762
▁हस्ताक्षर	-11.1764
▁જમા	-11.1765
▁വിതരണം	-11.1767
▁ca	-11.177
▁आठवड्यात	-11.177
▁ಅರ್	-11.1771
▁ವಾಸ್ತವ	-11.1773
▁कनेक्ट	-11.1773
▁सतत	-11.1773
ಮ್ಮ	-11.1774
▁ખોટી	-11.1775
▁બિ	-11.1777
▁ಚಿಂತೆ	-11.1778
▁ಗ್ರಾಂ	-11.1778
▁चले	-11.1778
ಭಾಗ	-11.178
▁ಮಾಡಬೇಕಾಗುತ್ತದೆ	-11.178
ಕ್ಕಿಂತಲೂ	-11.178
▁ಸಭೆಯಲ್ಲಿ	-11.1781
▁ಆಲ್ಬಂ	-11.1782
▁no	-11.1782
▁खेलने	-11.1784
▁હતુ	-11.1785
ബർ	-11.1787
▁ಅಭ್ಯರ್ಥಿ	-11.1787
डर	-11.1787
▁વિસ્તરણ	-11.1791
ચા	-11.1791
▁ವಿನ್ಯಾಸಗೊಳಿಸ	-11.1791
▁સદી	-11.1792
ડુ	-11.1794
ಡಿಎ	-11.1795
िए	-11.1797
▁શાળાઓ	-11.1797
▁ಬೆಳವಣಿಗೆಯ	-11.1798
▁ವೀಡಿಯೋ	-11.18
ಸಿಯ	-11.18
▁होनी	-11.1801
▁ಅರಿ	-11.1802
▁जानना	-11.1803
▁दा	-11.1804
▁अदालत	-11.1804
▁ಅಷ್ಟು	-11.1805
▁ପି	-11.1806
▁ରୁ	-11.1808
▁सेंट	-11.1809
▁നിയന്ത്രിക്ക	-11.1809
▁दिखा	-11.181
▁प्रेरणा	-11.1813
▁ಎನ್ನುವ	-11.1814
▁ಮಹಿಳೆಯ	-11.1815
കെ	-11.1816
▁ಗುಣ	-11.1816
തെല്ലാം	-11.1818
▁गयी	-11.1818
▁ಹೆಚ್ಚಿನದನ್ನು	-11.1819
मु	-11.1821
▁ಏಷ್ಯಾ	-11.1821
ંજ	-11.1822
ाइन	-11.1824
▁ಲಕ್ಷಣಗಳು	-11.1824
▁താര	-11.1825
▁ಪರಿಗಣಿಸಲಾಗಿದೆ	-11.1827
▁മധ്യ	-11.1827
▁ಎಚ್	-11.183
▁पढ़ें	-11.183
▁ಹಂಚಿಕೊಳ್ಳಲು	-11.1831
▁पेशकश	-11.1831
▁ટેલિવિઝન	-11.1831
▁निभा	-11.1831
▁દાયકાના	-11.1831
▁mac	-11.1833
തിനെ	-11.1836
▁रोजगार	-11.1836
▁राय	-11.1839
▁खाने	-11.1839
ಪ್ರಾರಂಭವಾಗುತ್ತದೆ	-11.1839
▁આઇફોન	-11.184
▁ಗುರುವಾರ	-11.1841
▁कोणत्या	-11.1843
▁ફા	-11.1844
▁ಅಧ್ಯಯನದ	-11.1845
▁ಅನುಸರಿಸಿ	-11.1845
લાઇન	-11.1846
▁ಇಲ್ಲಿಗೆ	-11.1848
▁പ്ലാൻ	-11.1848
വല	-11.1849
▁ସାଧାରଣ	-11.1849
▁୨୦୦	-11.185
▁ಹೆಚ್ಚುವರಿಯಾಗಿ	-11.185
सू	-11.1851
रेट	-11.1853
चार	-11.1853
▁ଦେବା	-11.1854
▁मुला	-11.1855
▁ଧ	-11.1855
ീയ	-11.1856
▁നഷ്ടപ്പെട	-11.1856
ರದ	-11.1856
▁ಕಂಡುಬರುವ	-11.1857
▁યુગ	-11.1857
▁કોરિયા	-11.1858
▁ಸೇವೆಯ	-11.1859
इंग	-11.1862
▁प्रकरण	-11.1864
▁નિર્ણયો	-11.1865
▁પુરુષ	-11.1866
▁ಮೌಲ್ಯದ	-11.1866
▁અપીલ	-11.1868
▁बीमारी	-11.1868
वरून	-11.1868
▁ಮಹ	-11.1868
▁ಶೋ	-11.1868
▁ನನಗ	-11.1871
▁ಟೇಬಲ್	-11.1872
▁മനസ്സ	-11.1872
▁ಪ್ರದೇಶವನ್ನು	-11.1873
▁ചേർക്ക	-11.1874
▁സംശയ	-11.1876
▁ઑફ	-11.1877
ಲಿವೆ	-11.1879
▁ಮಾಡಬೇಡಿ	-11.188
▁ജനിച്ച	-11.188
▁યુરોપમાં	-11.188
▁ಹೆದರ	-11.1881
▁ઊભા	-11.1881
▁ಯುಕೆ	-11.1886
▁रास्ता	-11.1886
▁ನೀಡಲಾಯಿತು	-11.1886
ಭಾವ	-11.1886
▁ତୁ	-11.1886
ଗଲା	-11.1888
▁ಗಾತ್ರದ	-11.1888
▁ઓળખી	-11.1891
▁ಅನ್ವಯಿಸ	-11.1893
▁ಹೋಗುತ್ತದೆ	-11.1893
ക്കിടയിൽ	-11.1894
▁വിദ്യാഭ്യാസം	-11.1894
▁ಒಪ್ಪ	-11.1895
▁നിലവിലുള്ള	-11.1895
▁ધોરણો	-11.1895
▁स्टॉक	-11.1895
▁ശ്രമ	-11.1896
ಬ್ಬ	-11.1898
ಸಿಂಗ್	-11.1898
▁संस्थान	-11.1899
ge	-11.1899
▁ಭಾಗಗಳಲ್ಲಿ	-11.1899
▁बिल्कुल	-11.1899
▁ದತ್ತಾಂಶ	-11.1899
िये	-11.19
▁ಎತ್ತರದ	-11.1901
▁પ્રકારનું	-11.1902
▁ലക്ഷം	-11.1902
▁शाळेत	-11.1903
ಂಜ	-11.1903
▁പ്രസിഡന്റ	-11.1904
▁સાથી	-11.1907
▁ಪದ್ಧತಿ	-11.1908
▁जवळपास	-11.1908
धी	-11.1909
▁ലഭിക്കുന്ന	-11.191
▁પવિત્ર	-11.1913
▁રાસાયણિક	-11.1913
▁ଜାତୀୟ	-11.1913
▁હોવાથી	-11.1915
▁എനിക്കും	-11.1918
▁മകന	-11.1921
ટ્રો	-11.1922
▁രക്ത	-11.1923
▁કર્મચારીઓને	-11.1926
▁ട്ര	-11.1927
▁ಹಣದ	-11.1927
▁જાળવવા	-11.1928
മാരുടെ	-11.1928
▁ಸ್ಪೀಕರ್	-11.1931
▁ಪುಸ್ತಕಗಳು	-11.1932
▁അപ്പ	-11.1933
▁അയാളെ	-11.1935
ंगी	-11.1935
टल	-11.1935
wa	-11.1936
▁અશક્ય	-11.1936
▁अहवाल	-11.1936
▁રાખવાની	-11.1937
▁ನಿಯಮಿತವಾಗಿ	-11.194
▁ನೆನಪಿಡಿ	-11.194
▁മുംബൈ	-11.194
▁യുണൈറ്റഡ്	-11.1941
▁ಓಡ	-11.1942
▁એની	-11.1943
▁અભ્યાસો	-11.1944
▁कोटी	-11.1944
રાજ	-11.1944
▁परमाणु	-11.1945
मर	-11.1945
▁ಪ್ರಪಂಚದಾದ್ಯಂತ	-11.1947
▁കേരള	-11.1948
▁ಯಾರಿಗೂ	-11.195
વાનો	-11.1951
പക്ഷ	-11.1952
▁सर्वाधिक	-11.1953
▁ઓપરેશન	-11.1955
▁એસિડ	-11.1957
▁സ്വപ്ന	-11.1958
वास	-11.1958
▁കൊറോണ	-11.1958
▁പാലിക്ക	-11.1959
▁बद्दल	-11.1959
▁જળ	-11.1961
▁ಏನನ್ನಾದರೂ	-11.1963
▁നെറ്റ്വർക്ക	-11.1963
राज	-11.1963
▁ଦେଶରେ	-11.1964
▁കഴിവ	-11.1964
▁കരാറ	-11.1964
▁ಮಾಡಿದ್ದೇನೆ	-11.1965
▁ಖಚಿತವಾಗಿ	-11.1966
▁ನಿಂತ	-11.1966
▁ಸಂಗೀತದ	-11.1967
▁મોકલવા	-11.1967
▁ಪ್ರೋಟೀನ್	-11.1968
▁ಜರ್ಮನಿ	-11.1968
▁પાડ	-11.1968
▁ಗಂಟೆಗೆ	-11.1972
तं	-11.1972
ाकडे	-11.1976
▁કાર્યરત	-11.1977
▁पवित्र	-11.1977
યન	-11.1978
▁सांस्कृतिक	-11.198
▁വരുമാനം	-11.1981
▁शक्तिशाली	-11.1981
▁ಸ್ಟೋರ್	-11.1981
ಂಪ	-11.1983
ैन	-11.1986
▁പരമ്പര	-11.1986
ुल	-11.1987
▁ಸೇತುವೆ	-11.1987
▁ಸಮಸ್ಯೆಗಳ	-11.1987
▁ખાવા	-11.1988
ीच्या	-11.1988
િમ	-11.1988
ଭି	-11.1989
▁ଭଳି	-11.1989
▁પાડી	-11.199
▁સુસંગત	-11.199
▁ಉಪಯೋಗಿಸ	-11.1992
▁നല്ലതാണ്	-11.1992
▁ಗಿಂತ	-11.1994
▁ಶಾಲೆಗಳು	-11.1995
▁સરકારની	-11.1995
▁महिने	-11.1995
▁ભાજપ	-11.1995
ിലോ	-11.1998
▁मिलता	-11.1998
▁വീട്ടില	-11.1998
▁નિષ્ફળતા	-11.2
▁സഹായിക്കാൻ	-11.2001
ड्र	-11.2002
▁ചെയ്തിട്ടില്ല	-11.2003
સ્થ	-11.2003
▁વિચાર્યું	-11.2003
▁સાહિત્ય	-11.2003
▁ಪ್ರಕ್ರಿಯೆಯಲ್ಲಿ	-11.2003
▁ಪದವು	-11.2004
▁एजेंसी	-11.2004
▁વિધાનસભા	-11.2004
ନ୍ସ	-11.2005
▁नवी	-11.2005
▁ಅಮೇರಿಕಾದ	-11.2006
▁प्रेस	-11.2008
▁ವಿಜ್ಞಾನಿಗಳು	-11.2008
▁एकाच	-11.2008
▁जितना	-11.2009
▁કનેક્શન	-11.2009
▁उत्तरी	-11.2012
ಲಿಕ್	-11.2014
▁अटक	-11.2015
▁പട്ടണ	-11.2015
▁അതും	-11.2016
▁വിളിച്ചു	-11.2017
▁ಪ್ರೋತ್ಸಾಹಿಸ	-11.2017
റൂ	-11.2018
▁ಭಯೋತ್ಪಾದಕ	-11.2018
▁अफगानिस्तान	-11.2018
▁ଭିନ୍ନ	-11.2018
▁ಬೆಂಬಲಿಸ	-11.2019
▁फॉर	-11.202
▁ತತ್ವ	-11.2021
ಉ	-11.2023
▁നിക്ഷേപം	-11.2023
▁रुचि	-11.2024
▁मनाया	-11.2024
▁ಸ್ನೇಹಿತರ	-11.2025
फर	-11.2026
▁ರಾಜ್ಯಗಳಲ್ಲಿ	-11.2026
ଡ଼ା	-11.2027
ಲಿಯಾ	-11.2027
ഷ്യ	-11.2028
▁કેટલાંક	-11.2028
ଢ	-11.2028
മാണോ	-11.2028
ೊಂದ	-11.2029
▁कोणताही	-11.2029
▁പറ്റില്ല	-11.2029
▁ಆಹಾರದ	-11.2034
▁અમેરિકનો	-11.2035
▁ಹಂಚಿಕೆ	-11.2036
▁ഉപയോഗിക്കുക	-11.2037
▁बनव	-11.2037
▁ખાતા	-11.2038
▁પોલીસે	-11.2038
बि	-11.2039
▁ആശുപത്രിയിൽ	-11.2039
▁કરાવ	-11.2042
▁ಫಾ	-11.2043
▁ರೋಗಿಗಳು	-11.2044
▁ಇಲ್ಲಿವೆ	-11.2047
भा	-11.2047
▁जिम्मेदार	-11.2048
▁હાલના	-11.2049
एच	-11.205
▁लंदन	-11.205
▁દિવસના	-11.2053
▁ಜತೆ	-11.2054
▁વાપરી	-11.2054
ുന്നത	-11.2054
▁ಶೀರ್ಷಿಕೆ	-11.2055
യിട	-11.2057
▁ಬೆಂಬಲವನ್ನು	-11.2058
▁କମ୍	-11.2059
ോടെ	-11.2059
▁भौतिक	-11.2059
▁ಹಕ್ಕುಗಳನ್ನು	-11.2062
▁वापरले	-11.2062
▁ઊંચા	-11.2063
▁ഇവരുടെ	-11.2063
▁નાશ	-11.2064
▁કાર્	-11.2064
નીય	-11.2065
▁ಗಂಡ	-11.2065
पि	-11.2066
▁ટ્વિટર	-11.2067
▁कळ	-11.2067
മെന്ന	-11.2069
▁ഉള്ളടക്കം	-11.2069
▁ಟಾಪ್	-11.2069
ଧା	-11.2072
▁ಸರಕು	-11.2075
▁നിർമ്മിക്ക	-11.2079
▁दस	-11.2083
▁ସମ୍	-11.2085
▁ശതമാനവും	-11.2086
▁ವಾರ್	-11.2087
डब्ल्यू	-11.2087
▁പങ്കിട	-11.2088
▁ಧೂಮಪಾನ	-11.2088
▁ଶକ୍ତି	-11.209
▁म्हण	-11.209
▁इतनी	-11.2092
▁സെക്രട്ടറി	-11.2092
▁ನೆಲ	-11.2092
▁ફૂટ	-11.2093
▁കൂടിയാണ്	-11.2095
▁લંબાઈ	-11.2096
▁ഓപ്ഷൻ	-11.2096
▁आंतरिक	-11.2097
▁ನೋಡುವ	-11.2097
▁അവധി	-11.2101
▁આપવાનું	-11.2102
▁ನಿಲ್ಲ	-11.2102
▁ആവ	-11.2102
▁ರಾಷ್ಟ್ರದ	-11.2104
ंडा	-11.2104
▁ಸಮಾಜದ	-11.2104
ીઝ	-11.2107
▁વિરોધી	-11.2108
રિયા	-11.2109
▁ಬ್ರ	-11.2109
▁ವರ್	-11.2112
ಡೇ	-11.2113
▁ಮಾನದಂಡ	-11.2115
▁ಇಲ್ಲಿಯವರೆಗೆ	-11.2115
എനിക്ക്	-11.2115
▁ರಿಯಲ್	-11.2116
▁સાઇન	-11.2116
തല	-11.2117
▁चोट	-11.2118
▁વિસ્તારો	-11.2118
▁નિવૃત્તિ	-11.2118
▁तसे	-11.2118
▁ಪರಿಹರಿಸಲು	-11.2119
▁વિવાદ	-11.212
▁माझ्यासाठी	-11.2121
ಿಂಗ್	-11.2122
▁बिंदु	-11.2123
▁ಸಂಬಂಧಿಸಿದೆ	-11.2123
ವಾಗಿದ್ದರೂ	-11.2124
▁ಗ್ರಂಥಾಲಯ	-11.2124
▁ആസ്വദിക്ക	-11.2125
▁ಪದಕ	-11.2125
▁जिन	-11.2126
ಲೈನ್	-11.2128
▁ഫേസ്ബുക്ക്	-11.2129
▁आहेः	-11.213
▁റോഡ	-11.213
▁पत्रकार	-11.2131
▁वीं	-11.2132
▁ઉદ્યોગો	-11.2133
▁મેળવો	-11.2134
▁more	-11.2135
▁ବଡ	-11.2136
પ્લે	-11.2137
▁ಜನಸಂಖ್ಯೆ	-11.2138
રને	-11.2138
▁ବ୍ୟବସ୍ଥା	-11.2138
▁ದುಬಾರಿ	-11.2138
▁ಸಂಘ	-11.2138
ാമെന്ന്	-11.214
નેટ	-11.2141
▁પક્ષીઓ	-11.2142
ೇಶನ್	-11.2142
▁ଦ୍ୱିତୀୟ	-11.2143
▁ಕೆಲಸಕ್ಕೆ	-11.2143
▁हॉटेल	-11.2143
▁വ്യത്യസ്തമായ	-11.2145
▁നടപടികൾ	-11.2145
▁ಕಾರ್ಯಕ್ರಮದ	-11.2146
▁ವಿರುದ್ಧವಾಗಿ	-11.2148
▁୧୫	-11.2148
▁ನೆಲೆ	-11.2149
▁फि	-11.2149
▁ತೀವ್ರವಾದ	-11.2149
▁ಚೆ	-11.215
गन	-11.2151
▁കൈമാറ	-11.2154
ುದು	-11.2154
▁ಚರ್ಮದ	-11.2155
▁ಅವರಲ್ಲಿ	-11.2156
▁ബില്യൺ	-11.2157
▁നെറ്റ്വർക്ക്	-11.2157
▁सुद्धा	-11.2158
▁ದುರದೃಷ್ಟವಶಾತ್	-11.2158
▁त्यासाठी	-11.2159
ുന്നതു	-11.2162
▁बातें	-11.2163
▁ଦେଖା	-11.2164
▁लागले	-11.2164
▁आमची	-11.2165
▁കേസ	-11.2167
da	-11.2167
▁സംഭാവന	-11.2168
▁ಗುಣಮಟ್ಟವನ್ನು	-11.2169
▁આત્મા	-11.217
▁ପୋଲିସ	-11.2171
▁ರೆಸ್ಟೋರೆಂಟ್	-11.2171
▁तुर्की	-11.2171
ಮ್ಯಾ	-11.2174
▁ಅಮ್ಮ	-11.2174
▁त्यावर	-11.2174
▁ઉમેરી	-11.2174
▁ભાડે	-11.2176
्मा	-11.2177
▁ದಿನಗಳವರೆಗೆ	-11.2178
▁ಸೇರಿ	-11.218
▁ચક્ર	-11.2181
ದರ್	-11.2181
▁વીજળી	-11.2185
ഹി	-11.2185
യെയും	-11.2186
▁ದೂರದ	-11.2188
▁विपरीत	-11.219
▁વિશેની	-11.2191
ಏ	-11.2192
▁ವಿಳಂಬ	-11.2194
▁રિસર્ચ	-11.2194
▁उत्पादने	-11.2195
▁വർഷങ്ങളായി	-11.2196
▁ಕಾಯಿದೆ	-11.2196
▁घड	-11.2198
▁ಬದಲು	-11.2199
യാണിത്	-11.2199
▁દુઃખ	-11.22
▁സഹ	-11.2201
▁બુક	-11.2203
▁मेडिकल	-11.2204
▁ಮಧ್ಯೆ	-11.2204
ायची	-11.2207
▁ગઇ	-11.2207
▁मृत	-11.2208
iv	-11.2208
▁રાજધાની	-11.2208
▁અભિનેતા	-11.2209
िय	-11.221
ପାରୁ	-11.2211
▁ಹುಟ್ಟಿದ	-11.2211
▁ಉಳಿಸಲು	-11.2212
▁ചെ	-11.2213
▁અસંખ્ય	-11.2213
ക്കാരന	-11.2214
▁വലുത	-11.2215
▁પાણીની	-11.2215
യറ	-11.2216
શિ	-11.2216
▁ટાળવા	-11.2216
▁ମୁ	-11.2217
सारख्या	-11.2218
▁દર્શાવવામાં	-11.2218
▁ಪುರಾವೆ	-11.222
▁കഴിഞ്ഞില്ല	-11.2221
▁എങ്ങനെയാണ്	-11.2224
▁ನಿನ್ನೆ	-11.2226
▁കെട്ടിട	-11.2226
ಬ್ರಿ	-11.2227
▁माझ्याकडे	-11.2227
▁ബാറ്ററി	-11.2228
▁ಉಚಿತವಾಗಿ	-11.223
▁વાંચો	-11.2231
▁मुद्दे	-11.2232
▁તાત્કાલિક	-11.2232
▁ମୁଖ୍ୟ	-11.2233
▁वेतन	-11.2234
▁ഖ	-11.2234
▁പങ്കാളി	-11.2234
▁ಗುರಿಯನ್ನು	-11.2235
▁सीख	-11.2235
▁നമ്മെ	-11.2235
▁જિંદગી	-11.2236
▁പോലീസ	-11.2237
▁എന്തോ	-11.2241
▁സൌദി	-11.2241
▁માળખા	-11.2241
स्व	-11.2244
▁ಜಿಲ್ಲೆ	-11.2246
પિ	-11.2247
▁મૂક	-11.2249
▁ಜನಿಸಿದ	-11.2249
ସନ	-11.225
▁કપડાં	-11.2252
▁વૃદ્ધ	-11.2252
▁सहज	-11.2253
क्षण	-11.2254
▁बनाई	-11.2255
▁പു	-11.2255
▁સ્માર્ટ	-11.2255
▁ଆମକୁ	-11.2256
▁અસામાન્ય	-11.2257
▁आवडते	-11.2257
▁ಸುಳ್ಳು	-11.2257
નિયા	-11.2259
▁माणूस	-11.226
▁എട്ട്	-11.226
▁ಮೇರಿ	-11.2262
▁ಪಾವತಿಸಲು	-11.2262
▁ಆಗುತ್ತದೆ	-11.2263
ಲ್ಲಿರುವ	-11.2264
▁खिलाड़ियों	-11.2265
▁ಹೇಳಿದ	-11.2267
ચો	-11.2269
ത്തോളം	-11.2269
▁अकेले	-11.2269
▁अन्यथा	-11.2271
▁ತಕ್ಷಣವೇ	-11.2272
ष्ट	-11.2273
▁उमेदवार	-11.2274
▁ટ્રાફિક	-11.2274
▁പേർക്ക്	-11.2277
▁ശ്രമിക്ക	-11.2278
कर्ता	-11.2278
▁കോവിഡ്	-11.2279
▁ಪ್ರಶ್ನೆಗೆ	-11.228
બ્	-11.2282
▁കൊണ്ട	-11.2283
▁ಈವೆಂಟ್	-11.2284
▁ತಲುಪಲು	-11.2286
▁ಅರ್ಹ	-11.2286
▁പേ	-11.2287
ിൻ	-11.2287
▁ചെയ്യുമ്പോൾ	-11.2287
▁തിരഞ്ഞെടുക്കുക	-11.229
▁ಉದ್ದೇಶಗಳಿಗಾಗಿ	-11.229
▁ತೆಗೆದುಕೊಳ್ಳಿ	-11.2291
▁ഒരാള	-11.2292
▁സാഹചര്യ	-11.2292
▁प्रकारे	-11.2293
▁ಬ್ರೌಸರ್	-11.2293
▁ನಾಶ	-11.2294
▁जीता	-11.2296
ତେ	-11.2297
▁അല്ലേ	-11.2297
▁ಸಕಾರಾತ್ಮಕ	-11.2298
▁ಹಳ್ಳಿ	-11.2298
▁ಸೇರಿಸಲು	-11.2299
ണ്ഡ	-11.23
▁लु	-11.2302
▁ಬರಲು	-11.2304
ગમ	-11.2304
▁ભારતે	-11.2306
▁માળ	-11.2307
ഷ്ട	-11.2307
▁લેવાનું	-11.2307
▁ಹಂಚಿಕೊಳ್ಳ	-11.2308
▁શિ	-11.2312
▁കിലോമീറ്റർ	-11.2312
▁इनमें	-11.2313
ಪಾದ	-11.2313
▁ക്രിക്കറ്റ്	-11.2315
▁પરીક્ષણો	-11.2315
ાત	-11.232
▁ಪೀ	-11.2323
▁શબ્દોમાં	-11.2323
▁मागे	-11.2326
ಥೆ	-11.2326
▁धार्मिक	-11.2326
▁वितरण	-11.2326
ുളള	-11.2327
▁സം	-11.2328
ತೀ	-11.2329
▁na	-11.2333
▁ಅವ	-11.2334
▁જોખમો	-11.2335
▁हफ्ते	-11.2336
▁ಸಂಯೋಜಿಸ	-11.2337
▁વ્યૂહરચના	-11.234
▁ಪಡೆಯುವುದು	-11.234
▁ಖಾಲಿ	-11.2341
▁આવ્યાં	-11.2342
ങ്ങളുമായി	-11.2342
▁तिचा	-11.2344
▁താപനില	-11.2345
ುತ್ತಿರುವಾಗ	-11.2345
પાલ	-11.2346
▁അനുയോജ്യമായ	-11.2349
▁നീതി	-11.235
▁રેસ	-11.2351
▁ଖୁବ୍	-11.2351
▁ಸಾಧ್ಯತೆಯಿದೆ	-11.2351
ക്കാല	-11.2353
સીએ	-11.2354
റിന്റെ	-11.2354
ત્ય	-11.2354
▁ഓഗസ്റ്റ്	-11.2355
▁પામે	-11.2355
▁મહ	-11.2355
▁मना	-11.2356
▁साहित्य	-11.2359
▁ಕಲಾವಿದ	-11.2361
പേര	-11.2361
ುವಂತಿಲ್ಲ	-11.2364
▁ಅರಣ್ಯ	-11.2364
▁रखता	-11.2365
മില്ലാത്ത	-11.2365
▁ಘಟನೆಗಳು	-11.2367
▁ಸ್ಟೇಟ್	-11.2367
▁શીખી	-11.2369
▁ഇന്നു	-11.2369
▁साठी	-11.2371
▁ಪ್ರತಿನಿಧಿ	-11.2373
▁बुनियादी	-11.2374
ുണ്ടെങ്കിൽ	-11.2375
▁ഇതൊക്കെ	-11.2376
▁ગત	-11.2376
▁വിളിച്ച	-11.2383
▁ಕುಸಿತ	-11.2383
▁ವಿಶ್ವಕಪ್	-11.2383
▁ફૂડ	-11.2383
▁ಸಾಗರ	-11.2384
▁નોટ	-11.2384
▁ಚಹಾ	-11.2385
ಕೂ	-11.2385
▁ચૂકવ	-11.2388
▁ಅದರಲ್ಲೂ	-11.2389
▁હિટ	-11.239
▁दिस	-11.239
▁बेटे	-11.239
▁येतो	-11.2391
▁પ્રતિસાદ	-11.2393
▁जनरल	-11.2393
▁આરામદાયક	-11.2393
▁ಮರೆಯ	-11.2394
▁ഡാ	-11.2395
▁ફ્લોર	-11.2395
િક્સ	-11.2396
▁सिद्धांत	-11.2396
യം	-11.2396
▁ಬಿಟ್ಟ	-11.2399
▁ಏನೋ	-11.24
ಿದವು	-11.2402
▁જુએ	-11.2402
વ્ય	-11.2404
क्शन	-11.2405
▁આખી	-11.2406
▁ಸತ್ತ	-11.2407
▁आदर्श	-11.2407
▁ഗൂഗിൾ	-11.2407
▁नेशनल	-11.2407
▁रोकने	-11.2407
▁લાખો	-11.2407
▁ಇಂಡಿಯನ್	-11.2407
▁मैदान	-11.2407
▁അവതരിപ്പിക്ക	-11.2409
▁युरोप	-11.2409
स्क	-11.241
▁ಸ್ತ್ರೀ	-11.2411
▁गर्भवती	-11.2412
▁गतिविधियों	-11.2412
▁असताना	-11.2415
▁പ്രവൃത്തി	-11.2415
▁ವ್ಯಾಪಾರಿ	-11.2416
▁ઈન્	-11.2416
▁અટકાવવા	-11.2416
▁मागील	-11.2417
▁ಗ್ರಾ	-11.2418
▁वहीं	-11.2419
▁સહાયક	-11.242
▁ശരീര	-11.242
મેં	-11.2421
▁ಸುಂದರವಾದ	-11.2423
▁ತೀರ	-11.2424
▁આયાત	-11.2426
▁દાયકા	-11.2427
▁ಚಿತ್ರದಲ್ಲಿ	-11.2428
जब	-11.243
▁अली	-11.2431
▁भागात	-11.2431
▁ಆತ್ಮಹತ್ಯೆ	-11.2431
▁ସହର	-11.2431
્ટર	-11.2432
▁ओवर	-11.2433
▁പ്രഖ്യാപിച്ചു	-11.2435
ક્ટર	-11.244
▁નહોતો	-11.2441
▁ಮಾತನಾಡುವ	-11.2441
▁આને	-11.2441
▁मिळव	-11.2442
▁કોર્પોરેશન	-11.2443
▁ସ୍ଥାନରେ	-11.2445
▁समझौते	-11.2445
▁નીચા	-11.2447
▁ಪಡೆಯುತ್ತೀರಿ	-11.2447
િશ	-11.2447
▁ಪ್ರಶ್ನೆಗಳಿಗೆ	-11.2448
▁नसेल	-11.2452
▁iii	-11.2452
▁ಆಪ್	-11.2456
▁ವಿಶ್ವಸಂಸ್ಥೆಯ	-11.2457
સાર	-11.2457
▁ಉತ್ತರಿಸ	-11.2458
કૂ	-11.2458
लन	-11.2459
▁કોર્સ	-11.2459
ಟೈ	-11.246
▁જોડાયેલ	-11.246
▁छवि	-11.2462
▁વોર	-11.2462
▁યુકે	-11.2462
▁પ્રક્રિયામાં	-11.2465
▁अनुवाद	-11.2465
▁നയ	-11.2465
▁ಹೃದಯದ	-11.2469
▁ಸುಧಾರಿಸ	-11.2474
▁आवड	-11.2474
വാര	-11.2474
▁બાળ	-11.2475
▁ತಂದ	-11.2477
▁सकें	-11.2478
▁વૃક્ષ	-11.2478
▁चेहरा	-11.2479
▁ಬ್ಲಾಕ್	-11.248
ിയ്ക്ക	-11.248
▁સિંહ	-11.2481
▁दैनिक	-11.2484
▁वरिष्ठ	-11.2484
▁ಆದೇಶಿಸ	-11.2484
▁ಟಿಕೆಟ್	-11.2484
▁ಮೇಲ್	-11.2488
▁ಗ್ರಾಮೀಣ	-11.2488
പരി	-11.2488
▁ನಿಯಂತ್ರಿಸ	-11.2488
▁મોડ	-11.2488
▁കാലാവസ്ഥ	-11.2488
તાના	-11.249
▁ಬೇಕಾದ	-11.249
▁ದೇಶೀಯ	-11.249
▁ಲಿಂಗ	-11.2492
▁ಸಂಚಾರ	-11.2492
▁ಜೈವಿಕ	-11.2492
▁मानवी	-11.2493
ಂಚ	-11.2493
लेट	-11.2494
ಎಂದು	-11.2495
वू	-11.2496
ർക്ക്	-11.2496
▁कवर	-11.2497
ാല	-11.2501
▁ନଥିଲା	-11.2502
▁ഷാ	-11.2502
▁ವಿತರಿಸ	-11.2503
▁ಸುದೀರ್ಘ	-11.2503
▁ರಾಜ್ಯಗಳ	-11.2506
▁ನಿರ್ವಹಣಾ	-11.2508
▁പ്രയാസ	-11.2509
ಶು	-11.251
▁ദീർഘകാല	-11.2512
▁ವಿರೋಧ	-11.2512
▁पोलिसांनी	-11.2514
▁मुस्लिम	-11.2515
io	-11.2516
▁गट	-11.2517
▁બેન્ડ	-11.2518
କାରୀ	-11.2519
୍ୟୁ	-11.2519
▁നിർമ്മാണ	-11.252
त्त	-11.2522
▁ಮೂರನೆಯ	-11.2523
▁ಪೋರ್ಟ್	-11.2527
▁आल्या	-11.2528
▁બેક	-11.2529
▁નિરીક્ષણ	-11.2532
▁ವಿಶ್ವವಿದ್ಯಾಲಯದ	-11.2534
▁ಚಟುವಟಿಕೆಗಳನ್ನು	-11.2534
▁സുരക്ഷിത	-11.2535
ിസ്	-11.2535
▁ધોરણ	-11.2536
ut	-11.2537
ार्थ	-11.2537
ખો	-11.2539
▁ଦେଖିବାକୁ	-11.2539
लू	-11.254
ಬೀ	-11.254
▁ഒക്കെ	-11.2542
वर्ष	-11.2543
▁ചു	-11.2544
▁ಉಪಗ್ರಹ	-11.2547
സു	-11.2548
ುತ್ತಿರಲಿಲ್ಲ	-11.2551
▁टिप्पणी	-11.2551
▁ಪ್ರಶ್ನಿಸ	-11.2551
▁മനസിലാക്ക	-11.2552
▁પાસ	-11.2552
ಣಾ	-11.2553
▁ಅಗತ್ಯವಾದ	-11.2553
▁પ્રત્યેક	-11.2558
▁વધારી	-11.2559
▁ક્ર	-11.2559
બર્ગ	-11.256
▁રેસ્ટોરન્ટ	-11.2561
▁उद्यम	-11.2561
▁ಆಯ್ಕೆಯಾಗಿದೆ	-11.2562
्टर	-11.2562
▁ક્ષેત્રોમાં	-11.2562
ിട്ടു	-11.2563
▁ಕೌನ್ಸಿಲ್	-11.2566
▁ವೆಸ್ಟ್	-11.2567
▁स्वच्छ	-11.2568
ಗಾರರು	-11.2568
▁അസ	-11.2568
▁ભરવા	-11.2569
▁ಜೇ	-11.2569
▁અભિનેત્રી	-11.2571
▁ಹೋಲಿಸ	-11.2573
▁નીચેની	-11.2573
▁વિકસાવવા	-11.2579
▁अनुकूल	-11.258
▁മാനസിക	-11.2581
ानंतर	-11.2588
▁શક્યા	-11.2588
▁നും	-11.2589
▁चाह	-11.2589
▁प्रमाणात	-11.259
ତ୍	-11.2591
મૂ	-11.2591
▁വിനോദ	-11.2595
▁વધતી	-11.2595
मि	-11.2596
ಫೋ	-11.2596
▁ഉൽപ്പന്നം	-11.2597
▁ಕಲಿಯಲು	-11.2597
▁ಕ್ರಿ	-11.2598
▁પાણીમાં	-11.2598
▁સ્તન	-11.2599
▁ಉದ್ಯಾನ	-11.26
▁कट	-11.2601
▁કલાકાર	-11.2602
▁अनुरोध	-11.2603
▁ക്ലാസ്	-11.2605
▁കാരണങ്ങൾ	-11.2605
ುವುದೇ	-11.2606
ത്തോട്	-11.2607
▁ഗ്രൂപ്പ്	-11.2608
പെട്ട	-11.2609
▁മൂന്നാമത്തെ	-11.261
▁പൂർണ്ണ	-11.2613
▁ಮರೆಯಬೇಡಿ	-11.2615
ಜನ್	-11.2615
▁મહા	-11.2615
▁പങ്കെടുക്ക	-11.2617
▁ವಾಸ	-11.2619
▁ଦିଲ୍ଲୀ	-11.262
▁महामारी	-11.262
▁വേഗം	-11.262
▁ರೋಗನಿರ್ಣಯ	-11.262
▁ટોચની	-11.262
▁बनना	-11.2622
▁વૈકલ્પિક	-11.2622
▁ಕೇಬಲ್	-11.2625
▁ಇನ್ನೊಬ್ಬ	-11.2625
▁મંજૂર	-11.2627
ത്യ	-11.2628
▁पट	-11.2629
▁ધરવામાં	-11.2629
ତମ	-11.2629
▁ସଦସ୍ୟ	-11.2629
▁વચ્ચેનો	-11.2629
▁संसाधन	-11.2632
▁ഇദ്ദേഹം	-11.2633
▁निर्	-11.2633
▁ಅರ್ಥವನ್ನು	-11.2634
विरुद्ध	-11.2634
▁ಹೆಚ್ಚಾಗ	-11.2635
▁પહોંચ	-11.2636
▁व्ह	-11.2638
▁ભય	-11.2641
▁ಪವರ್	-11.2641
▁खोल	-11.2641
oc	-11.2642
▁સેક્સ	-11.2644
ંબ	-11.2645
▁ಕ್ಷೇತ್ರಗಳಲ್ಲಿ	-11.2646
▁ಮಾಲೀಕರು	-11.2647
▁ഓസ്ട്രേലിയ	-11.2647
▁ઉદ્દેશ	-11.2647
▁ತಡೆಯಲು	-11.2648
▁ശ്രമിച്ചു	-11.2649
▁ക്രെഡിറ്റ്	-11.265
▁ಮೂವರು	-11.265
▁ദക്ഷിണ	-11.265
▁post	-11.2651
ടുത്ത	-11.2651
▁ഫ്ല	-11.2652
br	-11.2652
▁લાગ્યું	-11.2654
▁શોધો	-11.2657
રિંગ	-11.2657
▁कायद्या	-11.2658
പോയി	-11.2658
▁પુનરાવર્તન	-11.2659
ण्ड	-11.266
▁പാത	-11.2661
▁मार्केट	-11.2661
വന	-11.2661
टिंग	-11.2661
▁സംഘ	-11.2662
▁മൈ	-11.2663
ಟೆಕ್	-11.2664
▁അനുവദിക്ക	-11.2664
▁ಘನ	-11.2666
▁બીચ	-11.2667
▁ಪಾಯಿಂಟ್	-11.2667
പ്പോലെ	-11.2668
▁ಮತದಾನ	-11.2668
▁जानने	-11.2668
▁ചെയ്യുകയും	-11.267
ിയുടെ	-11.2671
▁आकर्षित	-11.2673
થે	-11.2675
▁പേജ്	-11.2675
▁നേടാൻ	-11.2675
▁याला	-11.2676
▁ಫ್ರೀ	-11.2676
▁બેડ	-11.2676
▁દાખલા	-11.2677
▁आलो	-11.2677
ડ્રો	-11.2679
▁വോട്ട	-11.268
▁ચિત્રો	-11.2683
▁તાકાત	-11.2683
ബെ	-11.2683
▁ഭ	-11.2684
▁ಮರುಬಳಕೆ	-11.2685
▁જોડી	-11.2685
ಜೋ	-11.2686
સ્પે	-11.2686
ങ്ങി	-11.2687
ષ્ટ	-11.2688
▁सुझाव	-11.2688
▁ಸಾರ್ವತ್ರಿಕ	-11.2688
▁सफेद	-11.2688
▁ಮಾರ್ಗದರ್ಶನ	-11.2688
▁സീ	-11.2689
▁વેસ્ટ	-11.269
▁ನವೀಕರಣ	-11.2691
▁સંપર્કમાં	-11.2692
▁ഇക്കാര്യം	-11.2696
▁ખોલવા	-11.2698
▁ପାଣି	-11.2698
▁ಹೊರಗಿನ	-11.2701
▁ପ୍ରଶ୍ନ	-11.2701
▁ದೇವತೆ	-11.2702
ବାର	-11.2702
▁ಅಮೆಜಾನ್	-11.2703
▁ನಿಯೋಜಿಸ	-11.2703
▁തുടങ്ങ	-11.2703
▁ദാ	-11.2703
▁જાતીય	-11.2703
▁इंजन	-11.2703
▁हवी	-11.2705
▁तिचे	-11.2706
▁फाइल	-11.2706
▁मूल्यांकन	-11.2708
▁ଜଳ	-11.2709
▁തുടക്ക	-11.271
वल	-11.2711
മാകും	-11.2711
▁ബുദ്ധിമുട്ട	-11.2711
▁दूध	-11.2713
▁ज़रूरत	-11.2713
જૂ	-11.2715
▁ಒತ್ತಾಯಿಸ	-11.2715
▁ವಾರದಲ್ಲಿ	-11.2715
କେ	-11.2716
▁सीखने	-11.2717
▁ମନ	-11.2717
યુક્ત	-11.2718
▁വായന	-11.2719
▁sa	-11.272
▁ಬೋರ್ಡ್	-11.272
▁മുൻപ	-11.2721
ોસ	-11.2722
▁पहुंचने	-11.2724
▁शाम	-11.2728
▁ശക്ത	-11.2729
▁ನಾಯಕರು	-11.273
▁થતાં	-11.2731
લુ	-11.2731
▁ସୃଷ୍ଟି	-11.2732
▁बेहद	-11.2732
▁ಕಣ್ಣು	-11.2733
▁ഉണ്ടോ	-11.2735
ଗ୍	-11.2735
▁आमचे	-11.2736
▁ಹೆಚ್ಚಾಗಿದೆ	-11.2736
પચારિક	-11.2737
▁निष्कर्ष	-11.2737
പ്പോ	-11.2737
▁मिळाली	-11.2737
▁ટકાથી	-11.2738
ીની	-11.2739
▁સત્ર	-11.2741
▁ಚಂದ್ರ	-11.2742
▁ઉલ્લંઘન	-11.2742
▁ટન	-11.2743
ಡಿಯಲ್ಲಿ	-11.2745
▁ಪ್ರತ್ಯೇಕವಾಗಿ	-11.2745
▁જવાનું	-11.2746
ot	-11.2746
ಗ್ರ	-11.2746
▁ശതമാന	-11.2747
▁विजेता	-11.2748
▁कश्मीर	-11.2748
▁ಹೊಂದಿದ್ದೇವೆ	-11.2749
▁ಹಿನ್ನೆಲೆಯಲ್ಲಿ	-11.275
▁ಅಗ್ರ	-11.2752
▁पहुँच	-11.2752
▁ಸದ್ಯ	-11.2752
पल	-11.2755
▁ગામ	-11.2755
▁तत्व	-11.2756
▁നേര	-11.2756
▁കമ്പനികൾ	-11.2757
▁कनेक्शन	-11.2757
ಗಳುಃ	-11.2758
भूत	-11.2759
▁तुझे	-11.276
▁ಟು	-11.276
ଥାନ୍ତି	-11.2761
ઇટ	-11.2761
▁ಸೇರಿದ	-11.2763
ેબલ	-11.2764
ल्फ	-11.2764
▁ટોપ	-11.2765
▁ನದಿಯ	-11.2766
▁ಮಹತ್ವ	-11.2766
ટ્રી	-11.2767
gr	-11.2768
▁മകൻ	-11.2768
▁નિષ્ણાત	-11.2769
▁शिकव	-11.2769
▁नष्ट	-11.277
▁ಯೋಜನೆಗಳು	-11.277
▁व्यक्तियों	-11.2771
ल्ट	-11.2771
▁ವ್ಯಾಪಾರದ	-11.2772
▁പെണ്ണ	-11.2773
▁ವೈಶಿಷ್ಟ್ಯಗಳನ್ನು	-11.2773
▁भरपूर	-11.2773
വാദ	-11.2776
▁യൂണിയൻ	-11.2777
▁पाय	-11.2779
▁ಬರೆದಿದ್ದಾರೆ	-11.2779
▁मेल	-11.2779
▁റിപ്പോർട്ട	-11.2779
▁ರೀ	-11.2779
ಅಪ್	-11.2781
▁ટે	-11.2781
▁ಭಾವನಾತ್ಮಕ	-11.2782
▁ಕುಟುಂಬಕ್ಕೆ	-11.2782
▁ರಾಣಿ	-11.2783
▁ತಿಳಿಸಿ	-11.2784
▁ಮುಸ್ಲಿಂ	-11.2787
ുന്നതിലൂടെ	-11.2787
लिंग	-11.2788
▁સાંભળી	-11.2788
ವ್ಯಾ	-11.2789
▁उपस्थिति	-11.2791
▁വാസ്തവത്തിൽ	-11.2792
ଜ୍	-11.2793
▁ಇಲ್ಲವೇ	-11.2793
▁ಲಾಸ್	-11.2796
▁ಅಲರ್ಜಿ	-11.2796
▁କୋଟି	-11.2797
▁मुद्दा	-11.2797
▁દીધો	-11.2797
▁નહોતું	-11.2797
▁ପସନ୍ଦ	-11.2797
▁ತಯಾರಿ	-11.2797
ುತ್ತಿರುವುದು	-11.2798
ലിയ	-11.2799
▁സ്റ്റ	-11.28
▁ವ್ಯಕ್ತಿಗೆ	-11.2801
ଠାରେ	-11.2801
▁നിമിഷം	-11.2801
▁મેક્સિકો	-11.2802
▁गेलो	-11.2802
▁ಅನಾರೋಗ್ಯ	-11.2803
▁વૈજ્ઞાનિકો	-11.2803
▁શહેરો	-11.2804
▁ഭാരം	-11.2805
▁ಚಿಕಿತ್ಸೆಯನ್ನು	-11.2806
▁സ്വന്തമായി	-11.2806
▁મનોરંજન	-11.2807
▁ಮಾಡುತ್ತಿರುವ	-11.2808
▁ಪ್ರತಿವರ್ಷ	-11.2808
ચી	-11.2808
▁લેખન	-11.2812
▁ସ୍କୁଲ	-11.2813
▁સ્ટે	-11.2813
ದಲ್ಲ	-11.2814
▁ನಿರ್ಬಂಧ	-11.2817
▁चाचणी	-11.2817
▁ଯୋଗ	-11.2819
जू	-11.2821
▁स्नातक	-11.2822
▁ഞായറാഴ്ച	-11.2822
▁മുന്നോട്ട്	-11.2822
▁കയറി	-11.2822
▁આર્મી	-11.2823
▁ಮಧ್ಯದಲ್ಲಿ	-11.2826
▁പരിശോധിക്ക	-11.2826
▁ബിജെപി	-11.2827
ശ്ര	-11.2829
പ്പെട്ടത്	-11.283
▁ಪ್ರೊಫೈಲ್	-11.2832
▁अमेरिकेत	-11.2833
▁ತೆರೆಯಲು	-11.2833
वन	-11.2833
▁માર્ગો	-11.2834
▁मिलने	-11.2835
▁ವೀಕ್ಷಣೆ	-11.2835
▁वस्तु	-11.2836
▁હિન્દુ	-11.2837
▁सचिव	-11.2837
ଜା	-11.2837
▁ಹಾಸ್ಯ	-11.2838
ർച്ച	-11.2838
ಗೊಂಡಿದೆ	-11.2839
▁ലഭ്യമായ	-11.2841
വെങ്കിൽ	-11.2841
▁મોકલી	-11.2841
▁ઉમેદવાર	-11.2843
▁ಇರಾನ್	-11.2844
▁ಉತ್ಪಾದಿಸ	-11.2844
▁ಕಥೆಯನ್ನು	-11.2845
▁ಪ್ರಯಾಣಿಸ	-11.2846
▁ವೀಕ್ಷಿಸ	-11.2847
▁આપવાનો	-11.2847
ട്ടു	-11.2848
▁ಪರೀಕ್ಷಾ	-11.2849
▁ಶಿಕ್ಷಕರು	-11.285
തിര	-11.285
▁സിസ്റ്റ	-11.2851
▁ટ્રાન્સફર	-11.2852
▁कालावधी	-11.2852
▁പരിചയ	-11.2856
▁പറ്റിയ	-11.2856
▁ചെയ്യുന്നതിന്	-11.2856
▁ખુશી	-11.2857
▁ഇവരെ	-11.2859
▁ಒಂದಕ್ಕಿಂತ	-11.2859
▁സ്നേഹിക്കുന്നു	-11.286
▁ഡിസൈൻ	-11.2862
▁समझने	-11.2862
▁विधानसभा	-11.2862
▁भर्ती	-11.2862
▁വ്യക്തമായ	-11.2863
▁ಅಲ್ಲಿಗೆ	-11.2864
▁चेक	-11.2864
ಸಾಧ್ಯವಾಗುವುದಿಲ್ಲ	-11.2865
▁પ્રસ્તુત	-11.2866
▁କେଉଁ	-11.2867
▁ಕಾರ್ಯವನ್ನು	-11.2867
ન્ડર	-11.2868
ેક	-11.2868
ମୋ	-11.2869
બ્રા	-11.287
▁ನಗರಗಳಲ್ಲಿ	-11.2871
▁മല	-11.2872
▁ಎಂಜಿನಿಯರಿಂಗ್	-11.2872
▁ବିଶେଷ	-11.2872
▁താങ്കളുടെ	-11.2872
▁स्टेट	-11.2875
ೊಡನೆ	-11.2877
▁പതിപ്പ	-11.2877
▁എന്നിവയിൽ	-11.2878
▁ವಿರುದ್ಧದ	-11.2878
▁ಟೈಪ್	-11.2878
▁ಹತ್ತಿರದ	-11.2878
ജ്ഞ	-11.2879
▁ಅಂದ	-11.2879
▁नियुक्त	-11.288
▁next	-11.2882
▁अनिवार्य	-11.2882
▁ಸಮೂಹ	-11.2882
▁ഉണ്ടാകും	-11.2884
▁റോഡ്	-11.2885
▁എന്തുകൊണ്ട്	-11.2886
▁कमजोर	-11.2887
▁विक	-11.2887
▁ഡിഗ്രി	-11.2887
ंप	-11.2888
▁ખેડૂતો	-11.2888
▁કાયમી	-11.2889
▁मोड	-11.289
കം	-11.2891
ನಾಮ	-11.2891
▁ಕೆಲವೊಂದು	-11.2892
ക്ര	-11.2892
▁ઉમેરવા	-11.2895
▁कहता	-11.2895
▁तेरे	-11.2897
▁पूछ	-11.2898
▁പരിശീലനം	-11.2899
ांपैकी	-11.29
▁ಮಸೂದೆ	-11.2902
▁पालक	-11.2902
▁રાખવી	-11.2903
▁जोर	-11.2903
▁येऊ	-11.2905
▁അയയ്ക്ക	-11.2905
▁ಉಂಟಾಗುವ	-11.2907
പ്പെടുന്നത്	-11.2909
▁ചേർന്ന	-11.2911
▁ત્વચા	-11.2912
▁ઊભી	-11.2912
▁કેલરી	-11.2912
▁टीव्ही	-11.2912
▁മക്കൾ	-11.2913
▁મુસ્લિમ	-11.2916
▁સ્પેનિશ	-11.2917
▁ಸೂತ್ರ	-11.2917
▁ಅಮೇರಿಕಾ	-11.2917
▁ಹೊರಟ	-11.2918
▁जीवित	-11.2919
▁કરનારા	-11.292
▁കായിക	-11.292
▁गुजर	-11.292
ियम	-11.2921
▁પોઇન્ટ	-11.2922
▁હેડ	-11.2926
ઇલ	-11.2926
▁इलेक्ट्रिक	-11.2927
ଗଣ	-11.2927
▁जिनके	-11.2928
▁ಆಚರಿಸಲಾಗುತ್ತದೆ	-11.2929
ಿಕೆಯ	-11.2932
ಸೀ	-11.2936
ುವಿಕೆಯು	-11.294
ിക്കുക	-11.2941
▁ସଂଖ୍ୟା	-11.2942
▁ആകാശ	-11.2942
▁ನಿರ್ಣಯ	-11.2943
▁होटल	-11.2943
▁મૂલ્યવાન	-11.2943
વન	-11.2947
▁ସ୍ୱ	-11.2949
ବ୍	-11.295
തെ	-11.295
▁ಸ್ಫೋಟ	-11.2953
્રી	-11.2955
▁લાગણીઓ	-11.2955
▁വേണ്ടത്	-11.2955
▁चुनें	-11.2956
ുമായുള്ള	-11.2957
▁ಪ್ಲಾಟ್ಫಾರ್ಮ್	-11.2957
▁મૂકે	-11.2958
▁કેટલીકવાર	-11.2959
▁ಶಾಖೆ	-11.2959
ବୁ	-11.296
▁କରିଥିଲା	-11.2961
ോൺ	-11.2961
▁યુવા	-11.2961
▁नको	-11.2963
▁आजार	-11.2965
▁ಬಯಸಿದ	-11.2967
▁ಬೆದರಿಕೆ	-11.2967
▁ಮೂಲಸೌಕರ್ಯ	-11.2967
▁પડકારો	-11.2971
▁ശിക്ഷ	-11.2971
्रे	-11.2971
्ट	-11.2972
▁પ્રજાતિઓ	-11.2973
प्प	-11.2973
▁પરિસ્થિતિઓ	-11.2975
▁ફોર્મેટ	-11.2976
▁ಪರಿಹರಿಸ	-11.2976
▁രൂപം	-11.2977
▁ವೀಕ್ಷಿಸಲು	-11.2977
▁વર્ઝન	-11.2977
▁മുഖ്യമന്ത്രി	-11.2979
▁ಸ್ಪ್ಯಾನಿಷ್	-11.2982
▁ଦେଇଛନ୍ତି	-11.2983
▁മുഖം	-11.2984
▁ಆಧ್ಯಾತ್ಮಿಕ	-11.2987
▁ಗ್ರೀಕ್	-11.2987
▁હિંસા	-11.2987
▁ವರ್ಷಕ್ಕಿಂತ	-11.2988
▁જોયા	-11.2988
त्मक	-11.2989
▁બતાવે	-11.2989
▁ಭಾರಿ	-11.2989
▁ವಿಶ್ವಾದ್ಯಂತ	-11.2989
▁સિદ્ધાંતો	-11.2991
▁ಕಾರಿನ	-11.2992
ದ್ದಾರೆ	-11.2992
▁ಕಾದಂಬರಿ	-11.2993
▁ಸ್ಪೇನ್	-11.2993
▁ഇല്ലാതാക്ക	-11.2993
▁નામના	-11.2993
▁ಅತೀ	-11.2996
▁ಸಂಭವಿಸಿದ	-11.2996
▁પ્રવાહી	-11.2997
ವರಲ್ಲಿ	-11.2998
യൊക്കെ	-11.2998
▁കേസിൽ	-11.2999
▁અવકાશ	-11.2999
▁સ્ક	-11.3
▁આવેલું	-11.3
ଆର	-11.3001
▁ટીમો	-11.3002
▁ಬೆಂಬಲಿಸುತ್ತದೆ	-11.3003
▁ವಿಶಾಲ	-11.3003
▁ଆଲୋଚନା	-11.3003
▁ಎಸ್ಟೇಟ್	-11.3003
▁पुढच्या	-11.3003
ടക്ക	-11.3003
▁ನೆಲೆಸ	-11.3003
▁ಹಂತಗಳಲ್ಲಿ	-11.3004
▁मिळत	-11.3004
▁બટન	-11.3007
▁करावा	-11.3008
▁तीसरे	-11.3008
ટુ	-11.3008
▁ફાયદા	-11.301
ടാ	-11.301
▁दोष	-11.3011
▁રજા	-11.3011
▁മര	-11.3011
▁അത്ഭുത	-11.3012
ଶି	-11.3012
▁નીકળી	-11.3013
▁പിതാവ	-11.3017
▁પ્રદર્શિત	-11.3018
▁વિચિત્ર	-11.3018
▁ପୂର୍ବ	-11.3019
▁କରିଥାଏ	-11.302
ണ്	-11.302
▁फिल्मों	-11.3021
▁ಸ್ಯಾನ್	-11.3022
▁रस	-11.3022
▁हमला	-11.3022
▁फ्रान्स	-11.3023
▁ಖಿನ್ನತೆ	-11.3023
દો	-11.3025
▁नज़र	-11.3025
▁തെറ്റ	-11.3025
▁രാഷ്ട്ര	-11.3026
▁ଜୀବନରେ	-11.3026
▁કેટલું	-11.3028
▁वकील	-11.3028
▁ನಿಧನರಾದರು	-11.3028
ೆಂದರೆ	-11.3028
▁പര	-11.3029
▁നിർത്ത	-11.3031
ಗಿಂತಲೂ	-11.3031
▁പുസ്തകങ്ങൾ	-11.3032
▁हाउस	-11.3033
▁સમયના	-11.3033
▁ನೀರಿನಲ್ಲಿ	-11.3034
▁जेल	-11.3035
ମୁଁ	-11.3035
▁ವಿಭಾಗದಲ್ಲಿ	-11.3035
▁ଛୋଟ	-11.3038
▁ಮದುವೆಯಾಗ	-11.3038
▁ಜನರಲ್ಲಿ	-11.304
▁ಸೂಕ್ತವಾಗಿದೆ	-11.3041
▁os	-11.3042
▁കാര്യമാണ്	-11.3042
પ્રો	-11.3043
▁ತಿರಸ್ಕರಿಸ	-11.3043
▁ચરબી	-11.3043
▁വിഷയം	-11.3044
▁ଅତି	-11.3047
ગુ	-11.3047
▁നാല	-11.3047
▁ବନ୍ଧୁ	-11.3048
▁દરમ્યાન	-11.3048
▁ઓક્સિજન	-11.3049
▁मिनिटे	-11.3049
▁ಆವೃತ್ತಿಯನ್ನು	-11.3052
म्	-11.3052
▁ପଡ଼ି	-11.3053
▁ઓનલાઈન	-11.3054
▁કામદારો	-11.3055
▁વર્ગો	-11.3056
▁മോഡൽ	-11.3056
ന്നി	-11.3056
mp	-11.3059
▁ಟೀ	-11.3059
വന്ന	-11.3062
▁વન	-11.3062
▁ಸಂಸ್ಥೆಗಳ	-11.3062
▁ಕಾಶ್ಮೀರ	-11.3063
▁દલીલ	-11.3063
▁प्रधान	-11.3064
▁വാണിജ്യ	-11.3064
▁સૌપ્રથમ	-11.3064
▁સંચાર	-11.3064
ડીએ	-11.3064
▁લાયક	-11.3067
ಲಂ	-11.3068
▁ଖେଳ	-11.3068
▁ಮುಗಿಸ	-11.307
▁સરહદ	-11.3071
▁ಕರ್ತನ	-11.3072
▁પાઠ	-11.3072
▁ಕೇ	-11.3073
▁നോക്കാം	-11.3073
▁ವೈಫಲ್ಯ	-11.3074
▁ಹಿಂದಿ	-11.3076
▁ತೀರ್ಮಾನ	-11.3076
▁റിലീസ്	-11.3076
▁അന്വേഷണ	-11.3078
▁उल्लंघन	-11.3079
▁रेल्वे	-11.3079
▁પરમાણુ	-11.3079
▁ಬೀಚ್	-11.3079
bc	-11.308
▁જારી	-11.3081
ಡೆನ್	-11.3082
കി	-11.3084
▁बाबतीत	-11.3084
▁ପୁଅ	-11.3084
▁ಸಂಪುಟ	-11.3085
ುವುದರಲ್ಲಿ	-11.3086
▁പരസ്യ	-11.3086
▁धु	-11.3087
▁ಟರ್ಕಿ	-11.3088
▁गरीब	-11.3088
▁ಮುಂದ	-11.3088
▁ವೆಬ್ಸೈಟ್ನಲ್ಲಿ	-11.309
▁ವಿಧ	-11.3091
▁ಜಿಲ್ಲೆಯ	-11.3092
▁രഹസ്യ	-11.3092
ಿಸಿದರು	-11.3093
▁ಸ್ಥಳಕ್ಕೆ	-11.3093
ക്കുറിച്ച്	-11.3093
▁ഉയർത്ത	-11.3094
▁ઇન્ટરનેશનલ	-11.3094
▁રાખ્યું	-11.3095
▁धाव	-11.3097
▁അര	-11.3101
▁ಆಸ್ಪತ್ರೆಯಲ್ಲಿ	-11.3101
▁ಪ್ರಕೃತಿ	-11.3104
▁આશ્ચર્યજનક	-11.3105
▁ಲಕ್ಷಾಂತರ	-11.3105
▁se	-11.3107
▁माह	-11.3108
▁ಸೃಷ್ಟಿ	-11.3109
▁ഇഷ്ടമാണ്	-11.311
▁ಕುಡಿಯ	-11.3113
▁नियमों	-11.3113
▁ಪರಿಗಣಿಸಿ	-11.3113
▁એમ્પ્લોયર	-11.3115
▁ಪರಿವರ್ತಿಸ	-11.3115
▁दिख	-11.3116
▁രസകരമായ	-11.3116
▁ಮಾಡುವುದನ್ನು	-11.3116
▁જનતા	-11.3117
ટ્રા	-11.3118
▁വരെയുള്ള	-11.3119
▁നടി	-11.312
▁അടുത്തിടെ	-11.312
વેલ	-11.3122
▁ಕಾರಣವಾಯಿತು	-11.3124
▁बजट	-11.3125
▁സ്വാഗതം	-11.3125
▁ಕಿಂಗ್	-11.3126
▁ಏರ	-11.3127
▁ಮೊತ್ತ	-11.3127
ोट	-11.313
▁समाविष्ट	-11.313
ವಾಗಿದ್ದರೆ	-11.3131
▁ദ്വീപ	-11.3132
▁ಅಳವಡಿಸ	-11.3133
▁બધાં	-11.3133
▁ગરમી	-11.3134
▁रहेगा	-11.3135
ಪಟ್ಟ	-11.3137
▁टन	-11.3137
▁ಹೀ	-11.3137
▁मध्यम	-11.3138
കാലത്ത്	-11.314
▁કાર્બન	-11.3141
▁आगामी	-11.3141
▁ಆಲ್ಬಮ್	-11.3141
▁પ્રવાસીઓ	-11.3142
ಾಯ	-11.3143
▁ആവശ്യങ്ങൾ	-11.3144
ವಾಗಿರಬೇಕು	-11.3145
▁विशेषज्ञ	-11.3145
▁മരുന്ന്	-11.3145
▁છોડવા	-11.3146
▁നൽകുക	-11.3147
णाऱ्या	-11.3147
▁ಮುಂದುವರಿದ	-11.3147
▁ସପ୍ତାହ	-11.3149
▁કાઉન્સિલ	-11.3151
▁ಆಫ್ರಿಕಾದ	-11.3154
▁ઉમેદવારો	-11.3155
▁ઈન્ડિયા	-11.3156
▁വിധി	-11.3157
▁આપવી	-11.3158
▁ନିକଟରେ	-11.3159
કામ	-11.3161
▁બન્યો	-11.3161
▁कैसा	-11.3163
▁ಪ್ರಯತ್ನಿಸುತ್ತ	-11.3164
സ്വ	-11.3165
▁રોડ	-11.3166
▁सहायक	-11.3166
▁ઉદાહરણો	-11.3167
▁ഇൻഷുറൻസ്	-11.3167
▁ഓഡിയോ	-11.3167
ശു	-11.3168
▁ಕಾರಣದಿಂದ	-11.3168
▁स्थानों	-11.317
▁പീ	-11.317
വൽ	-11.3171
▁વાતો	-11.3172
▁ಮಾನ್ಯತೆ	-11.3173
▁ಮಾಸಿಕ	-11.3177
ಕೀ	-11.3177
▁കാലത്ത്	-11.3177
ನೆಂದು	-11.3178
ನೈ	-11.3178
▁ସେଠାରେ	-11.318
▁സജീവ	-11.318
▁ಗಣಿತ	-11.318
▁ಮಾಂಸ	-11.3182
ba	-11.3182
▁ಉಲ್ಲಂಘನೆ	-11.3182
▁ಅತಿಥಿ	-11.3183
▁വിൽക്ക	-11.3184
▁ગેમ્સ	-11.3185
▁ಹೊಣೆಗಾರಿಕೆ	-11.3185
▁फ़ाइल	-11.3185
vi	-11.3187
▁ପ୍ରଭାବ	-11.3187
▁घेणे	-11.3187
▁તદ્દન	-11.3187
ಎಮ್	-11.3188
रू	-11.3189
▁છોકરીઓ	-11.3189
▁ಇತರರಿಗೆ	-11.319
▁ಒಪ್ಪಂದಕ್ಕೆ	-11.319
▁ഉത്തര	-11.3191
▁सर्वेक्षण	-11.3192
▁ନିମନ୍ତେ	-11.3192
▁മുന്നോട്ടു	-11.3192
▁खेळाडू	-11.3193
▁നൽകുന്നത്	-11.3195
▁കൊണ്ടുവര	-11.3196
▁મોડલ	-11.3197
കൊണ്ടു	-11.3197
▁કોફી	-11.3198
▁ಮಾಡಿದ್ದ	-11.3199
ದಲ್ಲೂ	-11.3199
દેશ	-11.3202
▁तरीकों	-11.3203
▁വികസിപ്പിക്ക	-11.3204
▁ಪಾಲುದಾರ	-11.3206
ಕೊಡ	-11.3207
▁रै	-11.3209
▁સુધારા	-11.3211
मल	-11.3211
▁ನೀಡಬೇಕು	-11.3212
ळ्या	-11.3212
▁हमले	-11.3212
വർഷം	-11.3217
ist	-11.3217
▁കീഴിൽ	-11.3218
▁കുട്ടികള	-11.3219
▁ലഭ്യമാക്ക	-11.3219
▁ഓഫീസ്	-11.322
▁ବସି	-11.3223
▁ಚಳುವಳಿ	-11.3223
▁വെള്ളിയാഴ്ച	-11.3223
▁ಓರ್ವ	-11.3223
ോള	-11.3224
▁ଏତେ	-11.3224
▁उद्या	-11.3225
▁ಗ್ರಹ	-11.3226
▁સંસદ	-11.3228
▁હોટલ	-11.3229
▁തി	-11.3229
▁ಕೋಣೆಯಲ್ಲಿ	-11.3229
▁ರಾಯಲ್	-11.3229
▁ഇഷ്ടപ്പെടുന്ന	-11.323
▁ક્ષણ	-11.3232
▁ઉદ્યોગમાં	-11.3232
ಯಾಗಿದ್ದರು	-11.3232
▁साथी	-11.3232
▁માળખું	-11.3234
▁ફ્રાન્સ	-11.3235
▁ଲକ୍ଷ	-11.3235
ിന്റെയും	-11.3235
▁ಫ್ಲ	-11.3236
▁નોન	-11.3238
▁प्रतिसाद	-11.3239
▁ഒരാഴ്ച	-11.3239
▁पड़	-11.3239
▁ତାକୁ	-11.3239
est	-11.324
બંધ	-11.3241
▁ಇವುಗಳಲ್ಲಿ	-11.3241
▁પ્રતીક	-11.3241
▁हिंदी	-11.3245
ବର	-11.3245
पद	-11.3245
ानुसार	-11.3247
▁થવાનું	-11.3248
▁इमारत	-11.3248
લિસ્ટ	-11.3248
ಸಿನ್	-11.3249
▁स्मार्ट	-11.3249
▁वर्षांचा	-11.3251
ପୁର	-11.3252
▁ನಿರ್ವಹಿಸುವ	-11.3252
ലോക	-11.3253
विन	-11.3254
▁જાળવણી	-11.3254
▁ನಗದು	-11.3255
▁മുസ്ലിം	-11.3255
સાય	-11.3256
▁രാജ	-11.3257
▁आपसे	-11.3257
▁असणार	-11.3258
▁मालिक	-11.3258
▁ಸೌರ	-11.3259
▁बनाएं	-11.326
▁ಆದಾಯದ	-11.326
▁ಭಾಗವು	-11.3261
▁ಸ್ಥಳವಾಗಿದೆ	-11.3261
▁ಪಡೆದುಕೊಂಡ	-11.3262
▁പരിശീലന	-11.3262
▁વેબસાઇટ્સ	-11.3263
▁പ്രതിഷേധ	-11.3263
▁त्रास	-11.3265
▁आउट	-11.3266
▁ઘટક	-11.3266
▁સફર	-11.3267
▁पेड़	-11.3267
▁ഇതെല്ലാം	-11.3267
▁घट	-11.3267
▁समर्पित	-11.327
▁ଅନୁଯାୟୀ	-11.327
▁ഇൻസ്റ്റിറ്റ്യൂ	-11.327
ാനി	-11.3271
ದ್ಧ	-11.3271
▁પુ	-11.3271
▁ചെലവഴിക്ക	-11.3271
▁ନିର୍ମାଣ	-11.3275
▁देशातील	-11.3276
▁ಚಂದ್ರನ	-11.3278
▁ગિ	-11.3279
▁ದೀಪ	-11.328
▁વરિષ્ઠ	-11.328
▁इटली	-11.328
▁ನಿಗಮ	-11.3281
▁എനിക്കറിയില്ല	-11.3281
ന്ദ്ര	-11.3281
▁સરકારના	-11.3284
▁गूगल	-11.3286
▁പട്ടികയിൽ	-11.3286
▁लवकर	-11.3287
▁ವ್ಯವಸ್ಥೆಯಲ್ಲಿ	-11.3288
അത്	-11.3291
▁प्रदूषण	-11.3291
▁સાંભળ્યું	-11.3291
▁બરફ	-11.3292
▁ತೊಡಗ	-11.3292
▁ಆರ್ಥಿಕತೆ	-11.3294
യാള	-11.3294
▁સહિતના	-11.3294
ിയിട്ടുണ്ട്	-11.3297
ശ്	-11.3297
▁ಅಮೆರಿಕನ್ನರು	-11.3298
▁उम्मीदवार	-11.3299
▁ಶೀತ	-11.3299
▁लाव	-11.33
▁ಬ್ಲ	-11.3301
▁પડ્યો	-11.3302
ಯವರು	-11.3303
▁અઠવાડિયે	-11.3306
▁સ્વાગત	-11.3307
▁अर्थातच	-11.3308
▁ലേഖനം	-11.3309
▁ವ್ಯಕ್ತಿಗಳ	-11.3309
▁ବୟସ	-11.331
▁ફિલ્મમાં	-11.3312
▁नेताओं	-11.3312
▁२०	-11.3314
▁બહેન	-11.3314
▁ગરીબ	-11.3315
▁മാറ്റാൻ	-11.3315
കൻ	-11.3317
▁तेच	-11.3317
▁ಮ್ಯೂಸಿಯಂ	-11.3317
ટન	-11.3318
▁અકસ્માત	-11.3318
▁ವಾಕ್ಯ	-11.3319
ಸರಿ	-11.332
▁બધાને	-11.3321
▁ഏഴ്	-11.3321
ିବା	-11.3323
▁പ്രധാനമായും	-11.3323
▁ನಾನೂ	-11.3324
▁ಸೇರಿಸಿ	-11.3324
▁ଅଧିକାର	-11.3327
▁बैटरी	-11.3327
▁છેવટે	-11.3327
▁ಉತ್ಸಾಹ	-11.3328
ിട്ടും	-11.3329
▁ಭಿನ್ನ	-11.3331
ଫେ	-11.3331
▁हालाँकि	-11.3333
▁ಪುಸ್ತಕಗಳನ್ನು	-11.3333
ೆಂದು	-11.3335
▁લોહી	-11.3336
▁કોચ	-11.3337
▁microsoft	-11.3338
▁नींद	-11.3338
▁चुना	-11.3338
▁ತೂಕವನ್ನು	-11.3339
ନ୍ଦ	-11.334
▁ಹಿನ್ನೆಲೆ	-11.334
▁ബിസിനസ	-11.3341
rt	-11.3341
▁तंत्र	-11.3343
▁સંકળાયેલ	-11.3343
▁ನೋ	-11.3344
▁सादर	-11.3344
ಕ್ರಿ	-11.3347
ବାଦ	-11.3348
▁ભજવે	-11.3348
▁കാലയളവിൽ	-11.3349
▁കഴിഞ്ഞ്	-11.335
▁മൂല്യ	-11.335
वो	-11.3351
▁ક્લ	-11.3352
▁पोलिस	-11.3353
▁रचना	-11.3353
▁ಆಪರೇಟಿಂಗ್	-11.3354
▁ex	-11.3356
▁खुले	-11.3356
തായും	-11.3358
ଡ଼ି	-11.3359
bs	-11.336
ായിരിക്കണം	-11.3361
સ્ટે	-11.3361
▁રોલ	-11.3361
▁ಹೊರಹೊಮ್ಮ	-11.3362
▁ജില്ല	-11.3362
ण्याच्या	-11.3363
ಮಾನ್	-11.3364
▁यौन	-11.3364
▁શહેરોમાં	-11.3365
തെന്ത	-11.3365
▁യേശു	-11.3367
ಮೆನ್	-11.3369
▁ವರ್ಗಾಯಿಸ	-11.3369
▁ಪ್ರವೃತ್ತಿ	-11.337
▁ഭീഷണി	-11.337
▁പറഞ്ഞുഃ	-11.337
▁સ્વચ્છ	-11.3374
▁પેકેજ	-11.3374
પ્ટ	-11.3375
▁ढूंढ	-11.3375
▁ಅಂತರಾಷ್ಟ್ರೀಯ	-11.3375
୍ରେ	-11.3375
▁ಪ್ರಾಧಿಕಾರ	-11.3376
വരിൽ	-11.3377
▁नक्की	-11.3377
▁ತಯಾರಿಸಲು	-11.3378
▁દેખાશે	-11.338
▁જાણવું	-11.3383
ರಾಮ	-11.3383
थे	-11.3383
ങ്ങളെയും	-11.3384
▁ബഹിരാകാശ	-11.3385
▁जिसकी	-11.3387
op	-11.3387
ದವರು	-11.3388
▁തെരഞ്ഞെടുപ്പ്	-11.339
▁ಆಫೀಸ್	-11.3391
▁റെയിൽവേ	-11.3391
▁ಪಾಲುದಾರಿಕೆ	-11.3394
यो	-11.3394
▁ક્રોસ	-11.3395
▁शैक्षणिक	-11.3396
▁ಶ್ರೀಲಂಕಾ	-11.3396
▁ಆಕಾರ	-11.3396
▁എന്നിവയുടെ	-11.3397
▁ಉಂಟುಮಾಡ	-11.34
▁गुरुवार	-11.34
▁അതുകൊണ്ടാണ്	-11.3403
▁ತಜ್ಞರು	-11.3404
▁ಬಂದಿತು	-11.3405
सुद्धा	-11.3405
▁સામ્રાજ્ય	-11.3406
▁रू	-11.3406
▁જન્મદિવસ	-11.3407
▁ಕರಾವಳಿ	-11.3408
▁നഷ്ട	-11.3408
നില	-11.3408
ಯಲ್ಲಿದೆ	-11.3409
▁ಇದ್ದರು	-11.3411
▁હલ	-11.3411
ର୍ଣ୍ଣ	-11.3412
▁ಆಡಿಯೋ	-11.3412
▁બોક્સ	-11.3413
▁ચાલ	-11.3415
▁ರೆಕಾರ್ಡ್	-11.3416
▁ପର	-11.3416
ിരിക്കണം	-11.3417
▁ಶ್ರೇಣಿಯ	-11.3418
ುತ್ತಿರ	-11.3419
ಸ್ಕಿ	-11.342
▁વર્તન	-11.342
▁ಕಡಿತ	-11.3422
▁ಆಗಿರುತ್ತದೆ	-11.3422
ea	-11.3423
▁ಲೈಫ್	-11.3423
▁ನಿರ್ದೇಶಿಸ	-11.3425
▁ಸಂಗೀತವನ್ನು	-11.3426
▁ಮುಕ್ತಾಯ	-11.3427
▁ಯಾವುವು	-11.3428
▁भले	-11.3428
▁वाढत	-11.3428
▁ऑर्डर	-11.3429
ಪೀ	-11.343
▁വ്യത്യസ്തമാണ്	-11.3431
▁એટલી	-11.3433
▁ಗರ್ಭಿಣಿ	-11.3434
ડ્સ	-11.3434
ಸೈ	-11.3435
▁ಸ್ವಾಗತ	-11.3436
▁ನಿರ್	-11.3437
ચિ	-11.3438
▁નૃત્ય	-11.3438
▁શુદ્ધ	-11.3438
रियल	-11.3439
▁പാർക്ക	-11.3441
ಸಮ್	-11.3442
▁ദിവസത്തെ	-11.3442
▁ഘടന	-11.3442
ಸ್ಸಿ	-11.3445
▁आकाश	-11.3449
▁କରାଯାଉଛି	-11.3449
▁ಅಂತರ್ಜಾಲ	-11.3449
▁ફૂલો	-11.3451
ટિંગ	-11.3455
ೋಪ	-11.3456
▁ಹೇಳಬಹುದು	-11.3457
▁અમલમાં	-11.3457
ಲಾಗ	-11.3461
▁ಸಮಯಕ್ಕೆ	-11.3461
▁માસ્ક	-11.3461
રના	-11.3464
▁ಬಯಸುವಿರಾ	-11.3465
▁നിനക്ക	-11.3466
ಯೊಂದನ್ನು	-11.3467
▁सेवाएं	-11.3467
▁പ്ലാറ്റ്ഫോമ	-11.3468
▁ಸ್ಮಾರಕ	-11.347
▁स्पेस	-11.3471
▁ശ്രീ	-11.3471
▁ವರ್ಷಗಳವರೆಗೆ	-11.3472
ದ್ದರು	-11.3473
ಹೊ	-11.3474
▁અભિયાન	-11.3475
▁ಮಧುಮೇಹ	-11.3475
▁ಯಶಸ್ಸನ್ನು	-11.3475
▁નકલ	-11.3477
▁ಲೋಡ್	-11.3478
▁ଇଣ୍ଡିଆ	-11.3481
▁ಗ್ರೂಪ್	-11.3481
▁മാതാപിതാക്കൾ	-11.3481
▁દુકાન	-11.3482
▁ବ୍ୟବସାୟ	-11.3482
▁നോക്കൂ	-11.3483
ଟର	-11.3484
▁പ്രവർത്തിക്കാൻ	-11.3486
▁ಮಾಡಲಿಲ್ಲ	-11.3489
▁കൂട	-11.3489
▁પ્રધાનમંત્રીએ	-11.349
▁ಕಾರ್ಯವಿಧಾನ	-11.349
▁ಪ್ರವಾಹ	-11.3491
▁ಸಂದೇಶವನ್ನು	-11.3492
▁बढ़ने	-11.3497
▁સદીમાં	-11.3497
ರಿಯನ್	-11.3498
▁यूके	-11.3499
▁ಹೆಸರಿನಲ್ಲಿ	-11.35
ಗ್ಗ	-11.3502
▁ಗೊಂದಲ	-11.3502
▁ವಿಟಮಿನ್	-11.3502
▁माग	-11.3507
▁મેરી	-11.351
▁ಸ್ಟ	-11.3511
▁ପ୍ରକାଶ	-11.3512
▁ದಾಖಲೆಗಳನ್ನು	-11.3512
▁സംഭവിക്കുന്നത്	-11.3513
▁સર્જન	-11.3516
▁દેખરેખ	-11.3518
▁ମଣିଷ	-11.3518
▁ટ્રાયલ	-11.3518
ીયન	-11.352
▁മക്കള	-11.352
नेट	-11.3521
▁സൂക്ഷിക്ക	-11.3522
ଛା	-11.3522
▁ઇન્ટરવ્યૂ	-11.3523
▁ಲ್ಯಾಟಿನ್	-11.3523
▁യഹോവ	-11.3524
ುವಿರಿ	-11.3525
▁ಅವಧಿಗೆ	-11.3525
▁દિશા	-11.3525
▁ઓટો	-11.3526
▁ಸರಣಿಯ	-11.3526
ପୂର୍ଣ୍ଣ	-11.3528
▁માણસો	-11.3528
▁સર્જ	-11.3529
▁ಎದುರು	-11.3529
▁थोडा	-11.3529
▁ಹೊರಬಂದ	-11.3529
▁ಪ್ರಜೆ	-11.353
▁ಕನ್ನಡ	-11.3531
▁चंद्र	-11.3531
ate	-11.3532
▁ಹೇ	-11.3534
▁બનાવ્યું	-11.3534
▁चीज़	-11.3535
▁महत्त्वाचे	-11.3535
▁खासकर	-11.3536
▁പ്രശ്നങ്ങള	-11.3536
▁ವ್ಯತ್ಯಾಸವನ್ನು	-11.3538
ଢ଼	-11.3539
▁മുറിയിൽ	-11.354
▁ઇલેક્ટ્રોનિક	-11.3542
▁ಸಂಭವನೀಯ	-11.3543
▁ಸಾಧನಗಳು	-11.3543
▁विधि	-11.3544
▁ಕೆನಡಾದ	-11.3544
▁സ്പ	-11.3544
▁मैक	-11.3545
ફોર્મ	-11.3545
▁ಸಂಘರ್ಷ	-11.3549
▁ವಿಧಾನಗಳನ್ನು	-11.355
▁પેનલ	-11.355
▁પશુ	-11.355
▁अव	-11.3551
▁પ્રોજેક્ટ્સ	-11.3551
ാർത്ഥ	-11.3551
ില്ലേ	-11.3552
ઝી	-11.3553
આધારિત	-11.3554
▁ലാണ്	-11.3554
▁പങ്ക്	-11.3555
▁ಮದುವೆಯ	-11.3556
▁കൃത്യമായി	-11.3557
പ്പിക്ക	-11.3559
▁ಇವುಗಳು	-11.356
वली	-11.356
▁टेबल	-11.3561
ುತ್ತಿದ್ದೀರಿ	-11.3564
खर	-11.3564
ത്തിയ	-11.3564
▁സംസ്കാര	-11.3565
ॅन	-11.3565
▁കൊടുത്ത	-11.3565
▁വയസ്സ	-11.3566
▁शिकायत	-11.3566
▁ಯೂನಿಯನ್	-11.3566
▁സൌകര്യ	-11.3567
പോയ	-11.3568
▁शनिवार	-11.3569
िकल	-11.3569
ക്കാൾ	-11.3569
▁મહિનાની	-11.357
▁ಮನೆಯಿಂದ	-11.357
▁ಕಾರ್ಯಕ್ರಮಗಳು	-11.3571
▁दौरा	-11.3573
▁ചെയ്യാനും	-11.3573
▁ಬಾಲ್	-11.3575
▁બાળકના	-11.3576
▁തെരഞ്ഞെടുക്ക	-11.3577
▁ઑડિઓ	-11.3577
▁ઇલેક્ટ્રિક	-11.3578
▁ಹೊಂದಿಸ	-11.3578
▁થયેલી	-11.3578
▁ಉದ್ಯಮದ	-11.3579
પુ	-11.358
▁ಉತ್ಸವ	-11.3582
▁ಸೌದಿ	-11.3582
▁ತಪ್ಪಿಸ	-11.3582
ಈಗ	-11.3584
▁જતાં	-11.3584
ve	-11.3585
▁એનો	-11.3586
લું	-11.3587
▁रास्ते	-11.3588
▁വ്യത്യാസ	-11.3588
▁मासिक	-11.3588
▁po	-11.3589
▁व्हा	-11.3589
▁ನಾಯಕತ್ವ	-11.3589
▁પ્રયાસો	-11.3591
▁ओलंपिक	-11.3593
▁कोर्स	-11.3595
▁എന്തിനാണ്	-11.3596
ಯಿಂದಾಗಿ	-11.3596
▁ରିପୋର୍ଟ	-11.3598
▁മാർഗ	-11.36
▁ಯುದ್ಧದಲ್ಲಿ	-11.3601
വയ്ക്ക	-11.3603
▁ಕೋಟೆ	-11.3603
▁ନୂତନ	-11.3604
वून	-11.3605
୍ର	-11.3607
▁परेशान	-11.3608
▁पाए	-11.3608
▁ಸಂಭಾಷಣೆ	-11.3609
▁ସବୁବେଳେ	-11.3609
▁શંકા	-11.361
ുകൊണ്ട്	-11.361
▁करावी	-11.361
સના	-11.3611
ણો	-11.3612
ಯಲ್ಲಿನ	-11.3612
ക്സി	-11.3613
ସର	-11.3614
▁ഓപ്ഷനുകൾ	-11.3615
പ്പറ്റി	-11.3618
▁दुर्घटना	-11.3619
▁നിർബന്ധ	-11.362
ୁଛି	-11.3621
▁ବିମାନ	-11.3621
मू	-11.3624
▁ಸಾಕ್ಷಿ	-11.3624
▁ಬ್ಯಾಕ್ಟೀರಿಯಾ	-11.3624
▁किमी	-11.3625
▁ಆವಿಷ್ಕಾರ	-11.3625
▁इंसान	-11.3625
വയാണ്	-11.3626
▁ಸಾಧನಗಳನ್ನು	-11.3626
▁ದೀರ್ಘಾವಧಿಯ	-11.3628
▁છબીઓ	-11.363
▁ಸಿಂಡ್ರೋಮ್	-11.3631
▁പ്രാധാന്യം	-11.3631
▁જોખમી	-11.3631
▁പ്രായമുള്ള	-11.3632
▁रिश्ते	-11.3633
▁सौ	-11.3633
▁ಸಮುದಾಯದ	-11.3633
▁ಮೂಲಗಳು	-11.3636
▁સૈન્ય	-11.3636
▁मामला	-11.3637
▁ચેનલ	-11.3638
▁सगळे	-11.3639
िज	-11.3641
સ્ટા	-11.3641
േഷന	-11.3641
▁നാമ	-11.3641
▁मस्तिष्क	-11.3641
▁प्लेटफॉर्म	-11.3641
▁સજ્જ	-11.3642
▁સ્પા	-11.3642
▁ಶಸ್ತ್ರಚಿಕಿತ್ಸೆ	-11.3643
▁ଗୋ	-11.3646
▁ರಕ್ತದೊತ್ತಡ	-11.3647
▁ആത്മഹത്യ	-11.3647
▁ഡ്ര	-11.3648
▁വകുപ്പ	-11.3649
▁ऐ	-11.3649
▁ଆଇ	-11.365
▁તબક્કા	-11.3651
ड़ी	-11.3652
ಫೇ	-11.3652
▁കാലാവധി	-11.3652
സര	-11.3653
ଜନ	-11.3653
पणा	-11.3653
▁ac	-11.3655
▁ಶ್ವಾಸಕೋಶದ	-11.3655
ഴി	-11.3657
▁ଚଳିତ	-11.3658
▁अत्यधिक	-11.3658
oo	-11.3658
ಯಾಗಿದ್ದ	-11.3659
▁વિષયો	-11.366
▁സേന	-11.3661
▁ಮಕ್ಕಳಲ್ಲಿ	-11.3662
▁મુખ્યમંત્રી	-11.3663
િઓ	-11.3663
▁नगर	-11.3664
▁जोड	-11.3665
▁ତୁମ	-11.3665
िर	-11.3667
▁ನಡೆದಿದೆ	-11.3667
▁पोर्ट	-11.3667
નના	-11.3668
▁ಆಸ್ಪತ್ರೆಗೆ	-11.3669
▁असली	-11.3669
▁ಆತನು	-11.367
▁બાળકોની	-11.367
▁ಟ್ಯಾ	-11.3671
▁રામ	-11.3671
▁ಇತಿಹಾಸವನ್ನು	-11.3673
▁सहभागी	-11.3674
ूंगा	-11.3675
ନୀ	-11.3676
▁ಅಂಕಿ	-11.3676
▁ನೈ	-11.3676
▁પકડી	-11.3677
पूर	-11.3677
▁कार्बन	-11.3679
ರಬಹುದು	-11.3679
▁വയസ്സ്	-11.368
िड	-11.368
ൻറെ	-11.3682
ಗೊಂಡಿತು	-11.3683
ાની	-11.3683
ोव	-11.3683
▁ಕಿವಿ	-11.3684
मैंने	-11.3686
ನಲ್	-11.3687
▁ഭാവിയിൽ	-11.3687
▁સ્રોતો	-11.3689
ങ്ങളിലെ	-11.3689
▁ખાદ્ય	-11.369
▁ಕೈಗಾರಿಕೆ	-11.369
▁ଖବର	-11.369
▁କିପରି	-11.3691
▁सन	-11.3691
▁ମ୍ୟାଚ୍	-11.3691
▁१५	-11.3692
▁ग्रे	-11.3692
▁प्रगति	-11.3692
देखील	-11.3693
▁ಕೋಪ	-11.3694
▁ગુપ્ત	-11.3696
▁ಇಷ್ಟಪಡ	-11.3697
▁ഉറപ്പാക്ക	-11.3699
▁पीड़ित	-11.3701
▁જયારે	-11.3701
ಫ್ಟ್	-11.3702
മാറ്റ	-11.3702
▁ઘરના	-11.3702
▁തിരഞ്ഞെടുത്ത	-11.3703
▁देणार	-11.3705
फी	-11.3705
▁ಪ್ರತಿನಿಧಿಸ	-11.3707
▁പഠിപ്പിക്ക	-11.3709
▁બોલાવ	-11.371
സ്റ്റർ	-11.3711
▁રિયલ	-11.3712
▁ନାହାନ୍ତି	-11.3712
▁ವೀಸಾ	-11.3713
▁ജീവന	-11.3715
▁നടപ്പിലാക്ക	-11.3716
ಪ್ರಾ	-11.3717
go	-11.3717
ೆವು	-11.3719
ബന്ധ	-11.372
▁ಸಮತೋಲನ	-11.372
▁ಮಗುವನ್ನು	-11.372
▁ಇಂಟರ್	-11.372
ീന	-11.3721
▁પામ	-11.3721
പോലും	-11.3721
▁ಎಂದರೇನು	-11.3723
ഉപയോക്താക്കൾക്ക്	-11.3723
▁ಟನ್	-11.3724
▁as	-11.3724
ತೊ	-11.3724
▁കളിച്ച	-11.3724
क्क	-11.3725
fe	-11.3725
▁ಹಾರ್	-11.3728
▁ಪ್ರಜಾಪ್ರಭುತ್ವ	-11.3729
▁પાછળથી	-11.373
▁સમર્થ	-11.373
▁પોર્ટ	-11.3731
▁कठोर	-11.3734
वं	-11.3734
▁दि	-11.3735
▁ಗಂಭೀರವಾಗಿ	-11.3735
▁ನಿಯಂತ್ರಿಸಲು	-11.3739
▁പിടിച്ചു	-11.3739
▁इतने	-11.3739
▁લડાઈ	-11.374
▁दोघां	-11.3741
▁બિલ્ડિંગ	-11.3742
▁സ്വാതന്ത്ര്യം	-11.3744
▁બેઠકો	-11.3745
▁ટાપુ	-11.3747
ದೋ	-11.3749
▁पारंपरिक	-11.3749
ನಿನ	-11.3749
▁बाहरी	-11.375
▁କାର୍ଯ୍ୟକ୍ରମ	-11.375
ನನಗೆ	-11.375
▁ಗ್ಯಾ	-11.3754
നാള	-11.3754
▁ઝાડ	-11.3756
ിലേക്കുള്ള	-11.3757
▁ನಿವೃತ್ತಿ	-11.3758
▁ch	-11.3758
ag	-11.3759
▁ઝડપ	-11.3759
▁खूपच	-11.3759
ଁ	-11.376
▁ಸಾಮ್ರಾಜ್ಯ	-11.3763
▁വാങ്ങി	-11.3766
▁ದುರಂತ	-11.3767
▁पोलीस	-11.3767
▁સરખામણીમાં	-11.3768
ॉट	-11.3768
▁વાદળી	-11.3769
▁സത്യത്തിൽ	-11.3771
▁ഹിന്ദു	-11.3772
▁चांगल्या	-11.3772
▁શસ્ત્રક્રિયા	-11.3772
▁कोविड	-11.3772
▁ಪೌಂಡ್	-11.3774
▁പിടിക്ക	-11.3774
▁ಸರಳವಾದ	-11.3774
▁પ્રા	-11.3774
▁ഉപകരണ	-11.3776
વર્	-11.3777
ग्राफ	-11.3777
vo	-11.3778
▁ಪ್ರಬಂಧ	-11.3778
પૂર્ણ	-11.378
▁ಸೆಕೆಂಡುಗಳ	-11.378
▁സ്വാഭാവിക	-11.378
▁કાર્યક્ષમતા	-11.3783
▁कल्याण	-11.3783
▁ಅವಶ್ಯಕ	-11.3783
▁ಸೇನಾ	-11.3784
▁ಸ್ನೇಹ	-11.3785
▁ಹೊಡೆದ	-11.3788
▁ಹೈಕೋರ್ಟ್	-11.3789
▁ತೆಗೆದುಕೊಂಡು	-11.379
में	-11.379
▁ચલાવી	-11.3791
▁ଘଣ୍ଟା	-11.3792
ുടെയും	-11.3792
▁ನೆನಪ	-11.3792
▁ଆଇନ	-11.3793
▁बेस	-11.3793
▁ആഗ്രഹം	-11.3793
▁ಕಾರ್ಖಾನೆ	-11.3794
▁ગ્રેટ	-11.3794
▁ત્રીજી	-11.3794
▁नव्हे	-11.3794
▁ಮುಗಿದ	-11.3796
▁കൂട്ടുകാര	-11.3797
▁ಬದುಕು	-11.3797
▁കളിക്കാൻ	-11.3798
▁ನಿಯಮಿತ	-11.3799
ಮ್ಸ್	-11.3801
▁സമ	-11.3802
▁ದೇಶಕ್ಕೆ	-11.3802
▁ઉત્પાદકો	-11.3803
▁ഡയ	-11.3804
ല്പ	-11.3804
xbet	-11.3805
▁ઝોન	-11.3809
▁અગાઉના	-11.381
▁നായ	-11.381
▁પર્યાપ્ત	-11.381
ലൈ	-11.3812
ർമാർ	-11.3813
▁ಉತ್ಪಾದಕ	-11.3814
▁ಮಾರ್ಗಗಳಿವೆ	-11.3814
▁વાગ્યે	-11.3816
▁ಡಾಕ್ಯುಮೆಂಟ್	-11.3816
▁ଅନୁସାରେ	-11.3816
▁ଥରେ	-11.3817
ಲ್ಯಾ	-11.3818
▁प्रिय	-11.3818
▁ಮಾರಾಟದ	-11.3821
▁ಸ್ಪರ್ಧಾತ್ಮಕ	-11.3821
▁പൊലീസ	-11.3823
▁વ્યવસાયમાં	-11.3825
▁ડોઝ	-11.3825
વાઈ	-11.3827
ાવી	-11.3828
▁हजारों	-11.3828
▁પ્રયોગ	-11.3828
▁മൂല്യം	-11.383
▁જાણવાની	-11.383
ଯାଇଥିଲା	-11.3831
▁मंगलवार	-11.3833
▁લાવી	-11.3833
▁മൂലം	-11.3834
▁ઇચ્છતા	-11.3835
▁प्रांत	-11.3836
ಹೆಚ್	-11.3836
ક્રો	-11.3836
▁അക്രമ	-11.3836
ड़े	-11.3837
▁इंग्लंड	-11.3838
▁ജനത	-11.3841
ശാല	-11.3842
▁स्थायी	-11.3844
▁പരിഹാരം	-11.3844
▁ರಾಷ್ಟ್ರಪತಿ	-11.3844
▁ડેટિંગ	-11.3844
▁જીતવા	-11.3844
▁തിരഞ്ഞെടുപ്പ്	-11.3845
▁અક્ષરો	-11.3847
ದ್ದರೆ	-11.3848
▁ಪ್ರಾಂತ್ಯ	-11.385
▁बांध	-11.3853
▁ಆಧಾರ	-11.3853
▁प्रकारच्या	-11.3854
▁ଫଟୋ	-11.3855
പ്പെടുത്തിയ	-11.3857
▁ರಚಿಸುವ	-11.3858
▁ഏഴു	-11.3858
▁ફળ	-11.3863
▁સ્થાનો	-11.3864
▁ಪುಸ್ತಕವನ್ನು	-11.3864
▁કવરેજ	-11.3866
▁ಐಸ್	-11.3868
▁अस्तित्व	-11.3869
ുള്ളൂ	-11.3871
▁ರೆಡ್	-11.3872
▁ವ್ಯವಸ್ಥೆಯು	-11.3873
▁ગ્રીન	-11.3873
▁શરત	-11.3873
▁લડવા	-11.3874
વલ	-11.3874
द्ध	-11.3876
ിര	-11.3881
▁ಓದುವ	-11.3881
▁ନିୟମ	-11.3882
ില്ലാത്ത	-11.3882
▁वर्षांपूर्वी	-11.3882
▁લીધું	-11.3882
▁സൂചന	-11.3882
▁सौर	-11.3883
▁બ્રેક	-11.3884
ವಿರುವ	-11.3886
▁પીસી	-11.3887
പേർ	-11.3887
▁ଆହୁରି	-11.3888
▁ଦକ୍ଷିଣ	-11.3888
▁ಶಾಸನ	-11.3888
▁ದೇವಸ್ಥಾನ	-11.3888
િયમ	-11.3888
▁ಜಾರಿಗೊಳಿಸ	-11.3889
ಚ್ಛ	-11.389
ent	-11.389
ಸ್ಟಿಕ್	-11.3893
ନାହାନ୍ତି	-11.3893
▁ಟಿಪ್ಪಣಿ	-11.3893
▁ഫോണ	-11.3895
▁ಬಳಸಲಾಗುವ	-11.3897
▁प्राणी	-11.3898
കളുടെയും	-11.3898
▁ವರ್ತನೆ	-11.39
सम	-11.39
▁सोने	-11.3903
▁યાદીમાં	-11.3904
▁પરંપરા	-11.3907
▁ಮೊದಲೇ	-11.3907
▁होण्याची	-11.3907
▁तैयारी	-11.3907
▁പൂ	-11.3908
▁ಮಾತನಾಡಿದ	-11.3909
▁ರೋಮನ್	-11.3911
▁प्रारंभिक	-11.3912
▁वापसी	-11.3913
ટિ	-11.3915
▁ഭീകര	-11.3915
▁ભાગોમાં	-11.3916
▁സാഹിത്യ	-11.3917
വിധ	-11.3918
ोस	-11.3919
▁ଯୁଦ୍ଧ	-11.3921
ୱା	-11.3922
यन	-11.3922
▁അമേരിക്കയിലെ	-11.3923
▁ഗർഭ	-11.3927
▁आठव	-11.3929
▁ವಿಚಿತ್ರ	-11.3933
▁സ്നേഹിക്ക	-11.3934
▁id	-11.3934
▁વેચી	-11.3937
▁પદાર્થો	-11.3938
▁ડિવાઇસ	-11.3938
▁ಅಭಿವ್ಯಕ್ತಿ	-11.3938
▁ଡ	-11.3938
▁ଦୂର	-11.3941
▁ગ્રીક	-11.3941
▁ಕವಿತೆ	-11.3941
▁ಸಂಕ್ಷಿಪ್ತ	-11.3942
▁കൃത്യമായ	-11.3942
മൂ	-11.3942
▁कुमार	-11.3943
▁ટ્રસ્ટ	-11.3944
▁കൃഷി	-11.3944
▁ಶಿಕ್ಷಣದ	-11.3945
હર	-11.3946
▁અનુભવો	-11.3946
▁પહોંચે	-11.3948
▁निदेशक	-11.3949
▁મેમરી	-11.3949
▁ટેક્નોલોજી	-11.3949
▁ಹೋರಾಡ	-11.3949
▁യോഗ്യത	-11.3949
▁आव्हान	-11.3949
ରଣ	-11.395
▁सकाळी	-11.3951
▁ಕಂಡು	-11.3952
યલ	-11.3952
બેક	-11.3953
▁ઓપરેટિંગ	-11.3954
▁ಲೆಕ್ಕಾಚಾರ	-11.3954
▁मूळ	-11.3955
▁ശ്രമിച്ച	-11.3955
▁प्री	-11.3955
ಡನ್	-11.3955
ಜೆನ್	-11.3957
▁ಮಹಿಳೆಯರಲ್ಲಿ	-11.3958
▁ದೀರ್ಘಕಾಲ	-11.3959
ಹೋದ	-11.396
▁પ્રોટીન	-11.396
ମେ	-11.3962
▁આપવું	-11.3962
▁ತಿಳಿದುಕೊಳ್ಳಲು	-11.3963
▁ಎಮ್	-11.3963
ine	-11.3963
शिप	-11.3965
▁ಪರೀಕ್ಷೆಯ	-11.3966
പു	-11.3966
▁कार्यकारी	-11.3967
ાઉ	-11.3967
▁ಹೊಂದಿರ	-11.3967
▁હોસ્ટિંગ	-11.3968
▁નિશ્ચિત	-11.3971
▁ಮೀಡಿಯಾ	-11.3971
▁અણુ	-11.3974
▁ನಿಯಮಗಳ	-11.3974
▁കാണിക്ക	-11.3975
▁વિડિઓઝ	-11.3976
ക്കൾ	-11.3976
▁ടെക്നോളജി	-11.3977
▁തുടർന്നു	-11.3978
ദ്ധ്യ	-11.3978
▁പലതും	-11.3979
▁ഞാനൊരു	-11.398
ച്ചി	-11.398
▁ಬಗೆಯ	-11.398
▁ಇಲ್ಲದ	-11.3981
▁ക്ല	-11.3981
എഫ്	-11.3982
▁പ്രാഥമിക	-11.3982
ഫൈ	-11.3983
▁ಅವಳಿಗೆ	-11.3983
▁શરીરને	-11.3985
▁ಪೂರ್ಣಗೊಂಡ	-11.3985
േക്കും	-11.3986
▁ನಟಿಸ	-11.3986
▁ಸಮುದ್ರದ	-11.3986
▁പരമ്പരാഗത	-11.3988
▁शराब	-11.3988
નારા	-11.3988
▁അഭിപ്രായം	-11.3989
▁सर्वर	-11.3991
▁ಬಾಕ್ಸ್	-11.3995
▁ಇಟ್ಟುಕೊಳ್ಳ	-11.3995
▁ವಿಧಾನಗಳು	-11.3995
▁यांचा	-11.3997
▁દ્રશ્ય	-11.3997
▁ಪ್ಯಾಕೇಜ್	-11.3998
▁संगणक	-11.3998
ધી	-11.3999
▁गिरफ्तार	-11.3999
ഖ്	-11.3999
▁ಹೋದರು	-11.4
▁മെച്ചപ്പെട്ട	-11.4
▁ಪ್ಲೇಯರ್	-11.4003
સ્ટી	-11.4003
▁ಕಾರ್ಮಿಕರ	-11.4004
▁हाथों	-11.4004
▁बनाते	-11.4004
▁दुसर्या	-11.4005
ക്കർ	-11.4005
▁ಫೈನಲ್	-11.4005
▁ദൃശ്യ	-11.4006
▁जपान	-11.4006
▁ಭಾಗಗಳನ್ನು	-11.4006
▁കൂട്ടിച്ചേർത്തു	-11.4006
▁ಹಿಮ	-11.4007
വാസ	-11.4008
ാമോ	-11.4009
▁url	-11.4011
▁આવૃત્તિ	-11.4011
ताना	-11.4012
▁બાયો	-11.4012
ാവസ്ഥ	-11.4014
▁न्यूजीलैंड	-11.4016
▁बिजनेस	-11.4016
▁ତୃତୀୟ	-11.4016
▁അപ്ലിക്കേഷൻ	-11.4016
ച്ഛ	-11.4018
▁પગલા	-11.402
▁ಧೈರ್ಯ	-11.4022
▁जवळजवळ	-11.4022
▁पशु	-11.4022
▁ലിസ്റ്റ്	-11.4023
ಸ್ಗೆ	-11.4025
▁ಅಧ್ಯಯನವು	-11.4026
▁ತಪ್ಪಾಗಿ	-11.4026
▁ಉಪಕರಣಗಳು	-11.4027
▁ro	-11.4027
▁દરવાજા	-11.4027
▁ಮುಂಬರುವ	-11.4027
▁કેટલો	-11.4028
▁ദേവ	-11.4029
▁કોઈની	-11.4029
▁ನೋಟವನ್ನು	-11.403
▁പ്രശസ്ത	-11.4031
▁do	-11.4032
▁ವಿಮರ್ಶೆ	-11.4033
▁ଶ୍ରୀ	-11.4033
▁ತೀರ್ಪು	-11.4035
▁ಕೊಲ್ಲ	-11.4035
▁રાઉન્ડ	-11.4036
▁सिटी	-11.4037
▁संचालित	-11.4039
▁बचत	-11.4039
▁ഫോ	-11.4039
▁જોડાવા	-11.4041
ിനെയും	-11.4041
▁કન્	-11.4041
വിട	-11.4041
ുചെയ്ത	-11.4044
▁ચિ	-11.4044
▁व्याख्या	-11.4044
ber	-11.4045
▁याबाबत	-11.4047
▁વેચ	-11.4048
▁പേരാണ്	-11.4049
ಸಿಯಾ	-11.4049
▁ખાય	-11.405
▁प्रकरणात	-11.405
▁સિસ્ટમ્સ	-11.4051
▁ആവശ്യപ്പെട്ട	-11.4051
ിക്കുന്നത്	-11.4051
▁വയ്ക്ക	-11.4052
ાએ	-11.4055
[...]
